!
"
%
'
(
)
*
+
,
-
.
/
0
1
2
3
4
5
6
7
8
9
:
<
>
?
A
B
C
D
E
F
G
H
I
J
K
L
M
N
O
P
Q
R
S
T
U
V
W
X
Y
Z
a
b
c
d
e
f
g
h
i
j
k
l
m
n
o
p
q
r
s
t
u
v
w
x
y
z
«
»
،
؛
؟
ء
آ
أ
ؤ
إ
ئ
ا
ب
ة
ت
ث
ج
ح
خ
د
ذ
ر
ز
س
ش
ص
ض
ط
ظ
ع
غ
ف
ق
ك
ل
م
ن
ه
و
ى
ي
٠
–
“
”
+ا
+ة
+ت
+ك
+ن
+ه
+ي
00
01
02
03
04
05
06
07
08
09
10
11
12
13
14
15
16
17
18
19
20
21
22
23
24
25
26
27
28
29
30
31
32
33
34
35
36
37
38
39
40
41
42
43
44
45
46
47
48
49
5%
50
51
52
53
54
55
56
57
58
59
60
61
62
63
64
65
66
67
68
69
70
71
72
73
74
75
76
77
78
79
80
81
82
83
84
85
86
87
88
89
90
91
92
93
94
95
96
97
98
99
:"
:'
:(
:*
:-
:<
:?
:«
:»
:“
:”
AA
AC
AS
AT
Aa
Ac
Ad
Al
Am
An
Ar
As
At
Au
CA
CC
CS
CT
Ca
Ce
Ch
Ci
Cl
Co
Cr
Cu
SA
SC
SS
ST
Sa
Sc
Se
Sh
Si
Sm
So
St
Su
TA
TC
TS
TT
Ta
Te
Th
Ti
To
Tr
Tu
ad
al
am
an
as
at
au
ca
ch
ci
co
cr
da
de
di
do
du
em
en
et
ha
he
hi
ho
id
im
in
is
it
la
le
li
lo
ma
me
mi
mo
mt
mu
na
ne
no
on
or
re
ri
sa
sc
se
sh
si
so
st
su
ta
te
th
ti
to
tr
tu
un
آب
آت
آث
آج
آح
آخ
آد
آذ
آر
آز
آس
آش
آص
آغ
آف
آق
آك
آل
آم
آن
آه
آو
آى
آي
أؤ
أب
أت
أث
أج
أح
أخ
أد
أذ
أر
أز
أس
أش
أص
أض
أع
أغ
أف
أق
أك
أل
أم
أن
أو
أى
أي
إب
إث
إج
إح
إخ
إد
إذ
إر
إز
إس
إش
إص
إض
إع
إغ
إف
إق
إك
إل
إم
إن
إي
اب
اث
اج
اح
اخ
اذ
ار
از
اس
اش
اص
اض
اط
اع
اغ
اف
اق
اك
ال
ام
اي
ب+
بث
بح
بد
بذ
بر
بص
بط
بق
بك
بل
بن
بي
تآ
تأ
تؤ
تب
تث
تج
تح
تخ
تد
تذ
تر
تز
تس
تش
تص
تض
تط
تع
تغ
تف
تق
تك
تل
تم
تن
تو
تي
ثا
ثخ
ثر
ثق
ثل
ثم
ثن
ثو
ثي
جئ
جا
جب
جث
جح
جخ
جد
جر
جز
جس
جش
جص
جع
جغ
جف
جل
جم
جن
جه
جو
جى
جي
حب
حت
حث
حج
حد
حذ
حر
حز
حس
حش
حص
حض
حط
حظ
حف
حق
حك
حل
حم
حن
حو
حى
حي
خب
خد
خذ
خر
خز
خس
خش
خص
خض
خط
خف
خل
خم
خن
خو
خي
دا
دب
دج
دح
دخ
در
دز
دس
دش
دع
دغ
دف
دق
دك
دل
دم
دن
ده
دو
دى
دي
ذا
ذب
ذر
ذق
ذك
ذل
ذم
ذو
ذى
ذي
رآ
رأ
رؤ
رئ
رب
رث
رج
رح
رخ
رد
رذ
رز
رس
رش
رص
رض
رع
رغ
رف
رق
رك
رم
رن
رو
رى
ري
زا
زب
زج
زح
زخ
زد
زر
زط
زع
زغ
زف
زق
زك
زل
زم
زن
زه
زو
زى
زي
س+
سأ
سب
ست
سد
سر
سط
سع
سف
سق
سك
سل
سم
سن
سو
سى
سي
شؤ
شئ
شا
شب
شت
شج
شح
شخ
شد
شذ
شر
شش
شط
شع
شف
شق
شك
شل
شم
شن
شه
شو
شي
صب
صج
صح
صخ
صد
صر
صع
صغ
صف
صق
صك
صل
صم
صن
صو
ضا
ضب
ضج
ضح
ضخ
ضد
ضر
ضع
ضغ
ضف
ضق
ضل
ضم
ضن
ضو
ضي
طب
طح
طر
طز
طش
طظ
طع
طغ
طف
طق
طل
طم
طن
طه
طو
طي
ظب
ظر
ظل
ظن
عا
عب
عث
عج
عد
عذ
عر
عز
عس
عش
عص
عض
عط
عظ
عف
عق
عك
عل
عم
عن
عو
عي
غب
غت
غث
غد
غذ
غر
غز
غش
غص
غض
غط
غف
غل
غم
غن
غو
غي
ف+
فأ
فئ
فج
فخ
فذ
فر
فز
فش
فص
فض
فظ
فق
فك
فم
فن
في
قئ
قا
قب
قت
قح
قد
قذ
قر
قز
قس
قش
قص
قض
قط
قف
قل
قم
قن
قو
قي
ك+
كب
كث
كح
كد
كر
كس
كش
كغ
كف
كل
كو
كى
كي
ل+
لأ
لا
لث
لج
لذ
لس
لص
لغ
لك
لم
لن
لو
لي
مآ
مأ
مؤ
مئ
ما
مب
مث
مج
مح
مخ
مد
مذ
مر
مز
مس
مش
مص
مض
مط
مظ
مع
مغ
مف
مق
مك
مل
مم
من
مو
مي
نأ
نؤ
نب
نت
نج
نح
نخ
ند
نر
نز
نس
نش
نص
نط
نظ
نع
نغ
نف
نق
نك
نم
نن
نو
ني
هآ
هب
هج
هد
هذ
هر
هز
هش
هك
هل
هو
هى
هي
و+
يأ
يؤ
يا
يب
يت
يث
يج
يح
يخ
يد
ير
يز
يس
يش
يص
يض
يط
يع
يغ
يف
يق
يك
يل
يم
يو
##!
##"
##%
##'
##(
##)
##*
##+
##,
##-
##.
##/
##0
##1
##2
##3
##4
##5
##6
##7
##8
##9
##:
##<
##>
##?
##A
##C
##S
##T
##a
##c
##d
##e
##h
##i
##l
##m
##n
##o
##r
##s
##t
##u
##«
##»
##،
##؛
##؟
##ء
##آ
##أ
##ؤ
##إ
##ئ
##ا
##ب
##ة
##ت
##ث
##ج
##ح
##خ
##د
##ذ
##ر
##ز
##س
##ش
##ص
##ض
##ط
##ظ
##ع
##غ
##ف
##ق
##ك
##ل
##م
##ن
##ه
##و
##ى
##ي
##٠
##–
##“
##”
+ات
+ان
+ةه
+كم
+كن
+نا
+ها
+هم
+هن
+وا
+ون
+ين
0-0
0-1
0-2
0-3
0.1
0.2
0.3
0.4
0.5
0.6
0.7
0.8
0.9
0/0
0/1
0/2
001
002
003
004
005
006
007
008
009
010
011
012
013
014
015
016
017
020
021
022
025
026
030
031
035
038
050
051
052
055
056
059
060
063
064
065
070
073
075
080
090
091
094
1-0
1-1
1-2
1-3
1-4
1-5
1-6
1.0
1.1
1.2
1.3
1.4
1.5
1.6
1.7
1.8
1.9
1/0
1/1
1/2
1/3
1/4
1/5
1/6
1/7
1/8
10%
100
101
102
103
104
105
106
107
108
109
110
111
112
113
114
115
116
117
118
119
120
121
122
123
124
125
126
127
128
129
130
131
132
133
134
135
136
137
138
139
140
141
142
143
144
145
146
147
148
149
15%
150
151
152
153
154
155
156
157
158
159
160
161
162
163
164
165
166
167
168
169
170
171
172
173
174
175
176
177
178
179
180
181
182
183
184
185
186
187
188
189
190
191
192
193
194
195
196
197
198
199
2-0
2-1
2-2
2-3
2-4
2-5
2-6
2.0
2.1
2.2
2.3
2.4
2.5
2.6
2.7
2.8
2.9
2/0
2/1
2/2
2/3
2/4
2/5
2/6
2/7
2/8
20%
200
201
202
203
204
205
206
207
208
209
210
211
212
213
214
215
216
217
218
219
220
221
223
224
225
226
227
228
229
230
231
232
233
234
235
236
237
238
239
240
241
242
243
244
245
246
247
248
249
25%
250
251
252
253
254
255
256
257
258
259
260
261
262
263
264
265
266
267
268
269
270
271
272
273
274
275
276
277
278
279
280
281
282
283
284
285
286
287
288
289
290
291
292
293
294
295
296
297
298
299
3-0
3-1
3-2
3-3
3-4
3-5
3-6
3.0
3.1
3.2
3.3
3.4
3.5
3.6
3.7
3.8
3.9
3/0
3/1
3/2
3/3
3/4
3/5
3/6
3/7
3/8
3/9
30%
300
301
302
303
304
305
306
307
308
309
310
311
312
313
314
315
316
317
318
319
320
321
322
323
324
325
326
327
328
329
330
331
332
334
335
336
337
338
339
340
341
342
343
344
345
346
347
348
349
350
351
352
353
354
355
356
357
358
359
360
361
362
363
364
365
366
367
368
369
370
371
372
373
374
375
376
377
378
379
380
381
382
383
384
385
386
387
388
389
390
391
392
393
394
395
396
397
398
399
4-0
4-1
4-2
4-3
4-4
4-5
4-6
4-7
4.0
4.1
4.2
4.3
4.4
4.5
4.6
4.7
4.8
4.9
4/0
4/1
4/2
4/3
4/4
4/5
4/6
4/7
4/9
40%
400
401
402
403
404
405
406
407
408
409
410
411
412
413
414
415
416
417
418
419
420
421
422
423
424
425
426
427
428
429
430
431
432
433
434
435
436
437
438
439
440
441
442
443
445
446
447
448
449
450
451
452
453
454
455
456
457
458
459
460
461
462
463
464
465
466
467
468
469
470
471
472
473
474
475
476
477
478
479
480
481
482
483
484
485
486
487
488
489
490
491
492
493
494
495
496
497
498
499
5-0
5-1
5-2
5-3
5-4
5-6
5-7
5.0
5.1
5.2
5.3
5.4
5.5
5.6
5.7
5.8
5.9
5/1
5/2
5/3
5/4
5/5
5/6
5/7
5/9
50%
500
501
502
503
504
505
506
507
508
509
510
511
512
513
514
515
516
517
518
519
520
521
522
523
524
525
526
527
528
529
530
531
532
533
534
535
536
537
538
539
540
541
542
543
544
545
546
547
548
549
550
551
552
553
554
556
557
558
559
560
561
562
563
564
565
566
567
568
569
570
571
572
573
574
575
576
577
578
579
580
581
582
583
584
585
586
587
588
589
590
591
592
593
594
595
596
597
598
599
6-0
6-1
6-2
6-3
6-4
6-5
6-7
6-8
6.0
6.1
6.2
6.3
6.4
6.5
6.6
6.7
6.8
6.9
6/1
6/2
6/3
6/4
6/5
6/6
6/7
6/8
6/9
600
601
602
603
604
605
606
607
608
609
610
611
612
613
614
615
616
617
618
619
620
621
622
623
624
625
626
627
628
629
630
631
632
633
634
635
636
637
638
639
640
641
642
643
644
645
646
647
648
649
650
651
652
653
654
655
656
657
658
659
660
661
662
663
664
665
667
668
669
670
671
672
673
674
675
676
677
678
679
680
681
682
683
684
685
686
687
688
689
690
691
692
693
694
695
696
697
698
699
7-1
7-2
7-3
7-4
7-5
7-6
7-7
7-8
7-9
7.0
7.1
7.2
7.3
7.4
7.5
7.6
7.7
7.8
7.9
7/1
7/2
7/3
7/4
7/5
7/6
7/7
7/8
7/9
700
701
702
703
704
705
706
707
708
709
710
711
712
713
714
715
716
717
718
719
720
721
722
723
724
725
726
727
728
729
730
731
732
733
734
735
736
737
738
739
740
741
742
743
744
745
746
747
748
749
750
751
752
753
754
755
756
757
758
759
760
761
762
763
764
765
766
767
768
769
770
771
772
773
774
775
776
778
779
780
781
782
783
784
785
786
787
788
789
790
791
792
793
794
795
796
797
798
799
8-6
8-9
8.0
8.1
8.2
8.3
8.4
8.5
8.6
8.7
8.8
8.9
8/1
8/2
8/3
8/4
8/5
8/6
8/7
8/9
800
801
802
803
804
805
806
807
808
809
810
811
812
813
814
815
816
817
818
819
820
821
822
823
824
825
826
827
828
829
830
831
832
833
834
835
836
837
838
839
840
841
842
843
844
845
846
847
848
849
850
851
852
853
854
855
856
857
858
859
860
861
862
863
864
865
866
867
868
869
870
871
872
873
874
875
876
877
878
879
880
881
882
883
884
885
886
887
889
890
891
892
893
894
895
896
897
898
899
9.0
9.1
9.2
9.3
9.4
9.5
9.6
9.7
9.8
9.9
9/6
9/7
9/8
9/9
900
901
902
903
904
905
906
907
908
909
910
911
912
913
914
915
916
917
918
919
920
921
922
923
924
925
926
927
928
929
930
931
932
933
934
935
936
937
938
939
940
941
942
943
944
945
946
947
948
949
950
951
952
953
954
955
956
957
958
959
960
961
962
963
964
965
966
967
968
969
970
971
972
973
974
975
976
977
978
979
980
981
982
983
984
985
986
987
988
989
990
991
992
993
994
995
996
997
998
:".
ACT
ATC
Acc
Act
Ado
Air
Ale
Ali
All
Alm
Alt
Ama
And
Ant
Ara
Arc
Are
Arm
Art
Ass
CAS
CSS
CTS
Cal
Cam
Can
Car
Cas
Cat
Cha
Che
Chi
Cho
Chr
Cit
Cla
Cli
Clu
Col
Com
Con
Coo
Cor
Cou
Cra
Cro
Cur
STA
STC
STS
Sal
Sam
San
Sch
Sea
Sel
Ser
Sha
She
Shi
Sho
Sil
Sim
Sin
Sna
Sol
Son
Sta
Ste
Sto
Str
Sun
Sur
Tal
Tan
Tar
Tel
Tem
Ten
The
Tim
Tom
Tor
Tra
Tre
Tri
Tro
Tur
add
ali
all
and
are
arm
art
cam
can
car
cat
che
cit
cla
com
con
coo
cor
cre
cri
del
der
des
dis
end
est
has
hel
his
htt
ins
its
les
man
mar
mem
mtc
net
non
not
num
one
onl
ori
out
res
see
sel
ser
sho
sim
sin
sms
sol
sta
stc
sto
sur
tal
tar
the
tra
tri
uni
آبد
آبل
آبه
آبي
آتا
آتى
آتي
آثر
آثم
آجر
آجل
آخد
آخذ
آخر
آخن
آخي
آدا
آدب
آدم
آدو
آدي
آذر
آذن
آرت
آرش
آرك
آرل
آرم
آرن
آرو
آري
آزر
آزو
آسا
آسر
آسف
آسن
آسو
آسي
آشا
آشر
آشو
آشي
آصف
آغا
آغر
آغو
آفل
آفي
آكس
آكل
آكي
آلف
آلم
آلن
آله
آلى
آلي
آمر
آمل
آمن
آمي
آنا
آنج
آند
آنس
آنف
آني
آهل
آهن
آون
آيت
آيد
آير
آيز
آيس
آيك
آيل
أؤد
أئم
أبا
أبد
أبر
أبق
أبك
أبل
أبن
أبو
أبى
أبي
أتا
أتح
أتر
أتش
أتف
أتك
أتل
أتم
أتو
أتى
أتي
أثب
أثث
أثر
أثق
أثل
أثم
أثن
أجب
أجج
أجد
أجر
أجز
أجش
أجل
أجم
أجن
أجو
أجي
أحب
أحد
أحر
أحس
أحش
أحص
أحط
أحظ
أحق
أحك
أحل
أحم
أحن
أحي
أخا
أخت
أخد
أخذ
أخر
أخش
أخص
أخط
أخف
أخل
أخو
أخى
أخي
أدا
أدب
أدر
أدع
أدق
أدل
أدم
أدن
أدو
أدى
أدي
أذا
أذر
أذق
أذك
أذل
أذن
أذى
أذي
أرا
أرب
أرت
أرث
أرج
أرح
أرخ
أرد
أرذ
أرز
أرس
أرش
أرص
أرض
أرط
أرع
أرغ
أرف
أرق
أرك
أرم
أرن
أرو
أري
أزج
أزح
أزد
أزر
أزع
أزف
أزق
أزك
أزل
أزم
أزه
أزو
أسأ
أسب
أست
أسخ
أسد
أسر
أسس
أسط
أسع
أسف
أسك
أسل
أسم
أسن
أسو
أسى
أسي
أشأ
أشب
أشت
أشج
أشد
أشر
أشع
أشف
أشق
أشك
أشم
أشن
أشو
أصب
أصح
أصد
أصر
أصص
أصغ
أصف
أصق
أصل
أصم
أضا
أضح
أضر
أضع
أضف
أضل
أضم
أضن
أضو
أطر
أطع
أطل
أطم
أطي
أظل
أظن
أعب
أعت
أعد
أعر
أعز
أعش
أعص
أعض
أعط
أعف
أعل
أعم
أعن
أعي
أغا
أغب
أغر
أغض
أغف
أغم
أغن
أغو
أفب
أفت
أفد
أفر
أفس
أفش
أفض
أفق
أفك
أفل
أفن
أفي
أقر
أقص
أقض
أقط
أقع
أقف
أقل
أقم
أقن
أقو
أكا
أكب
أكت
أكث
أكد
أكر
أكس
أكش
أكف
أكل
أكم
أكن
أكو
أكي
ألآ
ألأ
ألإ
ألا
ألب
ألت
ألج
ألح
ألخ
ألد
ألذ
ألس
ألغ
ألف
ألق
ألك
ألم
ألن
ألو
ألي
أما
أمد
أمر
أمس
أمض
أمل
أمم
أمن
أمه
أمو
أمى
أمي
أنا
أند
أنس
أنف
أهب
أهد
أهذ
أهر
أهز
أهل
أهم
أهن
أهو
أهي
أوج
أوح
أود
أور
أوز
أوس
أوش
أوص
أوض
أوف
أوك
أول
أيد
أيض
أين
إبر
إبط
إبل
إبن
إبي
إتز
إتش
إثر
إثم
إثن
إجر
إحد
إحص
إحم
إخف
إخو
إدر
إدع
إدل
إدو
إدي
إذا
إذن
إرب
إرت
إرث
إرج
إرد
إرس
إرم
إري
إسب
إست
إسك
إسم
إعل
إغر
إفر
إفك
إقر
إقل
إكز
إكس
إكل
إكو
إلا
إلخ
إلف
إلك
إله
إلى
إلي
إما
إمر
إمع
إنس
إنش
إوز
إوع
إيا
إيب
إيث
إيج
إيد
إير
إيز
إيس
إيش
إيغ
إيف
إيك
إيل
إيم
إيه
إيو
ائت
ائم
ابا
ابد
ابر
ابس
ابط
ابغ
ابق
ابك
ابل
ابن
ابو
ابي
اتح
اتف
اتق
اثب
اثر
اثق
اثل
اثم
اثن
اجئ
اجب
اجت
اجج
اجد
اجر
اجز
اجل
اجن
اجو
احب
احث
احد
احر
احس
احش
احص
احط
احظ
احق
احك
احل
احم
احي
اخا
اخت
اخد
اخذ
اخر
اخش
اخص
اخط
اخف
اخل
اخن
اخو
اخي
ادا
ادب
ادج
ادر
ادع
ادف
ادق
ادل
ادم
ادن
اده
ادو
اذن
ارا
ارب
ارت
ارث
ارج
ارخ
ارد
ارز
ارس
ارش
ارض
ارط
ارغ
ارف
ارق
ارم
ارن
ارو
ازا
ازد
ازر
ازف
ازق
ازك
ازل
ازم
ازه
ازو
اسب
است
اسد
اسر
اسس
اسط
اسع
اسف
اسق
اسك
اسم
اسي
اشب
اشت
اشد
اشر
اشط
اشع
اشف
اشق
اشك
اشل
اشم
اشن
اشو
اصب
اصح
اصد
اصر
اصغ
اصف
اصل
اصم
اصو
اضح
اضر
اضع
اضف
اضم
اضن
اطر
اطس
اطل
اطم
اظل
اظن
اعب
اعد
اعر
اعز
اعش
اعط
اعف
اعل
اعم
اعو
اغا
اغب
اغر
اغز
اغل
اغم
اغن
اغو
افت
افر
افش
افض
افق
افل
افن
افو
اقت
اقر
اقص
اقض
اقط
اقف
اقل
اقم
اقن
اقو
اكا
اكت
اكد
اكر
اكز
اكس
اكش
اكف
اكل
اكو
اكي
ال+
الى
اما
امت
امح
امد
امر
امس
امش
امض
امك
امل
امم
امو
امي
انب
انت
انث
انج
انح
انخ
اند
انز
انس
انش
انص
انط
انع
انغ
انف
انق
انك
اهج
اهد
اهل
اوب
اوت
اوج
اوح
اوخ
اود
اور
اوز
اوس
اوش
اوص
اوع
اوغ
اوف
اوق
اوك
اول
اوم
ايب
ايج
ايد
اير
ايز
ايس
ايش
ايض
ايف
ايك
ايل
ايم
بأس
بؤر
بؤس
بئر
بئس
باء
باب
باث
باج
باح
باخ
باد
بار
باز
باس
باش
باص
باع
باغ
باق
باك
باي
بتر
بثق
بجع
بحت
بحث
بحر
بحص
بخت
بخس
بخع
بخل
بدء
بدأ
بدؤ
بدئ
بدا
بدر
بدع
بدل
بدن
بدو
بدي
بذخ
بذر
بذل
برأ
برئ
برا
برج
برح
برد
برر
برز
برس
برش
برص
برط
برع
برغ
برق
برك
برم
برن
بره
برو
برى
بري
بزر
بزغ
بزي
بسط
بسم
بسي
بشت
بشر
بشع
بشم
بصر
بصق
بصل
بصم
بصو
بضع
بطء
بطئ
بطح
بطر
بطش
بطل
بطم
بطن
بطي
بظر
بعث
بعد
بعض
بغا
بغت
بغض
بغل
بغي
بقر
بقش
بقع
بقل
بقى
بقي
بكت
بكر
بكي
بلح
بلخ
بلد
بلط
بلع
بلغ
بلو
بمب
بنت
بنج
بند
بنط
بنك
بنى
بني
بهج
بهر
بهي
بوأ
بوب
بوث
بوج
بوح
بوخ
بور
بوز
بوس
بوش
بوص
بوط
بوظ
بوع
بوغ
بوق
بوك
بول
بوم
بوي
بيئ
بيب
بيت
بيث
بيج
بيد
بير
بيز
بيس
بيش
بيض
بيع
بيغ
بيك
بيل
بين
بيو
تآخ
تأب
تأت
تأذ
تأس
تأل
تأن
تأو
تؤت
تؤد
تؤذ
تؤل
تؤم
تؤو
تئن
تاء
تاب
تاج
تاخ
تاد
تار
تاز
تاس
تاش
تاغ
تاف
تاق
تاك
تال
تام
تاه
تاو
تاي
تبؤ
تبت
تبث
تبح
تبد
تبر
تبس
تبط
تبع
تبغ
تبق
تبك
تبل
تبن
تبو
تبي
تتأ
تتب
تتج
تتح
تتخ
تتد
تتر
تتز
تتس
تتش
تتص
تتض
تتط
تتع
تتغ
تتف
تتق
تتك
تتل
تتم
تتن
تتو
تتي
تثب
تثر
تثق
تثن
تجئ
تجا
تجب
تجد
تجر
تجز
تجس
تجف
تجل
تجن
تجي
تحب
تحت
تحث
تحج
تحد
تحر
تحز
تحس
تحش
تحص
تحض
تحط
تحظ
تحف
تحق
تحك
تحل
تحم
تحن
تحو
تحي
تخب
تخت
تخذ
تخر
تخش
تخص
تخض
تخط
تخف
تخل
تخم
تخن
تدب
تدر
تدس
تدع
تدق
تدك
تدل
تدم
تدن
تدو
تدي
تذر
تذل
ترا
ترب
ترث
ترج
ترح
ترد
ترس
ترش
ترص
ترض
ترع
ترف
ترق
ترك
ترم
ترن
تره
ترو
ترى
تري
تزج
تزخ
تزد
تزر
تزف
تزك
تزل
تزن
تزه
تزو
تزي
تسئ
تسا
تسب
تست
تسح
تسد
تسر
تسع
تسف
تسق
تسل
تسم
تسن
تسو
تسي
تشأ
تشا
تشب
تشت
تشج
تشح
تشخ
تشد
تشذ
تشر
تشظ
تشع
تشف
تشق
تشك
تشل
تشم
تشن
تشو
تشي
تصب
تصح
تصد
تصر
تصغ
تصف
تصل
تصم
تصو
تضج
تضح
تضخ
تضر
تضع
تضف
تضل
تضم
تضن
تطأ
تطب
تطع
تطغ
تطق
تطل
تطم
تطو
تظل
تظم
تظن
تعب
تعج
تعد
تعر
تعز
تعس
تعش
تعص
تعض
تعط
تعف
تعق
تعل
تعم
تعن
تعي
تغب
تغد
تغذ
تغر
تغش
تغص
تغض
تغط
تغل
تغن
تفد
تفر
تفز
تفش
تفص
تفض
تفق
تفك
تفل
تفن
تفى
تفي
تقا
تقد
تقر
تقس
تقص
تقض
تقط
تقع
تقف
تقل
تقم
تقن
تقو
تقي
تكب
تكد
تكر
تكس
تكف
تكل
تكم
تكن
تكو
تكي
تلا
تلب
تلج
تلح
تلد
تلغ
تلف
تلق
تلك
تلم
تلو
تلي
تمد
تمر
تمس
تمش
تمض
تمن
تنأ
تنب
تنج
تنح
تند
تنز
تنس
تنش
تنص
تنط
تنظ
تنع
تنغ
تنف
تنق
تنك
تنم
تنه
تنو
تهب
تهج
تهد
تهر
تهز
تهط
تهل
تهم
تهو
تهي
توب
توت
توث
توج
توح
توخ
تود
تور
توز
توس
توش
توص
توع
توغ
توف
توق
توك
تول
توم
تون
توي
تيب
تيت
تيج
تيخ
تيد
تير
تيز
تيس
تيش
تيغ
تيف
تيك
تيل
تيم
تيه
تيو
ثأر
ثاب
ثاد
ثار
ثال
ثان
ثاي
ثبت
ثبر
ثدى
ثدي
ثرا
ثرب
ثرم
ثرو
ثرى
ثري
ثغر
ثقب
ثقف
ثقل
ثكل
ثكن
ثلب
ثلث
ثلج
ثلم
ثمر
ثمن
ثني
ثوب
ثور
ثول
ثوم
ثوي
ثيب
ثيس
ثيل
ثيم
ثيو
جئن
جاء
جاؤ
جائ
جاب
جاج
جاد
جار
جاز
جاس
جاش
جاع
جاغ
جاف
جاك
جال
جام
جان
جاه
جاو
جاى
جاي
جبا
جبر
جبس
جبع
جبل
جبن
جبه
جثث
جثم
جحا
جحد
جحر
جحش
جدد
جدر
جدع
جدل
جدو
جدى
جدي
جذب
جذر
جذع
جذل
جذو
جذي
جرأ
جرئ
جرب
جرح
جرد
جرذ
جرز
جرس
جرش
جرع
جرف
جرم
جرن
جرو
جرى
جري
جزء
جزأ
جزئ
جزا
جزر
جزع
جزل
جزم
جزى
جزي
جسد
جسر
جسم
جشع
جشم
جشي
جصي
جعب
جعد
جعل
جفا
جفت
جفر
جفع
جفف
جفن
جفو
جلب
جلخ
جلد
جلس
جلط
جلف
جلل
جلم
جلو
جلي
جمب
جمح
جمد
جمر
جمس
جمش
جمص
جمع
جمل
جنا
جنب
جنج
جنح
جند
جنس
جنش
جنف
جنك
جنو
جنى
جني
جهد
جهر
جهز
جهل
جوب
جوج
جوخ
جود
جور
جوز
جوس
جوش
جوع
جوف
جوق
جول
جوم
جون
جوى
جوي
جيء
جيئ
جيا
جيب
جيت
جيج
جيد
جير
جيز
جيس
جيش
جيغ
جيف
جيك
جيل
جيم
جين
جيه
جيو
حائ
حاب
حاث
حاج
حاد
حاذ
حار
حاز
حاس
حاش
حاص
حاض
حاط
حاف
حاق
حاك
حال
حام
حان
حاو
حاي
حبذ
حبر
حبس
حبش
حبق
حبك
حبل
حبن
حبو
حبي
حتب
حتر
حتف
حتم
حتى
حتي
حجب
حجج
حجر
حجز
حجم
حجي
حدب
حدث
حدد
حدس
حدق
حدو
حدي
حذا
حذر
حذف
حذق
حذو
حرب
حرث
حرج
حرد
حرر
حرز
حرس
حرش
حرص
حرض
حرف
حرق
حرك
حرم
حرى
حري
حزب
حزر
حزم
حزن
حزو
حسا
حسب
حسد
حسر
حسك
حسم
حسن
حسو
حسي
حشا
حشد
حشر
حشف
حشم
حشو
حشي
حصب
حصد
حصر
حصص
حصل
حصن
حصو
حصى
حصي
حضر
حضن
حطب
حطم
حظر
حظو
حظي
حفا
حفد
حفر
حفز
حفش
حفص
حفظ
حفل
حفن
حفي
حقب
حقد
حقق
حقل
حقن
حقى
حقي
حكر
حكم
حكى
حكي
حلب
حلج
حلف
حلق
حلم
حلو
حلي
حمأ
حما
حمد
حمر
حمز
حمس
حمش
حمص
حمض
حمق
حمل
حمم
حمو
حمى
حمي
حنا
حنث
حنس
حنش
حنط
حنف
حنق
حنك
حنو
حني
حوا
حوت
حوث
حوح
حود
حوذ
حور
حوز
حوس
حوش
حوض
حوط
حوف
حوق
حول
حوم
حوي
حيا
حيث
حيد
حير
حيز
حيص
حيض
حيط
حيف
حيل
حين
حيو
خاب
خاج
خاد
خار
خاز
خاس
خاش
خاص
خاض
خاط
خاف
خال
خام
خان
خاو
خبأ
خبئ
خبب
خبت
خبث
خبر
خبز
خبط
خبل
خبي
ختم
ختن
خثر
خجل
خدج
خدر
خدش
خدع
خدم
خذر
خذل
خذو
خذي
خرب
خرج
خرد
خرز
خرس
خرش
خرص
خرط
خرع
خرف
خرق
خرم
خزر
خزع
خزف
خزن
خزي
خسر
خسف
خسم
خشب
خشت
خشف
خشم
خشن
خشي
خصب
خصر
خصص
خصل
خصم
خصي
خضر
خضع
خضم
خطأ
خطئ
خطا
خطب
خطر
خطط
خطف
خطو
خطى
خطي
خفت
خفر
خفش
خفض
خفف
خفق
خفى
خفي
خلا
خلج
خلد
خلص
خلط
خلع
خلف
خلق
خلك
خلل
خلو
خلي
خمج
خمد
خمر
خمس
خمن
خنس
خنف
خنق
خوا
خوب
خوج
خوخ
خود
خوذ
خور
خوش
خوص
خوض
خوف
خول
خون
خوي
خيب
خيث
خير
خيس
خيش
خيض
خيط
خيف
خيل
خيم
دءو
دأب
دأو
دؤل
داء
داب
داج
داح
داخ
داد
دار
داس
داش
داع
داغ
داف
داك
دال
دام
دان
داو
داى
داي
دبب
دبج
دبر
دبس
دبش
دبق
دبك
دبل
دبى
دبي
دجل
دجن
دجو
دجي
دحر
دحض
دحل
دحو
دحي
دخل
دخن
دده
درء
درب
درج
درر
درس
درع
درف
درق
درك
درم
درن
درو
درى
دري
دست
دسك
دسم
دشت
دشر
دشم
دشن
دعا
دعس
دعم
دعو
دعي
دغر
دغش
دغل
دغم
دفء
دفئ
دفر
دفش
دفع
دفق
دفن
دقق
دقن
دقى
دقي
دكر
دلب
دلج
دلس
دلع
دلف
دلق
دلك
دلل
دلم
دله
دلو
دلي
دمث
دمج
دمخ
دمر
دمع
دمغ
دمك
دمو
دمى
دمي
دنا
دنب
دنج
دنر
دنس
دنش
دنغ
دنف
دنك
دنو
دني
دهب
دهر
دهس
دهش
دهل
دهم
دهن
دهي
دوا
دوب
دوج
دوح
دوخ
دود
دور
دوز
دوس
دوش
دوغ
دوف
دوق
دوك
دول
دوم
دون
دوى
دوي
ديب
ديج
دير
ديز
ديس
ديش
ديغ
ديف
ديك
ديل
ديم
دين
ديو
ذئب
ذاب
ذات
ذاع
ذاق
ذاك
ذبح
ذبل
ذخر
ذرب
ذرع
ذرف
ذرو
ذرى
ذري
ذعر
ذقن
ذكر
ذكى
ذكي
ذلك
ذلل
ذلو
ذلي
ذمم
ذنب
ذهب
ذهل
ذهن
ذوب
ذود
ذور
ذوق
ذوو
ذوي
ذيب
ذيد
ذيل
رأب
رأس
رأف
رأو
رأى
رأي
رؤا
رؤس
رؤو
رؤى
رؤي
رئس
رائ
راب
راث
راج
راح
راخ
راد
راز
راس
راش
راض
راع
راغ
راف
راق
راك
رام
ران
راو
راى
راي
ربا
ربح
ربض
ربط
ربع
ربق
ربك
ربو
ربى
ربي
رتا
رتب
رتق
رتل
رتم
رتو
رتى
رتي
رثا
رثو
رثى
رثي
رجا
رجب
رجح
رجز
رجس
رجع
رجف
رجل
رجم
رجو
رجي
رحا
رحب
رحل
رحم
رحو
رحى
رحي
رخا
رخص
رخم
رخو
رخي
ردح
ردد
ردع
ردف
ردك
ردم
ردى
رزح
رزف
رزق
رزم
رزي
رسب
رسخ
رسغ
رسل
رسم
رسو
رسى
رسي
رشا
رشح
رشد
رشف
رشق
رشو
رشى
رشي
رصد
رصع
رصف
رضا
رضح
رضخ
رضع
رضو
رضى
رضي
رطب
رطل
رعا
رعب
رعد
رعش
رعن
رعو
رعي
رغب
رغد
رغم
رغو
رغي
رفا
رفح
رفد
رفس
رفش
رفض
رفع
رفق
رفل
رقب
رقد
رقص
رقط
رقع
رقم
رقي
ركب
ركح
ركز
ركس
ركض
ركع
ركل
ركن
ركو
ركي
رما
رمث
رمح
رمد
رمز
رمس
رمش
رمض
رمط
رمق
رمل
رمم
رمو
رمي
رنا
رنج
رند
رنو
رني
رهب
رهط
رهن
رهو
روا
روب
روث
روج
روح
روخ
رود
رور
روز
روس
روش
روض
روع
روغ
روف
روق
روك
رول
روم
رون
روى
روي
رىء
ريا
ريب
ريث
ريج
ريح
ريد
ريز
ريس
ريش
ريع
ريغ
ريف
ريك
ريم
رين
ريو
زاب
زاج
زاخ
زاد
زار
زاغ
زاف
زاك
زال
زام
زان
زاه
زاو
زاي
زبد
زبر
زبق
زبل
زبن
زبي
زجر
زجل
زحف
زحل
زحم
زخر
زخم
زخي
زرا
زرب
زرد
زرع
زرق
زرك
زرن
زري
زطل
زعب
زعر
زعق
زعل
زعم
زعن
زعو
زغب
زغر
زغل
زفت
زفر
زفن
زقر
زقع
زقل
زقو
زكا
زكر
زكو
زكى
زكي
زلط
زلف
زلق
زلل
زلم
زلن
زمر
زمع
زمل
زمن
زمي
زنا
زنج
زند
زنغ
زنق
زنك
زنى
زها
زهد
زهر
زهق
زهو
زهي
زوب
زوج
زود
زور
زوز
زوغ
زوف
زوق
زول
زوم
زون
زوي
زيا
زيب
زيت
زيج
زيد
زير
زيغ
زيف
زيك
زيل
زيم
زين
زيو
سأل
سأم
سؤل
سئل
سئم
ساء
ساب
ساج
ساح
ساد
سار
ساس
ساط
ساع
ساغ
ساف
ساق
ساك
سام
سان
ساو
ساي
سبأ
سبا
سبب
سبت
سبح
سبخ
سبر
سبس
سبط
سبع
سبق
سبك
سبل
سبه
سبي
ستر
ستي
سجد
سجع
سجق
سجل
سجن
سجي
سحب
سحت
سحج
سحر
سحق
سحل
سحم
سحن
سخر
سخط
سخف
سخن
سخي
سدد
سدر
سدس
سدن
سدو
سدى
سذج
سرا
سرب
سرج
سرح
سرد
سرر
سرس
سرع
سرف
سرق
سرك
سرو
سرى
سري
سطا
سطح
سطر
سطل
سطو
سعا
سعد
سعر
سعف
سعى
سعي
سفح
سفر
سفك
سفل
سفن
سفه
سقا
سقط
سقف
سقم
سقو
سقي
سكب
سكت
سكر
سكس
سكك
سكن
سكو
سكي
سلب
سلح
سلخ
سلس
سلط
سلع
سلف
سلق
سلك
سلم
سلو
سلي
سما
سمت
سمج
سمح
سمر
سمط
سمع
سمك
سمن
سمو
سمى
سمي
سنج
سنح
سند
سنط
سنو
سني
سهر
سهل
سهم
سهو
سوء
سوئ
سوا
سوب
سود
سور
سوس
سوط
سوغ
سوف
سوق
سوك
سول
سوم
سوى
سوي
سيء
سيئ
سيب
سيث
سيج
سيح
سيخ
سيد
سير
سيز
سيس
سيغ
سيف
سيق
سيك
سيل
سيم
سيو
شآم
شأن
شأو
شؤم
شاء
شاؤ
شائ
شاب
شاج
شاح
شاخ
شاد
شاذ
شار
شاز
شاس
شاش
شاص
شاط
شاع
شاف
شاق
شاك
شال
شام
شان
شاه
شاو
شاى
شاي
شبا
شبت
شبح
شبر
شبط
شبع
شبق
شبك
شبل
شبه
شبو
شبي
شتا
شتت
شتر
شتل
شتم
شتو
شتى
شتي
شجب
شجر
شجع
شجن
شجي
شحت
شحذ
شحر
شحط
شحف
شحم
شحن
شحي
شخص
شدد
شدي
شذا
شذر
شذى
شرا
شرب
شرج
شرح
شرخ
شرد
شرر
شرس
شرش
شرط
شرع
شرف
شرق
شرك
شرم
شرو
شرى
شري
شزر
شطب
شطح
شطر
شطط
شطي
شظي
شعب
شعث
شعر
شعف
شعل
شعم
شعو
شعي
شغب
شغر
شغف
شغل
شفا
شفت
شفر
شفط
شفع
شفق
شفو
شفي
شقر
شقف
شقق
شقى
شقي
شكا
شكر
شكك
شكل
شكو
شلا
شلت
شلح
شلش
شلف
شلق
شلل
شلن
شلو
شلي
شمخ
شمد
شمر
شمس
شمش
شمص
شمع
شمل
شمم
شمو
شمي
شنب
شنط
شنغ
شنق
شنو
شهب
شهد
شهر
شهق
شهو
شهي
شوؤ
شوا
شوب
شوح
شود
شور
شوس
شوش
شوط
شوف
شوق
شوك
شول
شوم
شون
شوه
شوي
شىء
شيء
شيئ
شيا
شيب
شيت
شيح
شيخ
شيد
شير
شيز
شيس
شيش
شيط
شيع
شيغ
شيف
شيق
شيك
شيل
شيم
شين
شيو
صاب
صاج
صاح
صاد
صار
صاع
صاغ
صاف
صال
صام
صان
صاي
صبا
صبح
صبر
صبغ
صبو
صبى
صبي
صحب
صحح
صحف
صحن
صحو
صحى
صحي
صخب
صخر
صدأ
صدئ
صدا
صدد
صدر
صدع
صدغ
صدف
صدق
صدم
صدى
صرب
صرح
صرخ
صرع
صرف
صرم
صعب
صعد
صعف
صعق
صعو
صغب
صغر
صفا
صفح
صفد
صفر
صفط
صفع
صفق
صفو
صفي
صقر
صقع
صقل
صلا
صلب
صلت
صلح
صلد
صلص
صلع
صلف
صلن
صلو
صلى
صلي
صمت
صمد
صمع
صمغ
صمم
صنز
صنع
صنف
صنم
صنو
صهب
صهد
صهر
صهو
صهي
صوب
صوت
صود
صور
صوص
صوع
صوغ
صوف
صول
صوم
صون
صوي
صيت
صيح
صيد
صير
صيغ
صيف
صين
ضأن
ضاج
ضاد
ضار
ضاع
ضاق
ضال
ضام
ضاي
ضبط
ضبع
ضبي
ضجر
ضحا
ضحك
ضحل
ضحو
ضحى
ضحي
ضخم
ضرا
ضرب
ضرر
ضرس
ضرع
ضرغ
ضرم
ضرو
ضري
ضعف
ضعو
ضعي
ضغط
ضلع
ضلل
ضلم
ضمد
ضمر
ضمك
ضمن
ضنا
ضنك
ضني
ضهر
ضوء
ضوؤ
ضوئ
ضوا
ضوم
ضوي
ضيا
ضيد
ضير
ضيع
ضيف
ضيق
ضيم
طائ
طاب
طاج
طاح
طار
طاز
طاس
طاش
طاع
طاغ
طاف
طاق
طال
طام
طاه
طاو
طاي
طبخ
طبر
طبش
طبع
طبق
طبل
طبى
طبي
طحش
طحن
طرا
طرب
طرة
طرح
طرخ
طرد
طرز
طرش
طرط
طرف
طرق
طره
طرى
طري
طعم
طعن
طغا
طغم
طفا
طفح
طفر
طفس
طفش
طفق
طفل
طفو
طقس
طقش
طقم
طلا
طلب
طلح
طلع
طلق
طلو
طلي
طما
طمب
طمث
طمح
طمر
طمس
طمع
طمن
طمو
طمي
طنب
طنج
طها
طهر
طهو
طهى
طهي
طوا
طوب
طوح
طوخ
طود
طور
طوز
طوس
طوش
طوع
طوف
طوق
طول
طوم
طون
طوى
طوي
طىء
طيب
طيح
طير
طيش
طيع
طيف
طيل
طين
ظاء
ظاظ
ظان
ظبط
ظبى
ظبي
ظرف
ظفر
ظلم
ظمآ
ظمأ
ظما
ظنن
ظني
ظهر
عائ
عاب
عاث
عاج
عاد
عار
عاز
عاش
عاص
عاض
عاط
عاف
عاق
عال
عام
عان
عاه
عبء
عبأ
عبئ
عبا
عبث
عبد
عبر
عبس
عبط
عبق
عبل
عبو
عبي
عتا
عتب
عتر
عتق
عتل
عتم
عتو
عتي
عثر
عجب
عجر
عجز
عجق
عجل
عجم
عجن
عجو
عجي
عدا
عدد
عدس
عدل
عدم
عدن
عدو
عدي
عذب
عذر
عذق
عذل
عرا
عرب
عرج
عرد
عرس
عرش
عرص
عرض
عرف
عرق
عرك
عرم
عرو
عرى
عري
عزا
عزب
عزت
عزر
عزز
عزف
عزل
عزم
عزو
عزي
عسا
عسر
عسس
عسف
عسل
عسم
عسى
عسي
عشب
عشر
عشش
عشق
عشم
عشي
عصا
عصب
عصر
عصف
عصم
عصي
عضب
عضد
عضل
عضم
عضو
عضي
عطا
عطب
عطر
عطس
عطش
عطف
عطل
عطو
عطي
عظم
عفا
عفر
عفش
عفص
عفن
عفو
عفي
عقب
عقد
عقر
عقل
عقم
عكا
عكر
عكس
عكش
عكف
عكل
عكو
علا
علب
علج
علف
علق
علك
علم
علن
علو
على
علي
عما
عمد
عمر
عمش
عمق
عمل
عمم
عمه
عمو
عمى
عمي
عنخ
عند
عنز
عنف
عنق
عهد
عهر
عوا
عوج
عود
عور
عوز
عوش
عوض
عوف
عوق
عوك
عول
عوم
عون
عوه
عوي
عيا
عيب
عيث
عيد
عير
عيس
عيش
عيص
عيض
عيط
عيف
عيل
عين
عيي
غاب
غات
غاد
غار
غاز
غاس
غاص
غاض
غاغ
غاف
غاك
غال
غام
غان
غاو
غاي
غبر
غبش
غبط
غبن
غبى
غبي
غتر
غجر
غدا
غدد
غدر
غذا
غرب
غرد
غرر
غرز
غرس
غرض
غرف
غرق
غرم
غرو
غري
غزا
غزل
غزو
غزي
غسر
غسق
غسل
غشم
غصب
غصن
غصو
غضب
غطا
غطس
غطي
غفر
غفل
غفو
غلا
غلب
غلط
غلف
غلق
غلو
غلى
غلي
غمد
غمر
غمز
غمس
غمض
غنا
غنج
غنم
غنو
غنى
غني
غوا
غوب
غوت
غوث
غوج
غوخ
غود
غور
غوز
غوس
غوش
غوص
غوط
غوغ
غوف
غوق
غوك
غول
غوم
غون
غوي
غيب
غيث
غيد
غير
غيز
غيس
غيش
غيص
غيض
غيط
غيظ
غيغ
غيف
غيل
غيم
غين
غيو
فأج
فأر
فأس
فأل
فأى
فإن
فائ
فاح
فاد
فار
فاز
فاس
فاش
فاض
فاغ
فاق
فاك
فان
فاو
فاي
فتئ
فتا
فتح
فتر
فتش
فتق
فتك
فتم
فتن
فتو
فتى
فتي
فجأ
فجئ
فجا
فجر
فجع
فجل
فجو
فحش
فحص
فحل
فحم
فخخ
فخذ
فخر
فخم
فدا
فدي
فرأ
فرا
فرج
فرح
فرخ
فرد
فرز
فرس
فرش
فرص
فرض
فرط
فرع
فرغ
فرق
فرك
فرم
فرن
فرو
فري
فزع
فسا
فسح
فسخ
فسد
فسر
فسق
فشل
فشن
فصح
فصد
فصل
فصم
فضح
فضل
فضى
فضي
فطر
فطن
فعل
فغم
فقء
فقد
فقر
فقس
فقص
فقط
فقع
فقم
فقه
فقى
فقي
فكر
فكك
فكم
فلا
فلت
فلج
فلح
فلذ
فلز
فلس
فلق
فلك
فلل
فلم
فلن
فلو
فلي
فمي
فند
فنس
فنك
فنى
فني
فهد
فهر
فهم
فهن
فوت
فوج
فود
فور
فوز
فوس
فوش
فوض
فوط
فوع
فوغ
فوق
فوك
فول
فوم
فوه
فوي
فيض
قاء
قاؤ
قائ
قاب
قاح
قاد
قار
قاز
قاس
قاص
قاض
قاع
قاف
قاق
قال
قام
قبح
قبر
قبس
قبض
قبط
قبع
قبل
قبو
قبي
قتل
قثط
قحص
قحط
قحف
قحم
قدح
قدر
قدس
قدم
قذر
قذف
قرء
قرأ
قرؤ
قرئ
قرا
قرب
قرح
قرد
قرر
قرش
قرص
قرض
قرط
قرع
قرف
قرق
قرم
قرن
قرو
قرى
قري
قزح
قزع
قزق
قزم
قزي
قسا
قسر
قسط
قسم
قسو
قشد
قشر
قشط
قشع
قشل
قصب
قصد
قصر
قصص
قصع
قصف
قصم
قصى
قصي
قضا
قضم
قضي
قطا
قطب
قطر
قطط
قطع
قطف
قطن
قعد
قعر
قعن
قعو
قعي
قفا
قفر
قفز
قفش
قفص
قفط
قفل
قفو
قفي
قلب
قلد
قلص
قلط
قلع
قلق
قلل
قلم
قلو
قلي
قمح
قمر
قمص
قمع
قمم
قنا
قنب
قند
قنز
قنص
قنع
قنن
قنو
قني
قهر
قهو
قور
قوز
قوس
قوش
قوص
قوض
قوط
قوق
قول
قوم
قوى
قوي
قيء
قيح
قيد
قير
قيز
قيس
قيش
قيض
قيط
قيظ
قيل
قيم
كآب
كأب
كأس
كأن
كأى
كئو
كاب
كاث
كاج
كاخ
كاد
كار
كاز
كاس
كاش
كاغ
كاف
كاك
كام
كان
كاو
كاي
كبت
كبح
كبد
كبر
كبس
كبش
كبل
كبو
كبي
كتب
كتر
كتف
كتل
كتم
كثب
كثر
كثف
كجك
كحك
كحل
كدا
كدر
كدس
كدم
كدي
كذا
كذب
كرب
كرخ
كرد
كرر
كرز
كرس
كرش
كرك
كرم
كرو
كرى
كري
كسا
كسب
كسح
كسد
كسر
كسف
كسل
كسم
كسو
كسي
كشح
كشخ
كشر
كشط
كشف
كشك
كظم
كعب
كعك
كفء
كفؤ
كفا
كفت
كفر
كفل
كفن
كفى
كفي
كلا
كلب
كلغ
كلف
كلم
كلى
كلي
كمأ
كمب
كمد
كمر
كمش
كمى
كمي
كنا
كنب
كنت
كنج
كند
كنز
كنس
كنف
كنك
كنه
كنو
كنى
كني
كهف
كهل
كهن
كوب
كوت
كوج
كوخ
كود
كور
كوز
كوس
كوش
كوع
كوف
كوك
كول
كوم
كون
كوي
كيب
كيت
كيث
كيج
كيد
كير
كيز
كيس
كيش
كيف
كيك
كيل
كيم
كيو
لأم
لأن
لؤم
لؤي
لإي
لاج
لاح
لاذ
لاس
لاع
لاغ
لاف
لاق
لبث
لبد
لبس
لبق
لبن
لبو
لتر
لجأ
لجؤ
لجا
لجم
لجن
لحا
لحج
لحد
لحس
لحظ
لحق
لحم
لحن
لحى
لحي
لخص
لدغ
لدن
لدى
لدي
لذا
لزج
لزق
لزم
لسع
لسن
لصق
لطخ
لطف
لطم
لعب
لعق
لعل
لعن
لغز
لغط
لغم
لغو
لفت
لفح
لفظ
لفق
لقا
لقب
لقد
لقط
لقم
لقن
لقو
لقي
لكح
لكن
لكي
لل+
لمح
لمز
لمس
لنس
لنش
لهب
لهث
لهج
لهف
لوب
لوث
لوج
لوح
لوذ
لور
لوز
لوس
لوط
لوع
لوف
لوك
لوم
لوي
ليب
ليت
ليث
ليج
ليح
ليخ
لير
ليز
ليس
ليغ
ليف
ليك
ليل
ليم
ليو
مآت
مآد
مآز
مآس
مآل
مأس
مأو
مؤت
مؤد
مؤذ
مؤس
مؤم
مؤن
ماء
ماؤ
مائ
ماج
ماخ
ماد
مار
ماز
ماس
ماش
ماض
ماغ
ماك
مال
ماي
مبا
مبت
مبد
مبر
مبط
مبك
مبي
متأ
متب
متج
متح
متخ
متد
متر
متز
متس
متش
متط
متع
متغ
متف
متق
متك
متل
متم
متن
مته
متو
متى
متي
مثل
مثو
مجئ
مجب
مجد
مجر
مجز
مجس
مجل
مجم
مجن
محا
محب
محج
محد
محر
محز
محس
محش
محص
محض
محط
محف
محق
محك
محل
محم
محن
محو
محى
محي
مخا
مخب
مخد
مخر
مخز
مخط
مخل
مخي
مدا
مدب
مدح
مدد
مدر
مدع
مدق
مدن
مدى
مدي
مذر
مذل
مذم
مذن
مرء
مرآ
مرأ
مرئ
مرب
مرج
مرح
مرخ
مرد
مرر
مرز
مرش
مرض
مرغ
مرف
مرق
مرن
مرو
مري
مزج
مزح
مزد
مزر
مزق
مزك
مزل
مزن
مزي
مسئ
مسب
مست
مسج
مسح
مسخ
مسد
مسر
مسف
مسق
مسك
مسل
مسم
مسن
مسو
مسي
مشا
مشت
مشح
مشد
مشر
مشط
مشع
مشق
مشك
مشو
مشى
مشي
مصب
مصح
مصد
مصر
مصط
مصع
مصف
مصل
مصم
مصو
مضح
مضخ
مضر
مضض
مضغ
مضف
مضل
مضن
مضى
مضي
مطب
مطر
مطل
مطي
مظب
مظل
مظن
معد
معر
معز
مغب
مغذ
مغر
مغص
مغل
مغم
مغن
مغي
مفت
مفد
مفر
مفص
مفض
مفك
مقب
مقت
مقد
مقر
مقش
مقص
مقض
مقف
مقل
مقن
مقه
مقو
مقي
مكب
مكث
مكر
مكس
مكل
مكن
مكى
مكي
ملء
ملأ
ملؤ
ملئ
ملا
ملب
ملج
ملح
ملذ
ملز
ملس
ملص
ملط
ملغ
ملف
ملق
ملك
ملل
ملم
ملو
ملى
ملي
مما
ممد
ممر
ممض
ممل
منح
منذ
منز
منش
منص
منع
مهب
مهج
مهد
مهذ
مهر
مهف
مهق
مهل
مهم
مهن
مهو
مهي
موء
موب
موت
موج
موح
مود
مور
موز
موس
موش
موص
موض
موط
موع
موغ
موف
موق
موك
مول
موم
مون
موه
موي
ميا
ميت
ميث
ميج
ميخ
ميد
ميذ
مير
ميز
ميس
ميش
ميع
ميغ
ميف
ميك
ميل
ميم
مين
ميه
ميو
نأب
نأت
نأل
نأي
نؤد
نؤم
ناؤ
نائ
ناب
ناث
ناج
ناح
ناخ
ناد
نار
ناز
ناس
ناش
ناص
ناع
ناغ
ناف
ناق
نال
نام
ناي
نبأ
نبا
نبت
نبث
نبح
نبخ
نبد
نبذ
نبر
نبش
نبض
نبط
نبع
نبغ
نبق
نبك
نبل
نبه
نبو
نبى
نبي
نتب
نتج
نتح
نتر
نتس
نتش
نتص
نتف
نتق
نتم
نتن
نتو
نثر
نثق
نثم
نجا
نجب
نجح
نجد
نجر
نجس
نجع
نجف
نجل
نجم
نجن
نجو
نجى
نجي
نحا
نحب
نحت
نحث
نحج
نحد
نحذ
نحر
نحز
نحس
نحص
نحض
نحط
نحظ
نحف
نحل
نحم
نحن
نحو
نحي
نخب
نخج
نخر
نخش
نخص
نخط
نخع
نخف
نخل
نخو
نخي
ندا
ندب
ندد
ندر
ندع
ندف
ندق
ندل
ندم
ندو
ندى
ندي
نذر
نذل
نرا
نرد
نرش
نرض
نرف
نرق
نرك
نرم
نرى
نري
نزج
نزح
نزر
نزع
نزف
نزق
نزل
نزه
نزو
نسا
نسب
نست
نسج
نسخ
نسد
نسر
نسع
نسغ
نسف
نسق
نسك
نسل
نسم
نسو
نسى
نسي
نشء
نشأ
نشئ
نشا
نشب
نشد
نشر
نشط
نشع
نشف
نشق
نشك
نشل
نشم
نشن
نشو
نصب
نصح
نصر
نصف
نصل
نصي
نضب
نضج
نضح
نضخ
نضر
نضع
نضف
نضل
نضم
نضو
نطح
نطر
نطع
نطف
نطق
نطل
نظر
نظف
نظل
نظم
نظن
نعا
نعت
نعج
نعد
نعر
نعز
نعس
نعش
نعض
نعط
نعل
نعم
نعو
نعي
نغذ
نغر
نغز
نغص
نغض
نغط
نغل
نغم
نغن
نغو
نفا
نفث
نفج
نفح
نفخ
نفد
نفذ
نفر
نفز
نفس
نفض
نفط
نفظ
نفع
نفق
نفك
نفو
نفى
نفي
نقا
نقب
نقح
نقد
نقر
نقز
نقش
نقص
نقض
نقط
نقع
نقف
نقل
نقم
نقو
نقي
نكب
نكت
نكث
نكد
نكر
نكس
نكف
نكل
نكن
نكه
نكو
نكى
نلب
نلح
نلع
نلغ
نلف
نلق
نلم
نما
نمد
نمر
نمس
نمش
نمض
نمط
نمل
نمو
نمي
ننح
نند
ننس
ننص
ننع
ننف
ننق
ننك
ننه
ننو
نهب
نهج
نهد
نهر
نهز
نهش
نهض
نهل
نهو
نهي
نوء
نوا
نوب
نوت
نوج
نوح
نود
نور
نوز
نوس
نوش
نوص
نوط
نوع
نوغ
نوف
نوق
نوك
نول
نوم
نون
نوه
نوو
نوى
نوي
نيء
نيئ
نيب
نيج
نيح
نيد
نير
نيز
نيس
نيش
نيص
نيغ
نيف
نيك
نيل
نيم
نيو
هئي
هائ
هاج
هاد
هاذ
هار
هاز
هاس
هاش
هاغ
هاف
هام
هبت
هبر
هبش
هبط
هبل
هبى
هتس
هتش
هتف
هتك
هجا
هجر
هجل
هجم
هجن
هجو
هجي
هدأ
هدا
هدب
هدد
هدر
هدف
هدم
هدن
هدو
هدى
هدي
هذا
هذه
هذي
هرا
هرب
هرج
هرد
هرر
هرس
هرش
هرع
هرم
هرو
هري
هزل
هزم
هسن
هشم
هضب
هضم
هطا
هطل
هطو
هفت
هفو
هكس
هلث
هلع
هلق
هلك
هلم
همج
همز
همس
همش
همك
همم
هنأ
هنا
هنج
هند
هنر
هنس
هنغ
هنك
هني
ههي
هوج
هوس
هوش
هوغ
هوك
هوى
هوي
هيأ
هيئ
هيب
هيث
هيج
هيد
هير
هيص
هيغ
هيف
وأج
وأد
وإي
واح
واد
واس
واش
واط
واع
واف
واق
واي
وبخ
وتر
وثب
وثر
وثق
وجب
وجد
وجز
وجع
وجه
وجو
وحد
وحش
وحي
وخز
ودا
ودب
ودع
ودق
ودك
ودي
ورا
ورث
ورد
ورس
ورش
ورط
ورع
ورق
ورك
ورم
ورن
وزر
وزع
وزن
وزو
وسأ
وسخ
وسد
وسط
وسع
وسق
وسم
وسى
وسي
وشح
وشق
وشك
وشل
وشم
وصف
وصل
وصم
وصي
وضح
وضع
وطء
وطأ
وطئ
وطب
وطد
وطن
وظف
وعد
وعر
وعز
وعظ
وعك
وعى
وعي
وغا
وغد
وفا
وفد
وفر
وفض
وفق
وفى
وقت
وقح
وقص
وقع
وقف
وكا
وكس
وكي
ولا
ولج
ولد
ولش
ولع
ولف
ولي
ومد
ومض
ومى
ونش
وهب
وهج
وول
ويب
ويح
ويك
ويل
يأب
يأت
يأس
يأل
يأو
يؤب
يؤت
يؤد
يؤذ
يؤز
يؤم
يؤو
يئس
يئن
ياء
يائ
ياب
ياج
ياح
ياس
ياش
ياق
ياك
يام
يان
يبا
يبت
يبث
يبح
يبد
يبر
يبز
يبس
يبص
يبط
يبع
يبغ
يبق
يبك
يبل
يبن
يبه
يبو
يبي
يتأ
يتب
يتج
يتح
يتخ
يتر
يتز
يتس
يتش
يتط
يتع
يتغ
يتف
يتق
يتك
يتل
يتم
يتن
يتو
يتي
يثب
يثر
يثق
يثن
يجئ
يجا
يجب
يجث
يجد
يجر
يجز
يجس
يجف
يجل
يجن
يجو
يجي
يحا
يحب
يحث
يحج
يحد
يحذ
يحر
يحز
يحس
يحش
يحص
يحض
يحط
يحظ
يحف
يحق
يحك
يحل
يحم
يحن
يحو
يحى
يحي
يخا
يخب
يخت
يخر
يخش
يخص
يخض
يخط
يخف
يخل
يخم
يخن
يخو
يدب
يدج
يدر
يدس
يدع
يدق
يدك
يدل
يدم
يذر
يذق
يذل
يذم
يرئ
يرا
يرب
يرث
يرج
يرد
يرز
يرس
يرش
يرص
يرض
يرع
يرغ
يرف
يرق
يرك
يرم
يرن
يرو
يرى
يري
يزا
يزج
يزد
يزر
يزع
يزف
يزك
يزل
يزم
يزن
يزو
يزي
يسئ
يسا
يسب
يست
يسج
يسد
يسر
يسط
يسع
يسف
يسق
يسك
يسل
يسم
يسن
يسو
يسي
يشأ
يشا
يشب
يشح
يشد
يشذ
يشر
يشع
يشف
يشق
يشك
يشل
يشم
يشن
يشي
يصب
يصح
يصد
يصر
يصط
يصغ
يصف
يصل
يصم
يضج
يضح
يضخ
يضر
يضع
يضف
يضل
يضم
يضن
يطأ
يطا
يطب
يطر
يطغ
يطف
يطق
يطل
يطه
يطو
يظل
يظن
يعب
يعج
يعد
يعر
يعز
يعش
يعص
يعض
يعط
يعظ
يعف
يعق
يعل
يعم
يعن
يعو
يعي
يغب
يغد
يغذ
يغر
يغش
يغص
يغض
يغط
يغل
يغم
يغن
يغو
يفا
يفت
يفد
يفر
يفز
يفش
يفض
يفط
يفق
يفك
يفل
يفن
يفو
يفى
يفي
يقد
يقر
يقس
يقص
يقض
يقط
يقظ
يقع
يقف
يقل
يقم
يقو
يقي
يكب
يكد
يكر
يكس
يكش
يكف
يكل
يكن
يكو
يلا
يلب
يلت
يلث
يلج
يلح
يلد
يلس
يلغ
يلف
يلق
يلك
يلم
يله
يلو
يلى
يلي
يما
يمت
يمج
يمح
يمد
يمر
يمز
يمس
يمش
يمص
يمض
يمك
يمل
يمن
يمه
يمو
يمي
ينأ
ينب
ينج
ينح
يند
ينز
ينس
ينش
ينص
ينط
ينع
ينغ
ينف
ينق
ينم
يهب
يهج
يهد
يهذ
يهر
يهز
يهش
يهل
يهم
يهن
يهو
يهي
يوب
يوج
يوح
يود
يور
يوز
يوس
يوش
يوص
يوف
يوك
يول
يوم
يون
ييب
ييج
ييش
ييل
ييم
##,3
##-0
##-1
##-3
##-4
##-5
##-6
##-9
##.0
##.1
##/6
##/8
##00
##01
##02
##03
##04
##05
##06
##07
##08
##09
##10
##11
##12
##13
##14
##15
##16
##17
##18
##19
##20
##21
##22
##23
##24
##25
##26
##27
##28
##29
##30
##31
##32
##33
##34
##35
##36
##37
##38
##39
##4%
##40
##41
##42
##43
##44
##45
##46
##47
##48
##49
##50
##51
##52
##53
##54
##55
##56
##57
##58
##59
##60
##61
##62
##63
##64
##65
##66
##67
##68
##69
##7%
##70
##71
##72
##73
##74
##75
##76
##77
##78
##79
##8%
##80
##81
##82
##83
##84
##85
##86
##87
##88
##89
##9%
##90
##91
##92
##93
##94
##95
##96
##97
##98
##99
##AA
##AC
##AS
##AT
##CA
##CC
##CS
##CT
##Cl
##Co
##SA
##SC
##SS
##ST
##TA
##TC
##TS
##TT
##To
##aa
##ac
##ad
##ae
##ah
##ai
##al
##am
##an
##ar
##as
##at
##au
##ca
##cc
##ce
##ch
##ci
##cl
##co
##cr
##ct
##cu
##da
##dd
##de
##di
##do
##ds
##du
##ea
##ec
##ed
##ee
##eh
##ei
##el
##em
##en
##eo
##er
##es
##et
##eu
##ha
##he
##hi
##hl
##ho
##hr
##hs
##ht
##hu
##ia
##ic
##id
##ie
##ii
##il
##im
##in
##io
##ir
##is
##it
##la
##lc
##ld
##le
##li
##ll
##lm
##lo
##ls
##lt
##lu
##ma
##me
##mi
##mm
##mo
##ms
##na
##nc
##nd
##ne
##ni
##nn
##no
##ns
##nt
##nu
##oa
##oc
##od
##oe
##oh
##oi
##ol
##om
##on
##oo
##or
##os
##ot
##ou
##ra
##rc
##rd
##re
##ri
##rm
##ro
##rs
##rt
##ru
##sa
##sc
##se
##sh
##si
##sl
##sm
##so
##ss
##st
##su
##ta
##td
##te
##th
##ti
##tn
##to
##tr
##ts
##tt
##tu
##ua
##uc
##ud
##ue
##ui
##ul
##um
##un
##uo
##ur
##us
##ut
##آء
##آئ
##آب
##آت
##آد
##آر
##آس
##آف
##آل
##آم
##آن
##أب
##أح
##أخ
##أد
##أر
##أز
##أس
##أش
##أع
##أغ
##أف
##أق
##أك
##أل
##أم
##أن
##أو
##أى
##أي
##ؤد
##ؤس
##ؤو
##ؤى
##إب
##إح
##إخ
##إد
##إر
##إس
##إع
##إل
##إم
##إن
##إي
##ئد
##ئذ
##ئر
##ئز
##ئس
##ئل
##ئم
##ئن
##ئى
##ئي
##اء
##اؤ
##ائ
##ات
##اث
##اج
##اح
##اخ
##اد
##اذ
##ار
##از
##اس
##اش
##اص
##اض
##اط
##اظ
##اع
##اغ
##اف
##اق
##ال
##ام
##ان
##بأ
##بؤ
##بث
##بح
##بخ
##بد
##بذ
##بر
##بز
##بس
##بش
##بص
##بض
##بط
##بع
##بغ
##بق
##بك
##بل
##بن
##بى
##بي
##تش
##تم
##تى
##ثر
##ثق
##ثل
##ثم
##ثن
##ثو
##ثي
##جأ
##جئ
##جا
##جب
##جج
##جح
##جد
##جر
##جز
##جس
##جع
##جف
##جل
##جم
##جن
##جو
##جى
##جي
##حب
##حث
##حج
##حد
##حذ
##حر
##حس
##حش
##حص
##حض
##حط
##حظ
##حف
##حق
##حك
##حل
##حم
##حن
##حو
##حى
##حي
##خا
##خب
##خت
##خد
##خذ
##خر
##خز
##خس
##خش
##خص
##خض
##خط
##خف
##خل
##خم
##خن
##خو
##خى
##خي
##دب
##دج
##دح
##دخ
##دد
##در
##دز
##دس
##دش
##دع
##دغ
##دف
##دق
##دك
##دل
##دم
##دن
##دو
##دى
##دي
##ذا
##ذب
##ذج
##ذر
##ذع
##ذق
##ذل
##ذم
##ذن
##ذو
##ذى
##ذي
##رب
##رث
##رج
##رح
##رخ
##رد
##رز
##رس
##رش
##رض
##رع
##رغ
##رف
##رق
##رك
##رم
##رن
##رو
##رى
##ري
##زئ
##زا
##زب
##زج
##زح
##زد
##زر
##زع
##زغ
##زف
##زق
##زك
##زل
##زم
##زن
##زو
##زى
##زي
##سب
##ست
##سج
##سح
##سخ
##سد
##سر
##سس
##سع
##سف
##سق
##سك
##سل
##سم
##سن
##سو
##سى
##سي
##شا
##شب
##شح
##شخ
##شد
##شر
##شش
##شط
##شع
##شف
##شق
##شك
##شل
##شم
##شن
##شو
##شى
##شي
##صب
##صح
##صخ
##صد
##صر
##صص
##صط
##صع
##صف
##صل
##صم
##صن
##صو
##صى
##صي
##ضئ
##ضب
##ضج
##ضح
##ضخ
##ضد
##ضر
##ضع
##ضف
##ضل
##ضم
##ضن
##ضو
##ضى
##ضي
##طأ
##طؤ
##طا
##طب
##طح
##طر
##طس
##طش
##طط
##طع
##طف
##طق
##طل
##طم
##طن
##طو
##طى
##طي
##ظر
##ظف
##ظل
##ظم
##ظن
##ظى
##ظي
##عب
##عث
##عج
##عد
##عر
##عز
##عس
##عش
##عص
##عض
##عط
##عك
##عل
##عم
##عن
##عو
##عى
##عي
##غا
##غب
##غد
##غر
##غز
##غس
##غش
##غص
##غض
##غط
##غف
##غل
##غم
##غن
##غو
##غى
##غي
##فئ
##فا
##فج
##فخ
##فد
##فذ
##فر
##فز
##فس
##فش
##فص
##فض
##فط
##فظ
##فع
##فق
##فك
##فن
##فو
##فى
##في
##قب
##قح
##قد
##قذ
##قر
##قس
##قش
##قص
##قض
##قط
##قظ
##قع
##قف
##قل
##قم
##قن
##قو
##قى
##قي
##كا
##كب
##كث
##كد
##كر
##كز
##كس
##كش
##كف
##كل
##كم
##كن
##كو
##كى
##كي
##لا
##لث
##لج
##لح
##لد
##لس
##لص
##لط
##لع
##لغ
##لف
##لق
##لك
##لم
##لى
##لي
##مؤ
##مئ
##ما
##مج
##مح
##مخ
##مد
##مر
##مز
##مس
##مش
##مص
##مض
##مط
##مع
##مغ
##مق
##مك
##مل
##مم
##من
##مو
##مى
##مي
##نا
##نث
##نج
##نخ
##ند
##نز
##نس
##نش
##نص
##نط
##نغ
##نف
##نق
##نك
##نى
##ني
##ها
##هم
##هن
##هى
##وء
##وا
##وث
##وج
##وح
##وخ
##ود
##وذ
##ور
##وز
##وس
##وش
##وص
##وض
##وط
##وظ
##وع
##وغ
##وف
##وق
##وك
##ول
##وم
##ون
##وى
##ىء
##يء
##يئ
##يب
##يث
##يج
##يح
##يخ
##يد
##يذ
##ير
##يز
##يس
##يش
##يص
##يض
##يط
##يع
##يغ
##يف
##يق
##يك
##يم
##ين
##٠٠
+كما
+هما
0.00
0.01
0.02
0.03
0.04
0.05
0.06
0.07
0.08
0.09
0.10
0.11
0.12
0.13
0.14
0.15
0.16
0.17
0.18
0.19
0.20
0.21
0.22
0.23
0.24
0.25
0.26
0.27
0.28
0.29
0.30
0.31
0.32
0.33
0.34
0.35
0.36
0.37
0.38
0.39
0.40
0.41
0.42
0.43
0.44
0.45
0.46
0.47
0.48
0.49
0.50
0.51
0.52
0.53
0.54
0.55
0.56
0.57
0.58
0.59
0.60
0.61
0.62
0.63
0.64
0.65
0.66
0.67
0.68
0.69
0.70
0.71
0.72
0.73
0.74
0.75
0.76
0.77
0.78
0.79
0.80
0.81
0.82
0.83
0.84
0.85
0.86
0.87
0.88
0.89
0.90
0.91
0.92
0.93
0.94
0.95
0.96
0.97
0.98
0.99
0015
0016
0017
0018
0020
0021
0022
0400
0500
0800
0900
1.00
1.01
1.02
1.03
1.04
1.05
1.06
1.07
1.08
1.09
1.10
1.11
1.12
1.13
1.14
1.15
1.16
1.17
1.18
1.19
1.20
1.21
1.22
1.23
1.24
1.25
1.26
1.27
1.28
1.29
1.30
1.31
1.32
1.33
1.34
1.35
1.36
1.37
1.38
1.39
1.40
1.41
1.42
1.43
1.44
1.45
1.46
1.47
1.48
1.49
1.50
1.51
1.52
1.53
1.54
1.55
1.56
1.57
1.58
1.59
1.60
1.61
1.62
1.63
1.64
1.65
1.66
1.67
1.68
1.69
1.70
1.71
1.72
1.73
1.74
1.75
1.76
1.77
1.78
1.79
1.80
1.81
1.82
1.83
1.84
1.85
1.86
1.87
1.88
1.89
1.90
1.91
1.92
1.93
1.94
1.95
1.96
1.97
1.98
1.99
1/10
10.0
10.1
10.2
10.3
10.4
10.5
10.6
10.7
10.8
10.9
10/1
10/2
10/3
10/4
10/5
10/6
10/7
10/9
100%
1000
1001
1002
1003
1004
1005
1006
1007
1008
1009
1010
1011
1012
1013
1014
1015
1016
1017
1018
1019
1020
1021
1022
1023
1024
1025
1026
1027
1028
1029
1030
1031
1032
1033
1034
1035
1036
1037
1038
1039
1040
1041
1042
1043
1044
1045
1046
1047
1048
1049
1050
1051
1052
1053
1054
1055
1056
1057
1058
1059
1060
1061
1062
1063
1064
1065
1066
1067
1068
1069
1070
1071
1072
1073
1074
1075
1076
1077
1078
1079
1080
1081
1082
1083
1084
1085
1086
1087
1088
1089
1090
1091
1092
1093
1094
1095
1096
1097
1098
1099
11.0
11.1
11.2
11.3
11.4
11.5
11.6
11.7
11.8
11.9
11/1
11/2
11/3
11/4
11/5
11/6
11/7
11/8
11/9
1100
1101
1102
1103
1104
1105
1106
1107
1108
1109
1120
1121
1122
1123
1124
1125
1126
1127
1128
1129
1130
1131
1132
1133
1134
1135
1136
1137
1138
1139
1140
1141
1142
1143
1144
1145
1146
1147
1148
1149
1150
1151
1152
1153
1154
1155
1156
1157
1158
1159
1160
1161
1162
1163
1164
1165
1166
1167
1168
1169
1170
1171
1172
1173
1174
1175
1176
1177
1178
1179
1180
1181
1182
1183
1184
1185
1186
1187
1188
1189
1190
1191
1192
1193
1194
1195
1197
1198
1199
12.0
12.1
12.2
12.3
12.4
12.5
12.6
12.7
12.8
12.9
12/1
12/3
12/4
12/5
12/6
12/7
1200
1201
1202
1203
1204
1205
1206
1207
1208
1209
1210
1211
1212
1213
1214
1215
1216
1217
1218
1219
1220
1221
1223
1224
1225
1226
1227
1228
1229
1230
1231
1232
1233
1234
1235
1236
1237
1238
1239
1240
1241
1242
1243
1244
1245
1246
1247
1248
1249
1250
1251
1252
1253
1254
1255
1256
1257
1258
1259
1260
1261
1262
1263
1264
1265
1266
1267
1268
1269
1270
1271
1272
1273
1274
1275
1276
1277
1278
1279
1280
1281
1282
1283
1284
1285
1286
1287
1288
1289
1290
1291
1292
1293
1294
1295
1296
1297
1298
1299
13.0
13.1
13.2
13.3
13.4
13.5
13.6
13.7
13.8
13.9
13/3
13/4
13/5
13/6
13/7
1300
1301
1302
1303
1304
1305
1306
1307
1308
1309
1310
1311
1312
1313
1314
1315
1316
1317
1318
1319
1320
1321
1322
1323
1324
1325
1326
1327
1328
1329
1330
1331
1332
1334
1335
1336
1337
1338
1339
1340
1341
1342
1343
1344
1345
1346
1347
1348
1349
1350
1351
1352
1353
1354
1355
1356
1357
1358
1359
1360
1361
1362
1363
1364
1365
1366
1367
1368
1369
1370
1371
1372
1373
1374
1375
1376
1377
1378
1379
1380
1381
1382
1383
1384
1385
1386
1387
1388
1389
1390
1391
1392
1393
1394
1395
1396
1397
1398
1399
14.0
14.1
14.2
14.3
14.4
14.5
14.6
14.7
14.8
14.9
14/2
14/6
14/7
14/8
1400
1401
1402
1403
1404
1405
1406
1407
1408
1409
1410
1411
1412
1413
1414
1415
1416
1417
1418
1419
1420
1421
1422
1423
1424
1425
1426
1427
1428
1429
1430
1431
1432
1433
1434
1435
1436
1437
1438
1439
1440
1441
1442
1445
1447
1448
1449
1450
1451
1452
1453
1455
1456
1458
1460
1461
1462
1463
1464
1465
1467
1468
1469
1470
1471
1472
1473
1474
1475
1478
1480
1481
1482
1483
1484
1485
1486
1487
1488
1490
1491
1492
1493
1494
1495
1496
1497
1498
1499
15.0
15.1
15.2
15.3
15.4
15.5
15.6
15.7
15.8
15.9
15/2
15/3
15/4
15/5
15/6
15/7
15/8
15/9
1500
1501
1502
1503
1504
1505
1506
1507
1508
1509
1510
1511
1512
1513
1514
1515
1516
1517
1518
1519
1520
1521
1522
1523
1524
1525
1526
1527
1528
1529
1530
1532
1533
1534
1535
1536
1537
1538
1539
1540
1541
1542
1543
1544
1545
1546
1547
1549
1550
1551
1552
1553
1554
1556
1557
1558
1559
1560
1561
1562
1563
1564
1565
1566
1567
1568
1569
1570
1571
1572
1573
1574
1575
1576
1577
1578
1579
1580
1581
1582
1583
1585
1586
1587
1588
1589
1590
1591
1592
1593
1595
1596
1598
1599
16.0
16.1
16.2
16.3
16.4
16.5
16.6
16.7
16.8
16.9
16/1
16/2
16/3
16/4
16/5
16/6
16/7
16/8
16/9
1600
1601
1602
1603
1604
1605
1606
1607
1608
1609
1610
1611
1612
1613
1614
1615
1616
1617
1618
1619
1620
1621
1622
1623
1624
1625
1626
1627
1628
1629
1630
1631
1632
1633
1634
1635
1636
1637
1638
1639
1640
1641
1642
1643
1644
1645
1646
1648
1649
1650
1651
1652
1653
1654
1655
1656
1657
1658
1659
1660
1661
1662
1663
1664
1665
1667
1668
1669
1670
1671
1672
1673
1674
1675
1676
1679
1680
1682
1683
1684
1685
1686
1687
1688
1689
1690
1692
1693
1694
1695
1696
1698
1699
17.0
17.1
17.2
17.3
17.4
17.5
17.6
17.7
17.8
17.9
17/4
17/6
17/7
17/9
1700
1701
1702
1703
1704
1705
1706
1707
1709
1710
1711
1712
1713
1714
1715
1716
1717
1718
1719
1720
1721
1722
1723
1724
1725
1726
1727
1728
1729
1730
1731
1732
1733
1734
1735
1736
1737
1738
1739
1740
1741
1742
1743
1744
1745
1746
1747
1748
1749
1750
1751
1752
1753
1754
1755
1756
1757
1758
1759
1760
1761
1762
1763
1764
1765
1766
1767
1768
1769
1770
1771
1772
1773
1774
1775
1776
1778
1779
1780
1781
1782
1783
1784
1785
1786
1787
1788
1789
1790
1791
1792
1793
1794
1795
1796
1797
1798
1799
18.0
18.1
18.2
18.3
18.4
18.5
18.6
18.7
18.8
18.9
18/2
18/6
18/7
18/8
18/9
1800
1801
1802
1803
1804
1805
1806
1807
1808
1809
1810
1811
1812
1813
1814
1815
1816
1817
1818
1819
1820
1821
1822
1823
1824
1825
1826
1827
1828
1829
1830
1831
1832
1833
1834
1835
1836
1837
1838
1839
1840
1841
1842
1843
1844
1845
1846
1847
1848
1849
1850
1851
1852
1853
1854
1855
1856
1857
1858
1859
1860
1861
1862
1863
1864
1865
1866
1867
1868
1869
1870
1871
1872
1873
1874
1875
1876
1877
1878
1879
1880
1881
1882
1883
1884
1885
1886
1887
1889
1890
1891
1892
1893
1894
1895
1896
1897
1898
1899
19.0
19.1
19.2
19.3
19.4
19.5
19.6
19.7
19.8
19.9
19/6
19/7
19/9
1900
1901
1902
1903
1904
1905
1906
1907
1908
1909
1910
1911
1912
1913
1914
1915
1916
1917
1918
1919
1920
1921
1922
1923
1924
1925
1926
1927
1928
1929
1930
1931
1932
1933
1934
1935
1936
1937
1938
1939
1940
1941
1942
1943
1944
1945
1946
1947
1948
1949
1950
1951
1952
1953
1954
1955
1956
1957
1958
1959
1960
1961
1962
1963
1964
1965
1966
1967
1968
1969
1970
1971
1972
1973
1974
1975
1976
1977
1978
1979
1980
1981
1982
1983
1984
1985
1986
1987
1988
1989
1990
1991
1992
1993
1994
1995
1996
1997
1998
2.00
2.01
2.02
2.03
2.04
2.05
2.06
2.07
2.08
2.09
2.10
2.11
2.12
2.13
2.14
2.15
2.16
2.17
2.18
2.19
2.20
2.21
2.22
2.23
2.24
2.25
2.26
2.27
2.28
2.29
2.30
2.31
2.32
2.33
2.34
2.35
2.36
2.37
2.38
2.39
2.40
2.41
2.42
2.43
2.44
2.45
2.46
2.47
2.48
2.49
2.50
2.51
2.52
2.53
2.54
2.55
2.56
2.57
2.58
2.59
2.60
2.61
2.62
2.63
2.64
2.65
2.66
2.67
2.68
2.69
2.70
2.71
2.72
2.73
2.74
2.75
2.76
2.77
2.78
2.79
2.80
2.81
2.82
2.83
2.84
2.85
2.86
2.87
2.88
2.89
2.90
2.91
2.92
2.93
2.94
2.95
2.96
2.97
2.98
2.99
20.0
20.1
20.2
20.3
20.4
20.5
20.6
20.7
20.8
20.9
20/1
20/2
20/4
20/6
20/7
20/8
20/9
2000
2001
2002
2003
2004
2005
2006
2007
2008
2009
2010
2011
2012
2013
2014
2015
2016
2017
2018
2019
2020
2021
2022
2023
2024
2025
2026
2027
2028
2029
2030
2031
2032
2035
2040
2041
2042
2043
2045
2048
2050
2052
2060
2070
2080
21.0
21.1
21.2
21.3
21.4
21.5
21.6
21.7
21.8
21.9
21/6
21/7
21/8
2100
2118
2125
2130
2139
2145
2150
2152
2160
2170
22.0
22.1
22.2
22.3
22.4
22.5
22.6
22.7
22.8
22.9
22/1
22/3
22/4
22/5
22/6
22/7
2200
2216
2230
2231
2240
2250
2254
23.0
23.1
23.2
23.3
23.4
23.5
23.6
23.7
23.8
23.9
23/5
23/6
23/7
2300
2325
2330
2334
2350
24.0
24.1
24.2
24.3
24.4
24.5
24.6
24.7
24.8
24.9
24/4
24/6
24/7
24/9
2400
2401
2402
2403
2410
2411
2412
2450
25.0
25.1
25.2
25.3
25.4
25.5
25.6
25.7
25.8
25.9
25/5
25/6
25/8
2500
2502
2503
2504
2505
2506
2520
2525
2550
26.0
26.1
26.2
26.3
26.4
26.5
26.6
26.7
26.8
26.9
26/6
26/9
2600
2650
27.0
27.1
27.2
27.3
27.4
27.5
27.6
27.7
27.8
27.9
27/3
27/6
27/7
2700
2750
28.0
28.1
28.2
28.3
28.4
28.5
28.6
28.7
28.8
28.9
28/5
28/6
28/7
2800
2850
29.0
29.1
29.2
29.3
29.4
29.5
29.6
29.7
29.8
29.9
29/4
29/5
29/6
29/7
2900
3.00
3.01
3.02
3.03
3.04
3.05
3.06
3.07
3.08
3.09
3.10
3.11
3.12
3.13
3.14
3.15
3.16
3.17
3.19
3.20
3.21
3.22
3.23
3.24
3.25
3.26
3.30
3.33
3.35
3.45
3.50
3.75
30.0
30.1
30.2
30.3
30.4
30.5
30.6
30.7
30.8
30.9
30/1
30/6
30/9
3000
3016
3018
3020
3021
31.0
31.1
31.2
31.3
31.4
31.5
31.6
31.7
31.8
31.9
3100
3150
32.0
32.1
32.2
32.3
32.4
32.5
32.6
32.7
32.8
32.9
3200
3250
33.0
33.1
33.2
33.3
33.4
33.5
33.6
33.7
33.8
33.9
3300
3310
34.0
34.1
34.2
34.3
34.4
34.5
34.6
34.7
34.8
34.9
3400
3450
35.0
35.1
35.2
35.3
35.4
35.5
35.6
35.7
35.8
35.9
3500
36.0
36.1
36.2
36.3
36.4
36.5
36.6
36.7
36.8
36.9
3600
3650
37.0
37.1
37.2
37.3
37.4
37.5
37.6
37.7
37.8
37.9
3700
3750
38.1
38.2
38.3
38.4
38.5
38.6
38.7
38.8
38.9
3800
39.0
39.1
39.2
39.3
39.4
39.5
39.6
39.7
39.8
39.9
3900
4.00
4.15
4.25
4.30
4.45
4.50
4.75
40.0
40.1
40.2
40.3
40.4
40.5
40.6
40.7
40.8
40.9
4000
41.1
41.2
41.3
41.4
41.5
41.6
41.7
41.8
41.9
4100
42.1
42.2
42.3
42.4
42.5
42.6
42.7
42.8
42.9
4200
4250
4260
43.1
43.2
43.3
43.4
43.5
43.6
43.7
43.8
43.9
4300
44.1
44.2
44.3
44.4
44.5
44.6
44.7
44.8
44.9
4400
45.0
45.1
45.2
45.3
45.4
45.5
45.6
45.7
45.8
45.9
4500
4521
46.1
46.2
46.3
46.4
46.5
46.6
46.7
46.8
46.9
4600
47.0
47.1
47.2
47.3
47.4
47.5
47.6
47.7
47.8
47.9
4700
4750
48.0
48.1
48.2
48.3
48.4
48.5
48.6
48.7
48.8
48.9
4800
49.0
49.1
49.2
49.3
49.4
49.5
49.6
49.7
49.8
49.9
4900
5-10
5.00
5.15
5.25
5.30
5.45
5.75
5/10
5/11
50.0
50.1
50.2
50.3
50.4
50.5
50.6
50.7
50.8
50.9
5000
5001
5002
51.0
51.1
51.2
51.3
51.4
51.5
51.6
51.7
51.8
51.9
5100
52.0
52.1
52.2
52.3
52.4
52.5
52.6
52.7
52.8
52.9
5200
5250
5260
53.1
53.2
53.3
53.4
53.5
53.6
53.7
53.8
53.9
5300
54.1
54.2
54.3
54.4
54.5
54.6
54.7
54.8
5400
55.2
55.3
55.4
55.5
55.6
55.7
55.8
5500
56.3
56.5
56.6
56.7
5600
57.1
57.5
5700
58.4
58.5
5800
59.3
59.5
5900
6.00
6.25
6.30
6.45
6.75
6/10
6/11
60.0
6002
61.5
61.8
6100
6116
62.5
6200
6250
6260
63.5
6300
6400
65.5
6500
66.5
66.7
6600
67.5
6700
6750
68.5
6800
6900
7.00
7.15
7.30
7.45
7.62
7/10
7/11
7002
7100
72.5
7200
73.5
7300
7400
75.5
7500
7600
77.5
7700
78.5
7800
7900
8-10
8.00
8.15
8.25
8.30
8.45
8/10
8/11
80.0
80.5
8002
8100
82.5
82.8
8200
8300
8400
8500
86.5
8600
87.5
8700
88.2
88.5
88.6
8800
8900
9-11
9.00
9.25
9.30
9.45
9.75
9/10
9/11
9001
9002
91.3
91.5
91.7
92.5
92.7
9200
93.3
93.5
9300
9360
9386
94.5
94.6
9400
9489
95.5
95.6
95.7
9500
96.1
96.2
96.3
96.5
96.6
96.7
96.8
96.9
9600
97.1
97.2
97.3
97.5
97.6
97.7
97.8
97.9
9700
98.1
98.2
98.3
98.4
98.5
98.6
98.8
9800
99.1
99.2
99.3
99.4
99.5
99.8
99.9
9900
Acti
Aero
Anal
Anna
Anti
Asia
Audi
Auto
Call
Card
Care
Carl
Carr
Case
Cell
Cham
Chan
Char
Chat
Citi
Code
Coll
Comm
Cons
Core
Cost
Sand
Scan
Shar
Side
Some
Star
Stat
Stor
Stra
Team
Tech
Tele
Term
Terr
Test
That
Thin
This
Time
Tour
Trac
True
acid
acti
anal
anti
area
auto
call
card
cell
cham
chan
citi
clic
code
coll
cons
dans
data
home
inde
into
made
mail
meet
meta
mini
more
most
name
need
reco
shar
site
some
stud
such
team
term
test
than
that
them
thin
this
thro
time
trac
true
unit
آباء
آبائ
آباد
آبار
آبوت
آتشي
آثار
آثام
آجال
آحاد
آخاذ
آخرى
آداء
آدائ
آداب
آدام
آدمز
آدمى
آدمي
آذار
آذان
آذري
آراء
آرائ
آراب
آراد
آراك
آرام
آرتس
آرتش
آرتي
آرثر
آرنو
آرون
آريس
آزاد
آزور
آسام
آسيا
آسيك
آشلي
آشور
آفاد
آفاق
آلاف
آلام
آلان
آلتي
آماد
آمار
آمال
آمان
آمور
آموس
آمين
آنجل
آندي
آوان
آيار
آيدن
آيرس
آيرو
آيزو
آيمي
أأنت
أؤكد
أؤيد
أاضء
أباء
أباح
أباد
أبار
أباظ
أبان
أبتر
أبجد
أبحث
أبحر
أبخر
أبخل
أبدأ
أبدع
أبدي
أبذل
أبرأ
أبرد
أبرز
أبرش
أبرق
أبرك
أبرم
أبزر
أبسط
أبشر
أبصر
أبطأ
أبطح
أبطل
أبعث
أبعد
أبغض
أبقي
أبكر
أبكم
أبكى
أبكي
أبلح
أبلغ
أبني
أبها
أبهج
أبهر
أبهى
أبوح
أبوي
أبيب
أبيد
أبيس
أبيض
أبيع
أبيك
أبين
أبيه
أبيى
أبيي
أتاح
أتال
أتاو
أتبع
أتبن
أتجه
أتجو
أتحد
أتحر
أتحف
أتخذ
أتخم
أتدر
أترب
أترك
أتسل
أتسم
أتسو
أتصل
أتضح
أتعب
أتعس
أتفق
أتفه
أتقا
أتقن
أتلف
أتلق
أتلو
أتلي
أتمت
أتمم
أتهم
أتوب
أتوج
أتوق
أتول
أتوم
أتون
أتيح
أثاب
أثاث
أثار
أثاف
أثبت
أثخن
أثرى
أثري
أثقل
أثلج
أثمر
أثني
أثير
أثيل
أثيم
أجاب
أجاث
أجاد
أجار
أجاز
أجبر
أجبن
أجدر
أجدى
أجرأ
أجرؤ
أجرا
أجرب
أجرم
أجرى
أجري
أجعل
أجلس
أجمع
أجمل
أجنا
أجنح
أجند
أجني
أجهد
أجهر
أجهز
أجهش
أجهض
أجهل
أجوب
أجود
أجور
أجوس
أجوف
أجول
أجيب
أجيد
أجير
أجيز
أحاد
أحاط
أحال
أحاي
أحبب
أحبط
أحبو
أحتج
أحتل
أحجم
أحجي
أحدث
أحذر
أحذي
أحرج
أحرز
أحرص
أحرض
أحرف
أحرق
أحرم
أحزم
أحزن
أحسب
أحسد
أحسس
أحسن
أحصن
أحصي
أحضر
أحفر
أحفظ
أحقق
أحقي
أحكم
أحكي
أحلا
أحلف
أحلق
أحلم
أحلى
أحمد
أحمر
أحمس
أحمق
أحمل
أحمي
أحنف
أحوج
أحوط
أحول
أحيا
أحيط
أحيل
أحيي
أخاذ
أخاف
أخبر
أختر
أختم
أختي
أخجل
أخدم
أخرج
أخرس
أخرق
أخرى
أخري
أخشا
أخضر
أخضع
أخطأ
أخطئ
أخطب
أخطر
أخطو
أخفا
أخفق
أخفي
أخلص
أخلط
أخلع
أخلف
أخلي
أخمد
أخمص
أخون
أخوي
أخير
أخيل
أداء
أداؤ
أدائ
أداب
أدار
أدام
أدان
أدبى
أدبي
أدخر
أدخل
أدخن
أدرا
أدرب
أدرج
أدرس
أدرع
أدرك
أدرن
أدرى
أدري
أدعم
أدعو
أدعي
أدغم
أدفأ
أدفع
أدفن
أدفو
أدكو
أدلب
أدلر
أدلي
أدما
أدمج
أدمع
أدمغ
أدمن
أدمي
أدنا
أدنى
أدني
أدهش
أدهم
أدور
أدوي
أديب
أدير
أديس
أديل
أديم
أدين
أذاب
أذاع
أذاق
أذان
أذرع
أذري
أذكر
أذكى
أذنا
أذني
أذهب
أذهل
أذين
أرأي
أراء
أرائ
أراب
أراح
أراد
أراز
أراس
أراض
أراق
أراك
أراه
أربح
أربد
أربط
أربع
أربك
أربي
أرتب
أرتد
أرتق
أرتو
أرثر
أرجأ
أرجح
أرجع
أرجل
أرجن
أرجو
أرحب
أرحل
أرحم
أرخص
أردب
أردف
أردن
أردو
أردي
أرزق
أرسا
أرسل
أرسم
أرسي
أرشح
أرشد
أرشف
أرصد
أرصف
أرضى
أرضي
أرطا
أرعب
أرغب
أرغف
أرغم
أرغن
أرغو
أرفض
أرفع
أرفف
أرفق
أرقب
أرقد
أرقص
أرقم
أرقى
أركب
أركز
أركو
أرلي
أرمل
أرمن
أرمي
أرنب
أرند
أرنو
أرني
أرهب
أرهق
أروج
أروح
أروش
أروع
أروق
أروم
أرون
أروى
أروي
أريب
أريج
أريح
أريد
أريس
أريف
أريق
أريك
أريل
أريم
أريي
أزاح
أزاد
أزار
أزال
أزدي
أزرع
أزرق
أزعج
أزعر
أزلي
أزمن
أزهر
أزهق
أزور
أزول
أزيح
أزيد
أزيل
أسأل
أسئل
أساء
أسار
أساس
أساط
أساف
أسال
أسام
أسبر
أسبغ
أسبق
أسبل
أستر
أستع
أستل
أسجل
أسحل
أسخر
أسدي
أسرع
أسرى
أسري
أسطا
أسطر
أسطى
أسعد
أسعف
أسفر
أسفل
أسقط
أسقف
أسكت
أسكر
أسكن
أسكو
أسكي
أسلح
أسلط
أسلف
أسلك
أسلم
أسما
أسمح
أسمد
أسمر
أسمع
أسمو
أسمى
أسمي
أسند
أسهب
أسهر
أسهل
أسهم
أسوء
أسوأ
أسود
أسور
أسوس
أسيا
أسيب
أسيت
أسيج
أسيد
أسير
أسيس
أسيك
أسيل
أشاد
أشار
أشاع
أشبا
أشبع
أشبه
أشتر
أشتم
أشجع
أشرب
أشرح
أشرس
أشرط
أشرع
أشرف
أشرق
أشرك
أشعث
أشعر
أشعل
أشغل
أشفق
أشقر
أشكر
أشكل
أشكو
أشلي
أشمل
أشهب
أشهر
أشهى
أشوف
أشوك
أشول
أشيا
أشيب
أشير
أشيع
أشيل
أصاب
أصال
أصبح
أصبع
أصبغ
أصبن
أصبو
أصدر
أصدق
أصرخ
أصرر
أصرف
أصعب
أصعد
أصغر
أصغي
أصفر
أصلح
أصلي
أصمخ
أصنف
أصوب
أصوت
أصور
أصول
أصيب
أصير
أصيل
أضاء
أضاع
أضاف
أضحك
أضحى
أضحي
أضخم
أضرب
أضرح
أضرم
أضطر
أضعف
أضغا
أضغط
أضلع
أضمر
أضمن
أضيئ
أضيع
أضيف
أضيق
أطاح
أطار
أطاع
أطال
أطبق
أطرب
أطرح
أطرد
أطرش
أطرق
أطسا
أطعم
أطعن
أطفأ
أطفئ
أطلب
أطلس
أطلع
أطلق
أطور
أطول
أطيب
أطيع
أطيل
أظلم
أظهر
أعاج
أعاد
أعار
أعاق
أعال
أعان
أعبد
أعبر
أعتب
أعتد
أعتز
أعتق
أعجب
أعجز
أعدد
أعدم
أعذر
أعرب
أعرج
أعرض
أعرف
أعرق
أعزل
أعشا
أعشق
أعشى
أعصر
أعطا
أعطو
أعطي
أعظم
أعفي
أعقب
أعلا
أعلق
أعلم
أعلن
أعلى
أعلي
أعمد
أعمق
أعمل
أعمى
أعني
أعهد
أعوج
أعود
أعور
أعيا
أعيب
أعيد
أعير
أعيش
أعيل
أعين
أغاث
أغار
أغاظ
أغان
أغبر
أغدق
أغذي
أغرا
أغرب
أغرق
أغرم
أغسل
أغشي
أغضب
أغطي
أغفل
أغلا
أغلب
أغلق
أغلو
أغلى
أغلي
أغمض
أغمي
أغني
أغوا
أغوص
أغير
أفئد
أفاد
أفاض
أفاع
أفاق
أفاك
أفاي
أفتح
أفتش
أفتك
أفخم
أفدن
أفرج
أفرح
أفرد
أفرز
أفرش
أفرط
أفرع
أفرغ
أفرق
أفرو
أفري
أفزع
أفسد
أفسر
أفسس
أفشل
أفصح
أفصل
أفضح
أفضل
أفطر
أفطس
أفعل
أفعى
أفقد
أفقر
أفقي
أفكر
أفلت
أفلح
أفلس
أفند
أفني
أفهم
أفوز
أفول
أفيد
أفيش
أفيغ
أفيف
أفيق
أقال
أقام
أقبا
أقبض
أقبل
أقبي
أقتل
أقحم
أقدر
أقدس
أقدم
أقذر
أقرأ
أقرؤ
أقرب
أقرر
أقرض
أقسا
أقسم
أقسى
أقصا
أقصد
أقصر
أقصى
أقصي
أقطع
أقطن
أقعد
أقفل
أقلع
أقلق
أقلي
أقمش
أقمص
أقنع
أقني
أقوا
أقول
أقوى
أقوي
أقيل
أقيم
أكاد
أكار
أكان
أكبر
أكتب
أكتر
أكتف
أكتم
أكثر
أكحل
أكذب
أكرا
أكرس
أكرم
أكره
أكرو
أكسب
أكسج
أكسد
أكسر
أكسس
أكسل
أكشف
أكشن
أكفأ
أكلم
أكمل
أكمن
أكوا
أكور
أكول
أكون
أكوي
أكيد
أكير
أكيل
أكيو
ألأم
ألأن
ألاف
ألام
ألان
ألبا
ألبس
ألبو
ألبي
ألتق
ألتم
ألتو
ألتي
ألجأ
ألجم
ألحظ
ألحق
ألدر
ألدو
ألزم
ألسن
ألصق
ألطف
ألعب
ألعن
ألعو
ألغا
ألغى
ألغي
ألفى
ألفي
ألقا
ألقى
ألقي
ألكس
ألكو
ألمح
ألمس
ألمع
ألني
ألهب
ألهم
ألور
ألوف
ألوم
ألوي
أليز
أليس
أليف
أليك
أليل
أليم
ألين
أليو
أمار
أماط
أمام
أمان
أمبر
أمبو
أمتد
أمتع
أمتن
أمثل
أمجد
أمرأ
أمرك
أمزج
أمسك
أمسي
أمشى
أمشي
أمضا
أمضى
أمضي
أمطر
أمعن
أمكث
أمكن
أملج
أملس
أملك
أممي
أمنح
أمنى
أمني
أمهر
أمهل
أموت
أمور
أموس
أموم
أموي
أمية
أميج
أميد
أمير
أميز
أميل
أميم
أمين
أناب
أناس
أناط
أناق
أنام
أنبأ
أنبا
أنبل
أنتج
أنتر
أنتم
أنثو
أنثى
أنثي
أنجب
أنجح
أنجز
أنجل
أنجو
أنخل
أندر
أندي
أنذا
أنذر
أنزل
أنسا
أنسب
أنسج
أنسن
أنسى
أنسي
أنشأ
أنشئ
أنشد
أنشر
أنشط
أنصب
أنصت
أنصح
أنصف
أنضم
أنطق
أنطل
أنظر
أنظم
أنعش
أنعم
أنفذ
أنفس
أنفع
أنفق
أنقذ
أنقر
أنقل
أنكح
أنكر
أنلا
أنما
أنمل
أنمي
أنني
أنهك
أنهي
أنوث
أنور
أنوف
أنوي
أنيس
أنيق
أهال
أهان
أهتم
أهدأ
أهدا
أهدر
أهدل
أهدى
أهدي
أهذا
أهرا
أهلك
أهلى
أهلي
أهمي
أهنئ
أهوج
أهون
أهيم
أهين
أوان
أوبئ
أوبر
أوبس
أوبك
أوبل
أوبن
أوبو
أوبي
أوتش
أوتو
أوتي
أوثق
أوجب
أوجد
أوجز
أوجس
أوجع
أوجه
أوحد
أوحي
أودع
أودو
أودى
أودي
أورا
أورب
أورث
أورج
أورد
أورس
أورط
أورغ
أورف
أورق
أورك
أورم
أورن
أورو
أوري
أوزع
أوزو
أوسط
أوسع
أوسم
أوسو
أوسي
أوشح
أوشك
أوشن
أوشي
أوصا
أوصد
أوصل
أوصي
أوضح
أوعز
أوعي
أوغل
أوفد
أوفر
أوفق
أوفى
أوقد
أوقع
أوقف
أوقي
أوكد
أوكس
أوكل
أوكي
أولى
أولي
أومأ
أونج
أوند
أونس
أونص
أونغ
أونو
أويل
أياد
أيار
أيام
أيبك
أيتن
أيدز
أيدن
أيدو
أيدى
أيدي
أيرس
أيرو
أيزو
أيسر
أيضا
أيقظ
أيقن
أيما
أيمن
أيمي
أينع
أيها
أيوب
أيوه
إباء
إباح
إباد
إباض
إبان
إبدو
إبسن
إبني
إتاح
إتاو
إتجه
إتخذ
إترب
إتصل
إتفق
إتني
إتهم
إثاب
إثار
إثقا
إثني
إثيل
إجاب
إجاد
إجار
إجاز
إجرء
إحاط
إحال
إحتر
إحتف
إحتل
إحتو
إحدا
إحدى
إحرق
إحكا
إحنا
إخاء
إخاف
إختر
إخلا
إداء
إدار
إدام
إدان
إدرا
إدفو
إدكو
إدلب
إذاع
إذلا
إذهب
إراح
إراد
إراق
إربد
إرتد
إردب
إركا
إرنا
إريك
إرين
إزائ
إزاح
إزار
إزال
إزاى
إزاي
إزها
إزيك
إسأل
إساء
إسار
إسال
إسبر
إستب
إستر
إستق
إستو
إستي
إسحق
إسدا
إسطب
إسفا
إسفك
إسكو
إسكي
إسمي
إسنا
إسها
إسود
إشاد
إشار
إشاع
إشتر
إشتع
إشيق
إصاب
إصبع
إصدر
إضاء
إضاع
إضاف
إضرا
إضطر
إطاح
إطار
إطال
إطرا
إطسا
إطلع
إعاد
إعار
إعاش
إعاق
إعال
إعان
إعتا
إعتد
إعتل
إعطا
إغاث
إغار
إغفا
إفاد
إفاض
إفاق
إفشا
إفقا
إفيه
إقال
إقام
إقرأ
إكتف
إكتم
إكسل
إلبا
إلتف
إلتق
إلحق
إلسا
إللي
إلما
إلهي
إليس
إماء
إمار
إماط
إمام
إمبر
إمبو
إمتد
إمتى
إمرأ
إمرا
إمير
إميل
إناب
إناث
إنار
إنبى
إنبي
إنتر
إنتل
إنجل
إنجي
إندو
إندي
إنزو
إنسي
إنضم
إنفل
إنفو
إنكا
إنما
إهاب
إهان
إهدن
إياب
إياد
إياس
إياك
إيان
إيبر
إيبك
إيبل
إيبو
إيبي
إيتا
إيتش
إيتو
إيتي
إيثر
إيثل
إيجل
إيجه
إيجي
إيدج
إيدز
إيدك
إيدن
إيدو
إيدي
إيرث
إيرز
إيرف
إيرك
إيرل
إيرو
إيزو
إيزي
إيست
إيسر
إيسن
إيسو
إيسي
إيشي
إيضا
إيغل
إيغو
إيفا
إيفر
إيفل
إيفو
إيفي
إيكر
إيكس
إيكو
إيكي
إيلي
إيما
إيمج
إيمر
إيمو
إيمى
إيمي
إينج
إيند
إينس
إينو
إيني
ابائ
اباح
اباد
ابار
اباس
اباض
ابان
ابتز
ابتع
ابتغ
ابتل
ابتن
ابحث
ابحر
ابخر
ابدأ
ابدئ
ابدا
ابدع
ابدو
ابدي
ابرد
ابرز
ابرش
ابرق
ابرم
ابري
ابسط
ابسن
ابشر
ابصر
ابطل
ابعث
ابعد
ابغض
ابقي
ابكر
ابكو
ابكي
ابلح
ابلغ
ابنى
ابني
ابها
ابهر
ابوح
ابوس
ابوش
ابوي
ابيض
ابيع
ابيل
ابيه
ابيي
اتاح
اتاك
اتبع
اتجا
اتجد
اتجه
اتحد
اتحف
اتخد
اتخذ
اتخم
اترا
اترب
اترك
اتسع
اتسم
اتشح
اتشي
اتصف
اتصل
اتعب
اتعظ
اتفق
اتقف
اتقل
اتقن
اتكل
اتلف
اتلق
اتمت
اتني
اتهم
اتوج
اتوم
اتيح
اثاث
اثار
اثام
اثبت
اثري
اثقل
اثلج
اثمر
اثني
اثير
اثيل
اجاب
اجاد
اجار
اجاز
اجاص
اجال
اجبر
اجتث
اجتر
اجتز
اجدر
اجرء
اجرا
اجري
اجسد
اجعل
اجلس
اجمع
اجمل
اجنب
اجنح
اجند
اجهز
اجهض
اجهل
اجهو
اجوب
اجود
اجور
اجيب
اجيد
اجير
احاج
احاد
احاط
احال
احبب
احبط
احبك
احتج
احتد
احتذ
احتر
احتس
احتف
احتك
احتل
احتم
احتو
احجا
احجم
احدث
احدى
احدي
احذر
احذي
احرج
احرز
احرص
احرف
احرق
احزم
احزن
احسب
احسس
احسن
احصر
احصل
احصن
احضر
احفظ
احقي
احكم
احكي
احلق
احلم
احمد
احمر
احمل
احول
احيا
احيد
احيط
احيل
احيي
اخاف
اخبر
اختر
اختز
اختش
اختص
اختط
اختف
اختل
اختم
اخجل
اخدم
اخذا
اخذو
اخرج
اخرس
اخرى
اخري
اخسر
اخشا
اخشب
اخضر
اخضع
اخطأ
اخطر
اخطط
اخفض
اخفق
اخفي
اخلص
اخلط
اخلع
اخلف
اخلي
اخمد
اخوي
اخير
اخيل
اداء
ادائ
اداب
ادار
ادام
ادان
اداو
ادبي
ادخر
ادخل
ادخن
ادرا
ادرج
ادرس
ادرك
ادرن
ادري
ادعم
ادعو
ادعى
ادعي
ادفع
ادفن
ادفو
ادكو
ادلب
ادلي
ادما
ادمغ
ادمن
ادمي
ادنا
ادنى
ادني
ادهش
ادهم
ادور
ادوي
اديب
ادير
اديس
اديل
اديم
ادين
اذاع
اذرع
اذري
اذكر
اذني
اذهب
اذهل
اراء
ارائ
اراب
اراج
اراح
اراد
اراس
اراض
اراك
ارام
اراه
اربا
اربح
اربد
اربط
اربع
اربك
اربي
ارتأ
ارتج
ارتح
ارتخ
ارتد
ارتر
ارتس
ارتش
ارتض
ارتق
ارتم
ارتو
ارتي
ارثر
ارجح
ارجع
ارجل
ارجن
ارجو
ارحب
ارحل
ارحم
اردا
اردد
اردف
اردم
اردن
اردو
اردي
ارزق
ارسل
ارسم
ارسن
ارسي
ارشد
ارشف
ارشي
ارصد
ارصف
ارضى
ارضي
ارعب
ارغم
ارغو
ارفض
ارفع
ارفق
ارقد
ارقص
اركب
اركن
اركو
اركي
ارمل
ارمن
ارمو
ارمي
ارنا
ارنب
ارنو
ارني
ارهق
اروح
اروش
اروم
ارون
اروي
اريا
اريب
اريج
اريد
اريز
اريس
اريف
اريك
اريل
اريم
ازاح
ازاد
ازار
ازال
ازدد
ازدر
ازرع
ازرق
ازعج
ازلي
ازمن
ازهر
ازور
ازيا
ازيد
ازيل
اسأل
اسئل
اساء
اساد
اسار
اساس
اساف
اسام
اسبر
اسبق
اسبي
استث
استح
استخ
استر
استف
استق
استل
استم
استن
استو
استي
اسحب
اسدد
اسدي
اسرع
اسرى
اسري
اسطا
اسطر
اسعد
اسعف
اسفر
اسفل
اسفي
اسقط
اسقف
اسكب
اسكت
اسكر
اسكن
اسكو
اسكي
اسلح
اسلف
اسلك
اسلم
اسمح
اسمد
اسمر
اسمع
اسمي
اسند
اسهر
اسهل
اسهم
اسود
اسوق
اسوي
اسيا
اسيج
اسيد
اسير
اسيس
اسيك
اسيل
اسيم
اشاد
اشار
اشاع
اشبا
اشبع
اشتد
اشتر
اشتق
اشتك
اشتم
اشتي
اشجع
اشرب
اشرح
اشرس
اشرط
اشرع
اشرف
اشرق
اشرك
اشعر
اشعل
اشغل
اشفق
اشقر
اشكر
اشلي
اشهد
اشهر
اشوا
اشور
اشوف
اشيا
اشيع
اشيل
اصاب
اصال
اصاي
اصبح
اصبر
اصبع
اصدر
اصدق
اصرخ
اصرف
اصطب
اصطف
اصعد
اصغر
اصفر
اصفي
اصلح
اصلي
اصنع
اصول
اصيب
اصيل
اضاء
اضاع
اضاف
اضبط
اضحك
اضحي
اضرب
اضرح
اضطر
اضطل
اضعف
اضغط
اضمن
اضيف
اطاح
اطار
اطاع
اطال
اطرب
اطرح
اطرد
اطرف
اطرق
اطعم
اطلب
اطلس
اطلع
اطلق
اطما
اطمح
اطهر
اطوا
اطول
اطيب
اطيل
اظلم
اظهر
اعاد
اعار
اعاش
اعاق
اعال
اعان
اعبر
اعتب
اعتد
اعتر
اعتز
اعتق
اعتل
اعتن
اعتى
اعثر
اعجب
اعدد
اعدل
اعدم
اعذر
اعرب
اعرج
اعرض
اعرف
اعزل
اعشق
اعشن
اعطا
اعطو
اعطي
اعظم
اعفي
اعقب
اعقد
اعقل
اعلم
اعلن
اعمد
اعمل
اعوج
اعوم
اعيا
اعيد
اعير
اعين
اغاث
اغار
اغان
اغبر
اغتر
اغتس
اغتن
اغدق
اغذي
اغرب
اغرق
اغسل
اغشي
اغضب
اغفا
اغفر
اغلب
اغلق
اغمض
اغمي
اغني
اغير
افئد
افاد
افاض
افاق
افتا
افتح
افتد
افتر
افتك
افحص
افخر
افخم
افرج
افرح
افرد
افرز
افرض
افرط
افرغ
افرق
افرو
افري
افسح
افسد
افصح
افصل
افضل
افطر
افعل
افقد
افقر
افقي
افكر
افكو
افلت
افلس
افني
افهم
افول
افيد
افيش
افيف
اقال
اقام
اقبض
اقبل
اقبي
اقتد
اقتص
اقتض
اقتف
اقتل
اقتن
اقحم
اقدر
اقدس
اقدم
اقرأ
اقرب
اقرر
اقسم
اقصد
اقصر
اقصى
اقصي
اقطع
اقعد
اقعى
اقفل
اقلب
اقلع
اقلق
اقلي
اقمش
اقنع
اقني
اقول
اقوم
اقوي
اقيل
اقيم
اكاد
اكار
اكبر
اكتب
اكتت
اكتر
اكتس
اكتظ
اكتف
اكتو
اكثر
اكذب
اكرا
اكرم
اكرو
اكسا
اكسب
اكسج
اكسد
اكسر
اكسل
اكسو
اكسي
اكشف
اكشن
اكلم
اكمل
اكوا
اكوس
اكول
اكيد
اكيل
الآن
الاف
التف
التق
التي
الحى
الذي
الصق
الغى
اللذ
الله
امار
امام
امان
امبر
امبو
امتد
امتص
امتط
امتع
امتل
امتن
امثل
امرأ
امرؤ
امرئ
امرك
امرو
امري
امزج
امسح
امسك
امسي
امضي
امطر
امغر
امكن
املأ
املا
املج
اممي
امنح
امنع
امني
امهر
امهل
امور
اموم
اموي
امير
اميز
اميل
اميم
امين
اناب
اناث
اناج
انار
اناس
اناط
اناق
انام
انان
انبا
انبر
انبع
انبل
انبن
انبى
انبي
انتج
انتح
انتخ
انتر
انتش
انتص
انتع
انتف
انتق
انتل
انتم
انته
انتو
انتي
انثر
انثن
انجب
انجح
انجد
انجر
انجز
انجع
انجل
انجو
انجي
انحب
انحط
انحل
انحن
انخل
اندا
اندر
اندس
اندم
اندو
اندي
انذر
انرو
انزر
انزع
انزل
انزو
انسا
انسب
انسج
انسد
انسر
انسل
انسى
انسي
انشأ
انشد
انشر
انشط
انشق
انصب
انصح
انصر
انصف
انضم
انضو
انطل
انطو
انظر
انظف
انظم
انعم
انغر
انغل
انفر
انفس
انفض
انفع
انفق
انفك
انفل
انفو
انفي
انقذ
انقر
انقش
انقص
انقض
انقل
انكا
انكب
انكح
انكر
انكف
انكل
انكو
انكي
انمح
انمل
انمي
انني
انهج
انهر
انهض
انهك
انهو
انهي
انوث
انور
انوس
انوف
انوك
انوه
انوي
انيس
انيق
انيل
اهاب
اهان
اهاى
اهتد
اهتر
اهتز
اهتم
اهدأ
اهدر
اهدن
اهدي
اهرب
اهلك
اهلى
اهلي
اهمس
اهمل
اهمي
اهنئ
اهون
اواب
اوار
اواس
اواك
اوال
اوان
اوبئ
اوبر
اوبك
اوبل
اوبن
اوبو
اوبي
اوتر
اوتش
اوتو
اوتي
اوجب
اوجد
اوجز
اوجل
اوجه
اوجي
اوحد
اودر
اودع
اودو
اودي
اورا
اورب
اورث
اورج
اورد
اورز
اورس
اورغ
اورف
اورك
اورل
اورن
اورو
اوري
اوزو
اوسط
اوسع
اوسم
اوسي
اوشك
اوشن
اوشي
اوصل
اوصي
اوضح
اوعي
اوغل
اوغن
اوغو
اوفد
اوفر
اوفق
اوفي
اوقع
اوقف
اوقي
اوكس
اوكل
اوكو
اوكي
اولا
اولد
اولس
اولف
اولم
اولو
اولى
اولي
اوما
اومن
اوند
اونس
اونص
اونغ
اوني
اوهم
اويس
اياب
اياد
ايار
اياك
ايام
ايبر
ايبس
ايبو
ايبي
ايتا
ايتس
ايتش
ايتم
ايتو
ايتي
ايثل
ايجب
ايجد
ايجي
ايدج
ايدز
ايدع
ايدك
ايدن
ايدو
ايدي
ايرث
ايرد
ايرز
ايرف
ايرك
ايرل
ايرو
ايزو
ايزي
ايست
ايسر
ايسل
ايسن
ايسي
ايشي
ايغل
ايغو
ايفا
ايفر
ايفل
ايفن
ايفو
ايفي
ايقظ
ايقن
ايكر
ايكس
ايكو
ايكي
ايلد
ايلز
ايلس
ايلغ
ايلن
ايلي
ايما
ايمن
ايمو
ايمي
اينس
اينغ
اينو
ايوب
اييف
بائت
بائد
بائس
بائع
بابا
بابل
باتر
باتع
باجه
باجو
باجي
باحث
باخر
بادئ
بادج
بادر
بادل
بادن
بادي
باذخ
باذل
بارئ
بارا
بارت
بارج
بارح
بارد
بارز
بارص
بارع
بارق
بارك
بارن
بارو
بارى
باري
بازغ
بازل
باسط
باسق
باسك
باسل
باسم
باسو
باشا
باشر
باشق
باشو
باطل
باطن
باعث
باعد
باغت
باغي
بافل
باقر
باقى
باقي
باكر
باكس
باكو
باكي
بالغ
بالم
بالي
بامي
بانغ
بانك
باني
باهت
باهر
باهض
باهظ
باهي
باور
باوز
باول
بايث
بايج
باير
بايس
بايع
بايك
بايو
بباج
ببور
بتاع
بترا
بترو
بتلر
بتلو
بتول
بثور
بحاث
بحاح
بحار
بحبح
بحثي
بحرى
بحري
بحلق
بحوث
بحور
بحوه
بحير
بخاخ
بخار
بخعا
بخنق
بخور
بخيت
بخيل
بداح
بدار
بدان
بداو
بداي
بدرو
بدرى
بدري
بدنى
بدني
بدهي
بدور
بدون
بدوى
بدوي
بدير
بديع
بديل
بدين
بديه
بديو
بذار
بذال
بذلو
بذور
بذيء
بذيئ
براء
براح
براد
براز
براس
براع
براغ
براف
براق
براك
برام
براي
بربخ
بربر
برجر
برجس
برجل
برجم
برجي
برحي
بردى
بردي
برزخ
برشا
برشم
برعص
برعم
برعى
برعي
برغث
برغر
برغش
برغل
برقع
برقي
برلس
برمج
برمي
برنت
برند
برنز
برنس
برنو
برني
برهم
برهن
بروج
برود
بروز
بروس
بروف
بروق
بروك
بروم
برون
برىء
بريء
بريئ
بريج
بريخ
بريد
برير
بريز
بريس
بريش
بريق
بريك
بريم
بزاز
بزري
بزنس
بزوغ
بزيع
بساط
بسال
بسام
بستر
بستن
بسسب
بسلم
بسمل
بسور
بسيس
بسيط
بسيم
بشار
بشاش
بشاع
بشاى
بشرى
بشري
بشوت
بشور
بشوش
بشير
بصاص
بصرى
بصري
بصير
بصيل
بضاع
بطاح
بطاط
بطاق
بطال
بطان
بطحي
بطرس
بطرك
بطني
بطوخ
بطوط
بطول
بطون
بطىء
بطيء
بطيئ
بطيح
بطيخ
بطين
بعاج
بعبع
بعثر
بعثي
بعوض
بعيد
بعير
بغاء
بغال
بغلي
بغيض
بقاء
بقائ
بقار
بقاع
بقال
بقرى
بقري
بقشي
بقصم
بقمي
بقول
بقيع
بقيق
بكاء
بكائ
بكار
بكري
بكفي
بكوش
بكير
بكين
بلاء
بلاج
بلاد
بلاز
بلاس
بلاش
بلاط
بلاع
بلاغ
بلاك
بلال
بلام
بلان
بلاه
بلاي
بلبع
بلبل
بلخي
بلدى
بلدي
بلسم
بلطج
بلطى
بلطي
بلعم
بلمر
بلنت
بلوخ
بلور
بلوز
بلوش
بلوط
بلوغ
بلوك
بلوم
بلوي
بليت
بليد
بلير
بليز
بليغ
بليك
بناء
بناؤ
بنائ
بناي
بنجر
بندر
بندق
بنكي
بنما
بنمي
بنود
بنور
بنوك
بنيس
بهاء
بهار
بهاق
بهجت
بهدل
بهرج
بهرز
بهمن
بهنس
بهيج
بهيم
بواب
بوار
بوبا
بوبو
بوبي
بوتا
بوتر
بوتس
بوتف
بوتق
بوتن
بوتو
بوتي
بوجي
بوحج
بوخن
بودر
بودل
بودن
بوده
بودو
بوذا
بوذي
بورا
بورت
بورج
بورد
بورز
بورش
بورص
بورغ
بورك
بورو
بوري
بوست
بوسط
بوسن
بوسي
بوشر
بوشي
بوصل
بوطي
بوظو
بوفي
بوكا
بوكر
بوكس
بوكو
بوكي
بولا
بولز
بولس
بولص
بولو
بولي
بومب
بونج
بوند
بونر
بونص
بونغ
بونو
بوني
بوهي
بوير
بويز
بويس
بويض
بويع
بويم
بوين
بيئى
بيئي
بيار
بياض
بياع
بيان
بيبر
بيبو
بيبى
بيبي
بيتر
بيتس
بيتش
بيتى
بيتي
بيجن
بيجو
بيجي
بيدر
بيرا
بيرت
بيرث
بيرج
بيرد
بيرز
بيرس
بيرغ
بيرق
بيرك
بيرل
بيرم
بيرن
بيرو
بيري
بيزا
بيزخ
بيسو
بيشي
بيطر
بيغن
بيكر
بيكو
بيلا
بيلد
بيلو
بيلي
بينغ
بيهق
بيوت
بيور
بيوس
بيوض
بيوع
بيوك
بيول
بييت
بيير
تآثر
تآخى
تآخي
تآزر
تآكل
تآلف
تآمر
تأبط
تأبه
تأتأ
تأتى
تأتي
تأثر
تأثي
تأجج
تأجل
تأخد
تأخذ
تأخر
تأدب
تأدي
تأزم
تأسر
تأسس
تأسف
تأسي
تأفف
تأكد
تأكل
تألف
تألق
تألم
تألو
تأمر
تأمل
تأمن
تأنس
تأنق
تأني
تأهب
تأهل
تأوي
تأيد
تأين
تؤثث
تؤثر
تؤجج
تؤجر
تؤجل
تؤخذ
تؤخر
تؤدي
تؤذن
تؤذي
تؤرخ
تؤرق
تؤسس
تؤشر
تؤطر
تؤكد
تؤكل
تؤلف
تؤلم
تؤمن
تؤنس
تؤهل
تؤوي
تؤيد
تئام
تائب
تائه
تائي
تابت
تابع
تابل
تابو
تاتا
تاتش
تاتو
تاتي
تاثر
تاجر
تاجو
تاجي
تاخد
تاخذ
تاخر
تادا
تادر
تادل
تادي
تارا
تارج
تارخ
تارك
تارو
تازي
تاسع
تاسك
تاسي
تاغو
تاغي
تافت
تافر
تافه
تاكا
تاكر
تاكس
تاكل
تاكو
تاكي
تالف
تالق
تالك
تالى
تالي
تامر
تانج
تاند
تانر
تانغ
تانك
تانو
تانى
تاني
تاهل
تاهو
تاور
تاون
تايب
تايد
تاير
تايس
تايك
تايل
تايم
تايه
تايو
تباب
تباد
تبار
تباع
تباك
تبال
تبان
تباه
تبتز
تبتل
تبتي
تبحث
تبحر
تبخر
تبخس
تبخل
تبدأ
تبدئ
تبدد
تبدع
تبدل
تبدو
تبدي
تبذر
تبذل
تبرأ
تبرئ
تبرج
تبرح
تبرد
تبرر
تبرز
تبرع
تبرق
تبرك
تبرم
تبرو
تبسط
تبسم
تبشر
تبصر
تبصي
تبضع
تبطئ
تبطل
تبعث
تبعد
تبعي
تبغي
تبقى
تبقي
تبكي
تبلد
تبلع
تبلغ
تبلل
تبلي
تبنا
تبنى
تبني
تبهج
تبهر
تبوأ
تبوؤ
تبوئ
تبوح
تبور
تبوك
تبول
تبوي
تبيت
تبيح
تبيد
تبيض
تبيع
تبين
تتأذ
تتأم
تتأن
تتار
تتال
تتبد
تتبع
تتبق
تتبل
تتبن
تتجل
تتجه
تتحد
تتحر
تتحف
تتحق
تتحل
تتحم
تتخذ
تتخط
تتخف
تتخل
تتخم
تتدع
تتدل
تتدن
تترا
تترب
تترج
تترد
تترس
تترك
تتري
تتزو
تتسع
تتسق
تتسل
تتسم
تتسن
تتشح
تتصد
تتصف
تتصل
تتضح
تتعب
تتعد
تتعظ
تتعف
تتعق
تتغذ
تتغن
تتفت
تتفش
تتفق
تتفو
تتقد
تتقر
تتقص
تتقل
تتقن
تتقو
تتقي
تتكل
تتلط
تتلف
تتلق
تتلو
تتلى
تتنب
تتنح
تتنز
تتهم
تتوب
تتوج
تتوخ
تتوف
تتوق
تتول
تتوه
تتيح
تثار
تثبت
تثري
تثقب
تثقف
تثقل
تثمر
تثمن
تثني
تثور
تثير
تجار
تجاز
تجاه
تجبر
تجبي
تجتث
تجتر
تجدد
تجدر
تجدي
تجذب
تجذر
تجذي
تجرأ
تجرؤ
تجرب
تجرح
تجرد
تجرع
تجرف
تجرم
تجرى
تجري
تجزأ
تجزئ
تجزع
تجسد
تجسس
تجسم
تجشم
تجعل
تجلب
تجلد
تجلس
تجلط
تجلي
تجمد
تجمع
تجمل
تجنب
تجند
تجنس
تجني
تجهد
تجهز
تجهض
تجهل
تجهم
تجوب
تجود
تجور
تجوز
تجوع
تجول
تجوي
تجيء
تجيب
تجيد
تجير
تجيز
تحاب
تحار
تحاش
تحاك
تحال
تحام
تحبب
تحبذ
تحبس
تحبط
تحبك
تحبو
تحتج
تحتل
تحتم
تحتي
تحجب
تحجر
تحجز
تحجم
تحجي
تحدث
تحدد
تحدر
تحدق
تحدو
تحدى
تحدي
تحذر
تحذو
تحرج
تحرر
تحرز
تحرس
تحرش
تحرص
تحرض
تحرف
تحرق
تحرك
تحرم
تحري
تحزب
تحزم
تحزن
تحسب
تحسد
تحسر
تحسس
تحسم
تحسن
تحشر
تحصد
تحصر
تحصل
تحصى
تحصي
تحضر
تحضن
تحطم
تحظر
تحفر
تحفز
تحفظ
تحفل
تحقق
تحكم
تحكى
تحكي
تحلق
تحلل
تحلم
تحلو
تحلي
تحمد
تحمس
تحمل
تحمي
تحنو
تحور
تحوط
تحول
تحوم
تحوي
تحيا
تحير
تحيز
تحيط
تحيق
تحيك
تحيل
تحيي
تخاض
تخاف
تخال
تخبئ
تخبر
تخبط
تختر
تختص
تختف
تختل
تختم
تخثر
تخجل
تخدر
تخدش
تخدع
تخدم
تخذل
تخرب
تخرج
تخرس
تخزن
تخسر
تخشا
تخشى
تخشي
تخصص
تخضر
تخضع
تخطئ
تخطا
تخطب
تخطر
تخطط
تخطف
تخطو
تخطى
تخطي
تخفض
تخفف
تخفق
تخفى
تخفي
تخلد
تخلص
تخلط
تخلع
تخلف
تخلق
تخلل
تخلو
تخلي
تخمد
تخمر
تخنق
تخني
تخوض
تخوف
تخول
تخوم
تخون
تخيب
تخير
تخيط
تخيف
تخيل
تخيم
تدار
تداس
تداع
تدان
تداو
تدبر
تدبي
تدثر
تدخر
تدخل
تدخن
تدرأ
تدرب
تدرج
تدرس
تدرك
تدرى
تدري
تدشن
تدشي
تدعم
تدعو
تدعى
تدعي
تدفئ
تدفع
تدفق
تدفن
تدفي
تدقق
تدلل
تدلي
تدمج
تدمر
تدمع
تدمي
تدنس
تدني
تدهس
تدهش
تدهن
تدور
تدوس
تدوم
تدون
تدوي
تدير
تدين
تذاع
تذبح
تذبل
تذرع
تذرف
تذرو
تذعن
تذكر
تذكي
تذلي
تذمر
تذهب
تذهل
تذوب
تذود
تذوق
تذوي
تذيب
تذيع
تذيل
ترأس
تراء
ترائ
تراب
تراث
تراخ
تراز
تراس
تراص
تراض
تراع
تراف
تراق
تراك
ترام
تران
تراي
تربح
تربص
تربط
تربع
تربك
تربو
تربى
تربي
ترتب
ترتج
ترتد
ترتر
ترتس
ترتع
ترتق
ترتل
ترتم
ترجئ
ترجح
ترجع
ترجل
ترجم
ترجو
ترجى
ترجي
ترحب
ترحل
ترحم
ترحي
ترخص
ترخي
تردد
تردع
تردف
تردي
ترزق
ترزى
ترزي
ترسب
ترست
ترسخ
ترسل
ترسم
ترسو
ترسي
ترشح
ترشد
ترشق
ترشي
ترصد
ترصع
ترصي
ترضع
ترضي
ترعا
ترعب
ترعى
ترغب
ترغم
ترفض
ترفع
ترفل
ترفي
ترقب
ترقد
ترقص
ترقو
ترقى
ترقي
تركب
تركز
تركض
تركع
تركو
تركى
تركي
ترما
ترمب
ترمز
ترمس
ترمق
ترمل
ترمم
ترمي
ترنح
ترند
ترنر
ترنم
ترنو
ترهب
ترهق
ترهل
تروا
تروب
تروج
تروح
تروس
تروض
تروع
تروق
تروم
ترون
تروى
تروي
تريب
تريث
تريج
تريح
تريد
ترير
تريز
تريس
تريش
تريف
تريق
تريك
تريل
تريم
ترين
تريو
تزاد
تزار
تزال
تزام
تزاو
تزجي
تزحف
تزخر
تزدر
تزرع
تزعج
تزعل
تزعم
تزفي
تزكم
تزكي
تزلج
تزلف
تزمت
تزوج
تزود
تزور
تزول
تزيح
تزيد
تزيف
تزيل
تزين
تسأل
تسار
تساق
تسال
تسام
تساو
تساي
تسبب
تسبح
تسبر
تسبغ
تسبق
تسبي
تستح
تستد
تستر
تستق
تستل
تستو
تسجد
تسجل
تسجن
تسحب
تسحر
تسحق
تسخر
تسخن
تسدد
تسرب
تسرح
تسرد
تسرع
تسرف
تسرق
تسري
تسطح
تسطر
تسطع
تسطو
تسعد
تسعف
تسعى
تسفر
تسفي
تسقط
تسقي
تسكب
تسكت
تسكر
تسكع
تسكن
تسلا
تسلب
تسلح
تسلخ
تسلط
تسلق
تسلك
تسلل
تسلم
تسلي
تسمح
تسمر
تسمع
تسمم
تسمن
تسمو
تسمى
تسمي
تسند
تسنم
تسني
تسهر
تسهل
تسهم
تسود
تسور
تسوس
تسوغ
تسوق
تسوك
تسول
تسوم
تسوي
تسيئ
تسيب
تسيج
تسيد
تسير
تسيس
تسيغ
تسيل
تسيم
تسيي
تشاء
تشاؤ
تشاب
تشاد
تشار
تشاس
تشاف
تشاك
تشال
تشام
تشان
تشاو
تشاي
تشبث
تشبع
تشبه
تشبي
تشتب
تشتت
تشتر
تشتق
تشتك
تشتم
تشجب
تشجع
تشحن
تشحي
تشخص
تشخي
تشدد
تشدو
تشرب
تشرح
تشرد
تشرع
تشرف
تشرك
تشري
تشطب
تشعب
تشعر
تشعل
تشعي
تشغل
تشفع
تشفي
تشقق
تشكر
تشكك
تشكل
تشكو
تشكي
تشمع
تشمل
تشمي
تشنج
تشنغ
تشهد
تشهر
تشوب
تشور
تشوش
تشوف
تشوق
تشوك
تشول
تشون
تشوه
تشوي
تشيب
تشيخ
تشيد
تشير
تشيز
تشيس
تشيش
تشيع
تشيف
تشيك
تشيل
تشيم
تشين
تشيو
تصاب
تصاغ
تصان
تصبح
تصبر
تصبغ
تصبو
تصحب
تصحح
تصحر
تصدأ
تصدح
تصدر
تصدع
تصدق
تصدم
تصدى
تصدي
تصرح
تصرخ
تصرف
تصطف
تصعب
تصعد
تصعق
تصعي
تصغر
تصغي
تصفح
تصفع
تصفق
تصفو
تصفي
تصقل
تصلب
تصلح
تصلي
تصمت
تصمد
تصمم
تصنت
تصنع
تصنف
تصهر
تصوب
تصوت
تصور
تصوغ
تصوف
تصوم
تصون
تصيب
تصيح
تصيد
تصير
تضاء
تضاد
تضار
تضاع
تضاف
تضاه
تضبط
تضحك
تضحي
تضخم
تضرب
تضرر
تضطر
تضعف
تضغط
تضفي
تضلل
تضمر
تضمن
تضيئ
تضيع
تضيف
تضيق
تضيي
تطاق
تطال
تطاو
تطبخ
تطبع
تطبق
تطحن
تطرأ
تطرب
تطرح
تطرد
تطرف
تطرق
تطري
تطعم
تطعن
تطفئ
تطفح
تطفل
تطفو
تطفي
تطلب
تطلع
تطلق
تطمح
تطمع
تطهر
تطهو
تطهى
تطور
تطوع
تطوف
تطوق
تطول
تطوي
تطيب
تطيح
تطير
تطيع
تطيق
تطيل
تطيي
تظفر
تظلم
تظهر
تظيم
تعاد
تعاس
تعاش
تعاط
تعاف
تعال
تعام
تعان
تعبئ
تعبث
تعبد
تعبر
تعتب
تعتد
تعتز
تعتق
تعتل
تعتم
تعتن
تعثر
تعجب
تعجز
تعجل
تعجن
تعدد
تعدل
تعدم
تعدى
تعدي
تعذب
تعذر
تعرب
تعرج
تعرض
تعرف
تعرق
تعرى
تعري
تعزز
تعزف
تعزل
تعزو
تعزي
تعسر
تعسف
تعشق
تعشي
تعصب
تعصر
تعصف
تعصي
تعضد
تعضي
تعطل
تعطى
تعطي
تعظم
تعفف
تعفن
تعفو
تعفي
تعقب
تعقد
تعقل
تعكر
تعكس
تعلب
تعلق
تعلم
تعلن
تعلو
تعلي
تعمد
تعمر
تعمق
تعمل
تعمم
تعمي
تعنت
تعني
تعهد
تعود
تعوذ
تعوز
تعوض
تعوق
تعول
تعوم
تعيب
تعيث
تعيد
تعير
تعيس
تعيش
تعيق
تعيل
تعين
تغار
تغاض
تغتر
تغدق
تغدو
تغذي
تغرب
تغرد
تغرس
تغرق
تغري
تغزو
تغسل
تغضب
تغطي
تغفر
تغفل
تغفو
تغلب
تغلف
تغلق
تغلي
تغمد
تغمر
تغمز
تغمس
تغمض
تغنى
تغني
تغوص
تغوط
تغول
تغوي
تغيب
تغير
تغيظ
تغيي
تفاح
تفاد
تفاف
تفاق
تفان
تفاه
تفاو
تفتت
تفتح
تفتر
تفتش
تفتق
تفتك
تفتن
تفتي
تفجر
تفجع
تفحص
تفخر
تفرج
تفرح
تفرخ
تفرد
تفرز
تفرس
تفرض
تفرط
تفرع
تفرغ
تفرق
تفرك
تفزع
تفسخ
تفسد
تفسر
تفشل
تفشي
تفصح
تفصل
تفضح
تفضل
تفضي
تفطر
تفطن
تفعل
تفقد
تفقس
تفقي
تفكر
تفكك
تفلت
تفلس
تفند
تفنن
تفني
تفهم
تفوت
تفوح
تفور
تفوز
تفوض
تفوق
تفوه
تفوي
تفيد
تفيض
تفيق
تقاد
تقاس
تقاص
تقاض
تقال
تقام
تقان
تقاو
تقبر
تقبض
تقبع
تقبل
تقتص
تقتض
تقتف
تقتل
تقحم
تقدح
تقدر
تقدس
تقدم
تقذف
تقرأ
تقرؤ
تقرب
تقرح
تقرر
تقرض
تقرع
تقرن
تقزز
تقزم
تقسم
تقشر
تقشع
تقشف
تقصد
تقصر
تقصف
تقصى
تقصي
تقضي
تقطر
تقطع
تقطف
تقطن
تقطي
تقعد
تقفز
تقفل
تقلب
تقلد
تقلص
تقلع
تقلق
تقلل
تقمص
تقمع
تقنع
تقنن
تقنى
تقني
تقهر
تقود
تقوس
تقول
تقوم
تقوى
تقوي
تقيح
تقيد
تقيس
تقيل
تقيم
تكاب
تكاد
تكال
تكاي
تكبح
تكبد
تكبر
تكبل
تكبي
تكتب
تكتس
تكتف
تكتك
تكتل
تكتم
تكتي
تكثر
تكثف
تكدر
تكدس
تكدي
تكذب
تكرر
تكرس
تكرم
تكره
تكري
تكسب
تكسر
تكسو
تكسي
تكشر
تكشف
تكفر
تكفل
تكفى
تكفي
تكلس
تكلف
تكلل
تكلم
تكلي
تكمل
تكهن
تكور
تكوم
تكون
تكوي
تكيس
تكيف
تكيل
تلاش
تلاف
تلاق
تلال
تلام
تلاو
تلبث
تلبس
تلبي
تلتف
تلتق
تلجأ
تلجم
تلحظ
تلحق
تلحي
تلدغ
تلذذ
تلزم
تلزي
تلسع
تلصص
تلصق
تلطخ
تلطف
تلطم
تلطي
تلعب
تلعن
تلغي
تلفح
تلفز
تلفظ
تلفي
تلقا
تلقب
تلقف
تلقن
تلقو
تلقى
تلقي
تلكأ
تلكؤ
تلمح
تلمذ
تلمس
تلمع
تلهث
تلهج
تلهو
تلهي
تلوث
تلوح
تلوذ
تلوك
تلوم
تلون
تلوي
تليد
تليس
تليف
تليق
تليل
تليم
تماد
تمار
تماس
تمام
تمبر
تمبل
تمتد
تمتص
تمتع
تمتل
تمتم
تمثل
تمجد
تمحو
تمحى
تمحي
تمخض
تمدح
تمدد
تمدن
تمرح
تمرد
تمرر
تمرز
تمرس
تمرض
تمرغ
تمرن
تمزج
تمزق
تمسح
تمسك
تمشط
تمشي
تمضغ
تمضي
تمطر
تمعن
تمقت
تمكث
تمكن
تملأ
تملؤ
تملح
تملق
تملك
تملى
تملي
تمنح
تمنع
تمنو
تمنى
تمني
تمهد
تمهل
تموت
تموج
تمور
تموز
تمول
تمير
تميز
تميل
تميم
تناخ
تناد
تناس
تناص
تناط
تناف
تناك
تنال
تنام
تناه
تنبأ
تنبؤ
تنبئ
تنبت
تنبذ
تنبش
تنبض
تنبع
تنبغ
تنبن
تنبه
تنبي
تنتا
تنتج
تنتح
تنتش
تنتف
تنتق
تنتم
تنته
تنتو
تنثر
تنجب
تنجح
تنجر
تنجز
تنجم
تنجو
تنجي
تنحر
تنحس
تنحو
تنحى
تنحي
تنخر
تندب
تندح
تندد
تندر
تندم
تنذر
تنزع
تنزف
تنزل
تنزه
تنزي
تنسا
تنسب
تنسج
تنسف
تنسق
تنسك
تنسى
تنسي
تنشأ
تنشئ
تنشد
تنشر
تنشط
تنشق
تنصب
تنصت
تنصح
تنصر
تنصف
تنصل
تنضب
تنضج
تنضح
تنضم
تنطح
تنطع
تنطق
تنطل
تنطو
تنظر
تنظم
تنعت
تنعد
تنعش
تنعم
تنعي
تنفث
تنفخ
تنفد
تنفذ
تنفر
تنفس
تنفص
تنفض
تنفع
تنفق
تنفك
تنفى
تنفي
تنقب
تنقد
تنقذ
تنقر
تنقس
تنقش
تنقص
تنقض
تنقع
تنقل
تنقي
تنكب
تنكح
تنكر
تنكس
تنكي
تنمر
تنمو
تنمي
تنهب
تنهج
تنهد
تنهر
تنهش
تنهض
تنهك
تنهل
تنهي
تنوب
تنوح
تنور
تنوع
تنوم
تنوي
تنيب
تنير
تنيس
تنين
تهاب
تهاد
تهام
تهان
تهاو
تهبط
تهتد
تهتز
تهتف
تهتك
تهتم
تهجد
تهجر
تهجم
تهدأ
تهدئ
تهدد
تهدر
تهدف
تهدم
تهدى
تهدي
تهذب
تهرب
تهرم
تهزم
تهشم
تهشي
تهضم
تهكم
تهلك
تهمش
تهمل
تهنأ
تهنئ
تهوئ
تهود
تهور
تهون
تهوي
تهيأ
تهيئ
تهيب
تهيج
تهيم
تهين
توءم
توأم
تواب
تواج
تواد
توار
تواز
تواش
تواص
تواف
تواق
توال
توام
توبخ
توتر
توتش
توتو
توتي
توثق
توجد
توجس
توجع
توجه
توجو
توحد
توحش
توحي
توخل
توخي
تودد
تودع
تودي
تورا
تورب
تورت
تورث
تورج
تورد
تورز
تورس
تورش
تورط
تورغ
تورق
تورك
تورم
تورن
تورو
توري
توزر
توزع
توزل
توزن
توزي
توست
توسد
توسط
توسع
توسك
توسل
توسم
توسو
توسي
توشح
توشك
توشي
توصد
توصف
توصل
توصي
توضح
توضع
توضي
توطن
توظف
توعد
توعي
توغل
توغو
توفا
توفر
توفق
توفل
توفو
توفي
توقد
توقظ
توقع
توقف
توقي
توكر
توكس
توكل
تولا
تولد
تولع
تولو
تولى
تولي
توما
تومب
تومر
تومض
تومى
تومي
تونج
تونر
تونز
تونس
تونغ
تونك
توني
توهج
توهم
تويت
تويج
تويد
تويز
تويل
تويم
توين
تويو
تيأس
تيئي
تيار
تيام
تيان
تيبت
تيبر
تيبس
تيبك
تيبو
تيبي
تيتا
تيتر
تيتش
تيتم
تيتو
تيتي
تيجر
تيجي
تيخو
تيدي
تيرا
تيرز
تيرس
تيرك
تيرم
تيرن
تيرو
تيرى
تيري
تيزي
تيسر
تيسل
تيسي
تيغر
تيفو
تيفي
تيقظ
تيقن
تيكس
تيكن
تيكو
تيلد
تيلر
تيلو
تيلي
تيمز
تيمم
تيمو
تينا
تينة
تينج
تينس
تينغ
تينك
تينو
تيني
تيوب
تيوس
تيير
ثأري
ثائر
ثابت
ثابر
ثابو
ثادق
ثاقب
ثالث
ثامر
ثامن
ثانى
ثاني
ثاير
ثبات
ثبوت
ثبور
ثبيت
ثديي
ثراء
ثرائ
ثرثر
ثروت
ثريا
ثريد
ثعلب
ثغور
ثفاف
ثقاب
ثقاف
ثقفي
ثقوب
ثقيف
ثقيل
ثلاب
ثلاث
ثلاج
ثلجي
ثلوث
ثلوج
ثليم
ثمار
ثمام
ثمان
ثمود
ثمين
ثناء
ثنائ
ثواب
ثوار
ثوان
ثورى
ثوري
ثوير
ثياب
ثيام
ثيرم
ثيرو
جئتم
جائح
جائر
جائز
جائع
جائل
جابر
جابو
جابي
جاتو
جاثم
جاثي
جاجا
جاجو
جاحد
جاحظ
جادر
جادل
جادو
جاذب
جارح
جارد
جارف
جارم
جارى
جاري
جازف
جازم
جازي
جاسر
جاسم
جاعل
جاغر
جافز
جافي
جالا
جالب
جالس
جالو
جالي
جامب
جامح
جامد
جامع
جامو
جانب
جانج
جانح
جانس
جانغ
جانى
جاني
جاهد
جاهر
جاهز
جاهل
جاوا
جاوب
جاور
جاوز
جاوك
جاوي
جايب
جايد
جايز
جايك
جايل
جاين
جايي
جباب
جبار
جباس
جباع
جبال
جبان
جباه
جباي
جبتي
جبري
جبلى
جبلي
جبور
جبير
جبيل
جبين
جثام
جثتي
جحاف
جحدل
جحني
جحود
جحور
جحوظ
جحيش
جحيل
جحيم
جدار
جدال
جدرا
جدري
جدعن
جدعي
جدلي
جدوا
جدود
جدوع
جدول
جدوى
جديد
جدير
جديع
جذاب
جذام
جذرى
جذري
جذعي
جذور
جراء
جرائ
جراب
جراج
جراح
جراد
جرار
جراس
جراغ
جراف
جراك
جرام
جران
جراي
جربا
جربي
جرجا
جرجر
جرجس
جرجي
جرحى
جردل
جردي
جركس
جركن
جرمق
جرمن
جرمي
جروب
جروج
جروح
جرود
جروس
جروف
جرىء
جريء
جريئ
جريب
جريج
جريح
جريد
جرير
جريس
جريش
جريف
جريم
جزئى
جزئي
جزاء
جزائ
جزار
جزاز
جزاع
جزاف
جزال
جزوي
جزيء
جزيئ
جزير
جزيل
جزين
جسار
جساس
جستن
جسدى
جسدي
جسمى
جسمي
جسور
جسيك
جسيم
جعار
جعال
جعبر
جعجع
جعفر
جعيد
جعيم
جغام
جفاء
جفاف
جفال
جفري
جفون
جفير
جلاء
جلائ
جلاب
جلاد
جلاز
جلاس
جلاص
جلاف
جلال
جلبي
جلجل
جلدى
جلدي
جلوب
جلود
جلوز
جلوس
جلول
جلون
جلوى
جلوي
جليب
جليد
جليز
جليس
جليع
جليل
جليم
جماح
جماد
جمار
جماز
جماع
جمال
جمام
جمان
جمجم
جمرك
جمري
جمعي
جملي
جمهر
جمود
جمور
جموس
جموع
جمول
جموم
جميح
جمير
جميز
جميس
جميع
جميل
جناب
جناح
جناد
جناز
جناس
جناع
جناق
جنان
جناي
جنبي
جنتا
جنتل
جنتي
جندب
جندر
جندل
جندى
جندي
جنسى
جنسي
جنوا
جنوب
جنود
جنوط
جنوم
جنون
جنوه
جنيح
جنيد
جنيز
جنيس
جنيف
جنين
جنيه
جهاد
جهار
جهاز
جهام
جهتي
جهجا
جهنم
جهني
جهود
جهور
جهوز
جهوي
جهيد
جهير
جهيم
جواء
جواب
جواد
جوار
جواز
جواف
جوال
جوام
جوان
جواو
جوبا
جوبر
جوبز
جوبس
جوبه
جوبي
جوتز
جوتن
جوجر
جوجل
جوجو
جوجي
جودت
جودر
جودو
جودى
جودي
جورب
جورج
جورف
جوري
جوزف
جوزو
جوزي
جوسب
جوسق
جوسي
جوشك
جوشو
جوعى
جوفي
جوكر
جوكو
جوكي
جولد
جولف
جولى
جولي
جومو
جونث
جونج
جونز
جونس
جونغ
جوني
جوهر
جويد
جوير
جويس
جويل
جياب
جياد
جيار
جياش
جياع
جيام
جيان
جياو
جيبس
جيبك
جيتس
جيتو
جيجا
جيجر
جيجز
جيجل
جيجو
جيجي
جيرد
جيرم
جيرو
جيرى
جيري
جيزى
جيسي
جيغا
جيفر
جيكا
جيكو
جيلو
جيلي
جيمز
جيمس
جيمع
جيمي
جينج
جينز
جينس
جينغ
جينو
جينى
جيني
جيوب
جيور
جيوس
جيوش
جيوف
جيوم
حؤول
حائر
حائز
حائط
حائل
حابس
حاتم
حاجب
حاجز
حاجي
حاحا
حادث
حادى
حادي
حارب
حارث
حارس
حارق
حارم
حازم
حاسب
حاسد
حاسر
حاسس
حاسم
حاسن
حاسي
حاشا
حاشد
حاشي
حاصب
حاصد
حاصر
حاصل
حاضر
حاضن
حاطو
حافر
حافز
حافظ
حافل
حافي
حاقد
حاكم
حالف
حالم
حالى
حالي
حامد
حامض
حامل
حامي
حانق
حاني
حاور
حاول
حاوى
حاوي
حاير
حايك
حايل
حايي
حباب
حبار
حباش
حباك
حبال
حبحب
حبري
حبسي
حبشي
حبلي
حبوب
حبور
حبوس
حبوش
حبيب
حبيس
حبيش
حبيق
حبيل
حتات
حتحو
حتمى
حتمي
حتير
حثيث
حجاب
حجاج
حجار
حجاز
حجام
حجرف
حجري
حجوز
حجيج
حجير
حداث
حداد
حداق
حدرج
حدوت
حدوث
حدود
حديب
حديث
حديد
حديق
حذاء
حذائ
حذار
حذلق
حذيف
حراء
حراب
حراث
حراج
حرار
حراز
حراس
حراش
حراص
حراق
حراك
حرام
حربش
حربى
حربي
حرتق
حرجي
حرفى
حرفي
حركي
حروب
حروش
حروف
حروق
حرير
حريز
حريص
حريض
حريف
حريق
حريك
حريم
حزاب
حزاز
حزام
حزان
حزبى
حزبي
حزور
حزيم
حزين
حساء
حساب
حساد
حساس
حساف
حسام
حسان
حسنى
حسني
حسود
حسوم
حسون
حسيب
حسيم
حسين
حشاد
حشاش
حشان
حشاي
حشرج
حشري
حشمت
حشود
حشيش
حشيم
حصاد
حصار
حصاف
حصان
حصتي
حصرى
حصري
حصني
حصول
حصون
حصيب
حصير
حصيف
حصيل
حصين
حضار
حضان
حضرى
حضري
حضور
حضير
حضيض
حضيف
حطاب
حطام
حطيئ
حطيط
حطيم
حطين
حظور
حظوظ
حظير
حفائ
حفار
حفاز
حفاض
حفاظ
حفاو
حفتر
حفري
حفصي
حفظى
حفنى
حفيد
حفير
حفيظ
حفيف
حقار
حقود
حقوق
حقول
حقوي
حقيب
حقير
حقيق
حقيل
حكاك
حكام
حكاي
حكوم
حكير
حكيم
حلاب
حلاج
حلاق
حلال
حلاو
حلبج
حلبي
حلحل
حلقي
حلمى
حلمي
حلوب
حلول
حلوم
حلوى
حلوي
حليب
حليج
حليح
حليس
حليش
حليف
حليق
حليل
حليم
حليو
حماد
حمار
حماس
حماص
حماط
حماق
حمال
حمام
حماه
حماي
حمدى
حمدي
حمرا
حمري
حمشو
حمصي
حمضي
حمود
حمور
حموش
حموض
حمول
حموي
حميد
حمير
حميش
حميض
حميم
حناء
حنان
حناو
حنبل
حنجر
حنظل
حنفى
حنفي
حنون
حنيش
حنيف
حنين
حواء
حوائ
حواج
حوار
حواس
حواش
حواص
حواض
حواف
حوال
حوام
حوثي
حورب
حورس
حوري
حوسب
حوصر
حوصل
حوطي
حوقل
حوكم
حولي
حويت
حويج
حوير
حويز
حويس
حويش
حويط
حويك
حويل
حياء
حيائ
حياد
حياز
حياض
حياك
حيال
حيتس
حيدر
حيري
حيفا
حيمد
حيمر
حيود
حيوى
حيوي
خائب
خائر
خائف
خائن
خابر
خابي
خاتش
خاتم
خادش
خادع
خادم
خارب
خارج
خارط
خارق
خازم
خازن
خاسر
خاضع
خاضو
خاطئ
خاطب
خاطر
خاطف
خاطي
خافت
خافر
خافض
خافق
خافي
خالد
خالص
خالط
خالف
خالق
خالى
خالي
خامد
خامس
خامل
خانق
خانك
خاوي
خايب
خايف
خاين
خباء
خباب
خباز
خباي
خبيئ
خبيب
خبيث
خبير
خبيز
خبيص
ختال
ختام
ختان
خترش
خثار
خجول
خداج
خداد
خداش
خداع
خدام
خدري
خدعو
خدمي
خدود
خدور
خدوم
خديج
خديد
خديع
خديم
خديو
خراب
خراج
خرار
خراز
خراش
خراط
خراف
خراي
خربة
خربش
خربط
خردل
خردو
خروب
خروج
خروع
خروف
خريب
خريج
خريد
خرير
خريز
خريس
خريش
خريص
خريط
خريف
خريم
خزار
خزاع
خزاف
خزام
خزان
خزرج
خزري
خزعل
خزيم
خزين
خسار
خسرو
خسوف
خسيس
خشاب
خشاش
خشان
خشبي
خشرم
خشوع
خشوم
خشون
خشيب
خشيش
خشيم
خصاص
خصال
خصام
خصخص
خصوب
خصوص
خصوم
خصيب
خصيص
خصيف
خضاب
خضار
خضرو
خضري
خضور
خضوع
خضير
خطاب
خطار
خطاط
خطاف
خطوب
خطور
خطوط
خطيئ
خطيب
خطير
خفاء
خفاج
خفار
خفاش
خفاف
خفجي
خفوت
خفوق
خفير
خفيض
خفيف
خلاء
خلائ
خلاب
خلاد
خلاص
خلاط
خلاع
خلاف
خلاق
خلال
خلبي
خلسة
خلفى
خلفي
خلقي
خلود
خلوص
خلوف
خلوق
خلوي
خليج
خليح
خليد
خليص
خليط
خليع
خليف
خليق
خليك
خليل
خمار
خماس
خماش
خمسي
خمود
خمور
خمول
خمير
خميس
خميل
خناد
خناف
خناق
خنبش
خنجر
خندق
خنسا
خنشل
خنفر
خنوع
خنيس
خنين
خوئي
خواج
خوار
خواص
خواف
خواك
خوال
خوام
خوان
خورخ
خورى
خوري
خوزي
خوست
خوسي
خولى
خولي
خونة
خوند
خوير
خيار
خياط
خيال
خيام
خيان
خيبر
خيرت
خيرى
خيري
خيسو
خيضر
خيطي
خيوس
خيوط
خيول
دؤوب
دائر
دائم
دائن
دائي
دابر
دابق
دابل
دابو
دابي
داتا
داتش
داتو
داجن
داخل
دادا
دارج
دارس
دارك
داري
داسو
داشل
داعب
داعر
داعش
داعم
داعي
داغر
دافئ
دافع
دافق
داكا
داكر
داكس
داكن
دالو
دالى
دالي
داما
دامج
دامر
دامس
دامع
دامغ
دامى
دامي
دانا
دانس
دانش
دانك
دانو
داني
داها
داهش
داهل
داهم
داهي
داود
داوم
داون
داوي
دايخ
داير
دايز
دايس
دايف
دايك
دايل
دايم
داين
دايو
دباب
دباس
دباغ
دبقي
دبلج
دبلن
دبور
دبوس
دبيس
دجاج
دجال
دجان
دجور
دجير
دجيل
دحام
دحبو
دحدو
دحرج
دحيل
دحيم
دخان
دخول
دخيل
دخين
دراج
درار
دراز
دراس
دراع
دراغ
دراف
دراق
دراك
درام
دراو
دراي
دربي
دردش
درزن
درزي
درعي
درفل
درقي
درنك
درهم
دروب
درور
دروز
دروس
دروش
دروع
دريب
دريد
دريس
دريش
دريع
دريف
دريق
دريك
دريم
دزير
دزين
دسام
دستر
دسوق
دسيس
دشيش
دعاء
دعائ
دعاب
دعار
دعاس
دعام
دعاي
دعبس
دعبل
دعني
دعوا
دعوى
دعوي
دعيج
دعيس
دعيع
دغان
دغدغ
دغفق
دغمش
دغيج
دغيش
دغيم
دفاع
دفاي
دفتر
دفين
دقاش
دقاق
دقدق
دقيق
دقيل
دكار
دكاك
دكان
دكتو
دلاف
دلاك
دلال
دلاي
دلتا
دلما
دلنج
دلهي
دلوع
دلول
دليل
دليم
دماء
دماؤ
دمائ
دمار
دماط
دماغ
دمام
دمتم
دمخي
دمدم
دمشق
دمعي
دموع
دموى
دموي
دمير
دميم
دناء
دنات
دندر
دندش
دندن
دندي
دنفر
دنقل
دنيء
دنيئ
دنيا
دنيز
دنيس
دنيو
دهاء
دهائ
دهار
دهاق
دهام
دهان
دهري
دهمش
دهنى
دهني
دهور
دهوك
دهون
دهيس
دهيش
دهيم
دواء
دوائ
دواب
دواد
دوار
دواس
دواع
دوال
دوام
دواي
دوبر
دوبس
دوبل
دوتر
دوتش
دوجو
دوخل
دوخي
دودج
دودو
دودي
دورى
دوري
دوسر
دوسي
دوشك
دوغو
دوفر
دوقي
دوكس
دوكو
دولى
دولي
دوما
دونج
دونغ
دونم
دويخ
دوير
دويس
دويش
دويق
دويك
دويل
دياب
ديار
دياز
دياس
دياك
ديال
ديام
ديان
دياو
ديبل
ديبو
ديبي
ديتر
ديجو
ديجي
ديدا
ديدن
ديدي
ديرب
ديرك
ديرم
ديري
ديزل
ديزي
ديسب
ديسك
ديشي
ديغو
ديفا
ديفد
ديفر
ديفز
ديفل
ديفن
ديفو
ديفي
ديقا
ديكر
ديكس
ديكو
ديلر
ديلز
ديلف
ديلم
ديلو
ديلي
ديما
ديمر
ديمو
ديمي
دينا
دينج
دينغ
دينق
دينى
ديني
ديوب
ديور
ديوك
ديون
ديوي
ذئاب
ذائب
ذائع
ذائق
ذابح
ذابل
ذاتى
ذاتي
ذاكر
ذالك
ذاهب
ذاهل
ذباب
ذباح
ذبذب
ذبول
ذبيح
ذخير
ذراع
ذريع
ذعار
ذقون
ذكاء
ذكائ
ذكرى
ذكري
ذكور
ذكير
ذلول
ذمار
ذنبي
ذنوب
ذهاب
ذهان
ذهبى
ذهبي
ذهني
ذهول
ذهيب
ذوات
ذواق
ذويب
ذياب
ذيول
ذييب
رءوس
رءوف
رأسى
رأسي
رأفت
رأيى
رؤوس
رؤوف
رؤيا
رئاس
رئتي
رئسي
رئوى
رئوي
رئىس
رئيس
رئيف
رائج
رائح
رائد
رائع
رائق
رائي
رابح
رابض
رابط
رابع
رابغ
رابو
رابي
راتب
راتز
راتو
راثى
راجا
راجح
راجع
راجل
راجم
راجو
راجي
راحل
راحم
رادس
رادع
رادو
رادي
رازح
رازق
رازم
رازي
راسب
راسخ
راسل
راسم
راسو
راسي
راشد
راشي
راصد
راضى
راضي
راعى
راعي
راغب
راغد
رافا
رافت
رافد
رافر
رافش
رافض
رافع
رافق
رافل
رافي
راقب
راقد
راقص
راقع
راقي
راكب
راكد
راكض
راكع
راكم
رالف
رالي
رامز
رامس
رامو
رامى
رامي
رانا
رانج
راند
راني
راهب
راهن
راهو
راهي
راوح
راود
راول
راوي
رايب
رايت
رايح
رايخ
رايد
رايز
رايس
رايش
رايق
رايم
راين
رايو
رباب
رباح
رباط
رباع
ربان
ربحي
ربدي
ربعي
ربما
ربوع
ربوي
ربيب
ربيح
ربيز
ربيش
ربيع
رتاب
رتاج
رتوش
رتيب
رثاء
رثائ
رجاء
رجائ
رجاح
رجال
رجبي
رجعى
رجعي
رجوب
رجوع
رجول
رجوي
رجيب
رجيش
رجيع
رجيل
رجيم
رحاب
رحال
رحبي
رحمن
رحوم
رحوي
رحيب
رحيق
رحيل
رحيم
رخاء
رخائ
رخام
رخاو
رخيص
رخيم
رداء
ردائ
رداد
رداع
ردمي
ردود
ردىء
رديء
رديس
رديف
رذاذ
رذيل
رزاز
رزاق
رزام
رزان
رزاي
رزوق
رزيز
رزيق
رزين
رسال
رسام
رستم
رستن
رسكل
رسمل
رسمى
رسمي
رسوب
رسوخ
رسول
رسوم
رشاح
رشاد
رشاش
رشاف
رشاق
رشدى
رشدي
رشقو
رشود
رشيد
رشيق
رصاص
رصاف
رصان
رصيد
رصيف
رصين
رضائ
رضاع
رضوخ
رضوض
رضوي
رضيع
رطان
رطوب
رعائ
رعاش
رعاع
رعاف
رعاي
رعدي
رعود
رعون
رعيد
رغام
رغاو
رغاي
رغيب
رغيد
رغيف
رفاء
رفات
رفاد
رفاع
رفاق
رفاه
رفوف
رفول
رفيد
رفيع
رفيف
رفيق
رقاب
رقاد
رقاص
رقاع
رقاق
رقعي
رقمى
رقمي
رقوق
رقيب
رقيع
رقيق
رقيم
ركاء
ركائ
ركاب
ركاد
ركاز
ركاض
ركاك
ركام
ركبي
ركعت
ركني
ركوب
ركود
ركوع
ركون
ركيب
ركيز
ركيك
ركين
رماح
رماد
رمال
رمان
رماي
رمتا
رمثا
رمحي
رمزى
رمزي
رملي
رموز
رمول
رميا
رميث
رميح
رميد
رميش
رميض
رميل
رنان
رندي
رنيم
رنين
رهاب
رهاف
رهام
رهان
رهبن
رهون
رهيب
رهيف
رهين
روؤس
رواء
روائ
رواب
رواج
رواح
رواد
رواس
رواش
رواف
رواق
رواك
روان
رواي
روبر
روبس
روبل
روبن
روبو
روبى
روبي
روتا
روتر
روتش
روتم
روتن
روتو
روتي
روجر
روجي
روحى
روحي
روخا
رودز
رودس
رودي
رورا
رورك
رورو
روري
روزن
روسو
روسى
روسي
روشت
روشن
روشو
روضة
روفر
روقي
روكس
روكو
روكي
رولز
رولف
روما
رومر
رومل
رومو
رومى
رومي
روند
رونق
رونو
رونى
روني
روهر
روهي
روود
رويب
رويث
رويح
رويد
رويز
رويس
رويض
رويل
رياء
رياح
رياد
رياس
رياش
رياض
ريال
ريان
ريبر
ريبو
ريبي
ريتا
ريتر
ريتز
ريتش
ريتم
ريتن
ريتو
ريجن
ريجي
ريدة
ريدج
ريدر
ريدز
ريدل
ريدي
ريزو
ريزي
ريسي
ريشا
ريشي
ريعو
ريعي
ريغا
ريغن
ريغو
ريغي
ريفر
ريفى
ريفي
ريكا
ريكر
ريكس
ريكو
ريكي
ريلك
ريما
ريمس
ريمو
ريمي
رينا
رينج
ريند
رينر
رينز
رينس
رينغ
رينو
ريني
ريوس
ريير
رييس
زئبق
زئير
زئيف
زائد
زائر
زائغ
زائف
زائل
زابل
زابن
زاجر
زاجل
زاحف
زاحم
زاخر
زاخو
زارب
زارت
زارع
زارو
زارى
زازا
زازو
زاعق
زاكر
زاكي
زامر
زامل
زانج
زانغ
زانو
زاني
زاهد
زاهر
زاهي
زاور
زاوش
زاول
زاوي
زايد
زاير
زايك
زايل
زباد
زبار
زبال
زبان
زبدة
زبون
زبيب
زبيد
زبير
زبيل
زجاج
زجال
زجري
زحار
زحاف
زحام
زحزح
زحلي
زخار
زخرف
زرار
زراع
زراف
زربي
زرقا
زرقط
زركش
زروع
زروق
زريب
زريع
زريق
زعاف
زعاق
زعام
زعبل
زعبي
زعتر
زعرب
زعزع
زعنف
زعير
زعيق
زعيم
زغاو
زغبى
زغبي
زغرب
زغرد
زغلل
زغيب
زغير
زفاف
زفتى
زفلت
زفول
زفير
زقاق
زقزق
زكار
زكام
زكان
زكري
زكور
زكوي
زلاج
زلاق
زلال
زلاي
زلزل
زلفى
زلفي
زلوم
زليخ
زمار
زمال
زمام
زمان
زمبي
زمرد
زمري
زمزم
زمني
زمور
زمول
زميل
زميم
زناد
زنار
زناز
زنبق
زنجي
زندق
زنغن
زنكن
زنكي
زنوج
زنود
زنيت
زهاد
زهار
زهاو
زهدي
زهري
زهور
زهيد
زهير
زوائ
زواج
زواد
زوار
زواغ
زوال
زواو
زواي
زوبع
زوجى
زوجي
زودو
زورق
زورو
زوري
زوزو
زوسر
زوطر
زوكا
زوكر
زولا
زولو
زوما
زونز
زونغ
زوها
زووم
زويد
زوير
زويل
زيات
زياد
زيار
زيان
زيبق
زيتي
زيدى
زيدي
زيرو
زيزو
زيزي
زيغل
زيكا
زيكو
زيلد
زيلع
زينب
زينل
زينو
زينى
زيني
زيوت
زيود
زيوس
سآتي
سآخذ
سألو
سؤال
سؤدد
سائب
سائح
سائد
سائر
سائس
سائق
سائل
سابا
سابج
سابح
سابر
سابع
سابق
سابك
سابو
ساتر
ساتو
ساجد
ساجر
ساجي
ساحر
ساحق
ساحل
ساخر
ساخط
ساخن
سادر
سادس
سادي
ساذج
سارح
سارد
سارز
سارس
سارع
سارق
ساره
سارى
ساري
ساسو
ساسي
ساشا
ساطع
ساعد
ساعي
سافا
سافر
سافل
سافو
سافي
ساقط
ساقي
ساكت
ساكر
ساكس
ساكن
ساكو
ساكي
سالب
سالت
سالز
سالس
سالف
سالك
سالم
سالو
سالي
سامح
سامر
سامع
سامق
سامو
سامى
سامي
سانا
سانت
سانج
سانح
ساند
سانز
سانغ
ساني
ساهر
ساهك
ساهل
ساهم
ساهي
ساوث
ساور
ساول
ساوم
سايب
سايت
سايج
سايح
سايد
ساير
سايس
سايف
سايق
سايك
سايل
سباب
سبات
سباح
سباخ
سبار
سباط
سباع
سباق
سباك
سبام
سباي
سبتي
سبسي
سبقو
سبكى
سبكي
سبوب
سبوت
سبور
سبيب
سبيت
سبيخ
سبيد
سبير
سبيس
سبيع
سبيك
سبيل
سبين
ستاد
ستار
ستاغ
ستاف
ستام
ستان
ستاي
ستجد
ستحي
ستدر
ستدع
سترو
ستري
ستطل
ستمئ
ستور
ستوك
ستول
ستوم
ستوي
ستيت
ستيج
ستيد
ستير
ستيف
ستيك
ستيل
ستين
سجاد
سجال
سجان
سجاي
سجود
سجون
سجيع
سجيل
سجين
سحائ
سحاب
سحار
سحرى
سحري
سحلب
سحمر
سحوب
سحور
سحيق
سحيم
سخاء
سخائ
سخال
سخام
سخان
سخري
سخون
سخيف
سداب
سداح
سداد
سداس
سدري
سدني
سدود
سدوس
سديد
سدير
سديس
سديم
سذاج
سراب
سراج
سراح
سرار
سراق
سراي
سربل
سرحد
سرخس
سردي
سرسق
سرسك
سرمد
سرنج
سرني
سروج
سرور
سريج
سريح
سرير
سريع
سسكا
سطات
سطام
سطحي
سطوح
سطور
سطوع
سطيف
سعاد
سعال
سعدى
سعدي
سعري
سعسع
سعود
سعوي
سعيد
سعير
سفاح
سفار
سفاك
سفال
سفان
سفاه
سفري
سفسط
سفلت
سفلى
سفلي
سفور
سفيت
سفير
سفين
سفيه
سقار
سقاط
سقاف
سقال
سقام
سقاي
سقبا
سقوط
سقوف
سقيا
سقيف
سقيم
سكار
سكاف
سكان
سكاى
سكاي
سكرى
سكري
سكسك
سكنى
سكني
سكوب
سكوت
سكود
سكور
سكول
سكون
سكيب
سكيت
سكير
سكيك
سكيل
سكين
سلاب
سلاح
سلاس
سلاط
سلاف
سلال
سلام
سلبى
سلبي
سلتا
سلتي
سلحب
سلسل
سلطن
سلعي
سلفى
سلفي
سلكي
سلمى
سلمي
سلوق
سلوك
سلوم
سلوى
سلوي
سليب
سليس
سليط
سليف
سليق
سليك
سليل
سليم
سماء
سمائ
سماج
سماح
سماد
سمار
سماع
سماق
سماك
سمان
سماو
سمبل
سمرى
سمري
سمسم
سمعي
سمكر
سمكى
سمكي
سموح
سموم
سمية
سميث
سميح
سميد
سمير
سميط
سميع
سميك
سنار
سنام
سنبل
سنتر
سنتم
سنجق
سندس
سندي
سنوى
سنوي
سنيد
سهاد
سهار
سهام
سهلي
سهوب
سهول
سهير
سهيل
سواء
سواب
سواح
سواد
سوار
سواس
سواط
سواق
سواك
سوان
سوبا
سوبر
سوبي
سوتر
سوتش
سوتو
سوتي
سوجا
سوجي
سودر
سورس
سورى
سوري
سوزا
سوزي
سوسن
سوسو
سوسي
سوشو
سوشي
سوقي
سوكر
سوكل
سوكو
سوكي
سولت
سولف
سولو
سولي
سومر
سومو
سونج
سونس
سونغ
سونك
سونى
سوني
سوهو
سويح
سويد
سوير
سويز
سويس
سويط
سويع
سويف
سويق
سويك
سويل
سياب
سياج
سياح
سياد
سيار
سياس
سياط
سياف
سياق
سيام
سياو
سيبا
سيبر
سيبو
سيبي
سيتا
سيتر
سيتى
سيتي
سيجي
سيدى
سيدي
سيرج
سيرك
سيرو
سيري
سيزر
سيسا
سيسى
سيسي
سيشل
سيطر
سيغل
سيكا
سيكر
سيكس
سيكل
سيكو
سيلز
سيلك
سيلي
سيما
سيمي
سينا
سينغ
سينم
سينو
سيني
سيور
سيوط
سيوف
سيول
سيون
سيوي
سيىء
شؤون
شئتم
شاؤو
شائب
شائع
شائق
شائك
شابه
شابي
شاتس
شاتل
شاتم
شاتو
شاتي
شاجب
شاحا
شاحب
شاحن
شاخص
شادر
شادن
شادو
شادى
شادي
شارب
شارح
شارخ
شارد
شارع
شارف
شارق
شارك
شارل
شارم
شاري
شاسع
شاسي
شاطئ
شاطر
شاطي
شاعر
شاغر
شاغل
شافر
شافع
شافك
شافى
شافي
شاكر
شاكل
شاكي
شالح
شالي
شامخ
شامل
شامى
شامي
شانج
شاند
شانغ
شاهد
شاهر
شاهق
شاهي
شاور
شاوش
شاول
شاوو
شاوي
شايب
شاير
شايع
شايف
شايل
شاين
شباب
شبار
شباس
شباط
شباك
شبام
شبان
شبرا
شبرد
شبشب
شبعا
شبقل
شبكي
شبلي
شبور
شبوط
شبوك
شبول
شبيب
شبيح
شبير
شبيك
شبيل
شبين
شبيه
شتاء
شتات
شتام
شتان
شترو
شتري
شتور
شتول
شتوى
شتوي
شتيف
شتيل
شتيم
شتيو
شثري
شجار
شجاع
شجري
شجون
شجير
شحات
شحاد
شحاذ
شحار
شحمي
شحوب
شحود
شحور
شحوم
شحيح
شحيم
شخبط
شخصى
شخصي
شخوص
شخير
شداد
شدرا
شدقم
شدوي
شديد
شذاذ
شذوذ
شراء
شرائ
شراب
شراح
شراخ
شراد
شرار
شراس
شراع
شراق
شراك
شراه
شرجي
شردى
شرذم
شرشر
شرطى
شرطي
شرعن
شرعى
شرعي
شرفي
شرقى
شرقي
شرنق
شروب
شروح
شروخ
شرود
شرور
شروط
شروع
شروف
شروق
شريب
شريح
شريد
شرير
شريط
شريع
شريف
شريق
شريك
شريم
شساع
شطآن
شطار
شطور
شطير
شطيط
شعاب
شعار
شعاع
شعان
شعبى
شعبي
شعري
شعفا
شعوب
شعوذ
شعور
شعيا
شعيب
شعيت
شعير
شعيل
شغار
شغاف
شغال
شغور
شغيل
شفاء
شفائ
شفاط
شفاع
شفاف
شفاه
شفهي
شفوي
شفير
شفيع
شفيف
شفيق
شقاء
شقائ
شقاق
شقاو
شقتي
شقرا
شقلب
شقور
شقوق
شقير
شقيف
شقيق
شكار
شكاك
شكاي
شكرى
شكري
شكلي
شكوا
شكور
شكوك
شكوى
شكيب
شكير
شكيم
شلاح
شلاخ
شلاش
شلاق
شلال
شلبى
شلبي
شللي
شلوف
شلوم
شلوي
شليط
شليف
شليك
شليل
شمائ
شمات
شماخ
شمار
شماس
شماط
شماع
شماغ
شمال
شمام
شمبي
شمرى
شمري
شمسي
شمعي
شموخ
شموس
شموط
شموع
شمول
شمون
شميد
شمير
شميس
شميط
شميل
شميم
شنار
شناص
شناق
شناو
شنتو
شنجن
شندغ
شندي
شنشل
شنغن
شنفر
شنود
شنيع
شنيف
شهاب
شهاد
شهار
شهال
شهام
شهاو
شهرى
شهري
شهود
شهور
شهيب
شهيد
شهير
شهيق
شهيل
شواء
شواب
شواد
شواذ
شوار
شواش
شواط
شواف
شواق
شوال
شوام
شوان
شواه
شواي
شوبر
شوبك
شوتل
شوجي
شورب
شورت
شورج
شورد
شورو
شورى
شوري
شوزن
شوشو
شوعي
شوغن
شوفي
شوقى
شوقي
شوكو
شوكي
شولت
شولز
شومر
شومي
شونج
شونغ
شوهد
شويب
شويح
شويخ
شوير
شويش
شويع
شويف
شويك
شويل
شويه
شياب
شياح
شياخ
شياع
شياك
شيام
شياو
شيبس
شيبو
شيبي
شيتي
شيدر
شيرت
شيرر
شيرو
شيري
شيزو
شيعى
شيعي
شيفر
شيفل
شيفو
شيكل
شيكو
شيلا
شيلد
شيلر
شيلو
شيلى
شيلي
شيمى
شيمي
شينج
شينغ
شينو
شيوخ
شيوع
شيول
صائب
صائد
صائغ
صائم
صابئ
صابر
صاحب
صاحي
صاخب
صادر
صادف
صادق
صادم
صادو
صارح
صارخ
صارع
صارم
صاري
صاعد
صاعق
صاغر
صاغي
صافح
صافر
صافي
صالح
صامت
صامد
صاند
صانع
صاوى
صاوي
صايب
صاير
صايغ
صايف
صايل
صايم
صباب
صباح
صبار
صباط
صباع
صباغ
صبان
صبحى
صبحي
صبرا
صبرى
صبري
صبغي
صبوح
صبور
صبيح
صبيخ
صحاب
صحاح
صحار
صحاف
صحرا
صحفى
صحفي
صحون
صحيح
صحيف
صخري
صخور
صخير
صدار
صداع
صداق
صدام
صدرى
صدري
صدغي
صدفي
صدقى
صدقي
صدود
صدور
صدوق
صديد
صدير
صديق
صراح
صراخ
صرار
صراط
صراع
صراف
صرام
صربى
صربي
صرقع
صروح
صريح
صريخ
صرير
صريط
صريع
صريف
صعاب
صعتر
صعصع
صعلك
صعوب
صعود
صعيب
صعيد
صغار
صغرى
صغري
صغير
صفاء
صفائ
صفار
صفاق
صفتى
صفتي
صفدي
صفوح
صفوف
صفوى
صفوي
صفية
صفيح
صفير
صفين
صقار
صقري
صقلي
صقور
صقير
صقيع
صقيل
صكوك
صلاب
صلات
صلاح
صلاد
صلاف
صلال
صلحي
صلخد
صلوح
صليب
صليح
صليع
صليل
صليم
صماء
صماد
صمام
صمان
صمود
صميد
صميع
صميل
صميم
صنار
صناع
صنبر
صندا
صندق
صندل
صندي
صنفر
صنيع
صهار
صهيب
صهيو
صواب
صوار
صواع
صواغ
صواف
صوال
صوام
صوان
صوتى
صوتي
صودا
صوفا
صوفى
صوفي
صولد
صولو
صوما
صومع
صوني
صويا
صوير
صويغ
صويل
صوين
صياح
صياد
صيار
صياغ
صيام
صيان
صيدا
صيدل
صيرف
صيصا
صيفى
صيفي
صينى
صيني
صيهو
صيود
ضئيل
ضائع
ضائق
ضابط
ضاحك
ضاحي
ضارب
ضاري
ضاعف
ضاغط
ضافي
ضالع
ضامر
ضامن
ضاهر
ضاوي
ضايع
ضايق
ضباء
ضباب
ضباط
ضباع
ضبيب
ضبيع
ضجيج
ضحاك
ضحال
ضخام
ضراء
ضرائ
ضراب
ضرار
ضراو
ضرور
ضروس
ضريب
ضريح
ضرير
ضعاف
ضعيف
ضغوط
ضغين
ضفاف
ضفتي
ضفدع
ضفير
ضلال
ضلوع
ضليع
ضماد
ضمان
ضمني
ضمور
ضمير
ضنين
ضهور
ضهير
ضوئى
ضوئي
ضواح
ضوار
ضياء
ضيائ
ضياع
ضياف
ضيوف
طأطأ
طائر
طائش
طائع
طائف
طائل
طائي
طابا
طابع
طابق
طابو
طابي
طاجن
طاحن
طارئ
طارح
طارد
طارش
طارف
طارق
طازج
طاطا
طاعن
طاغي
طافح
طافش
طافي
طاقم
طالب
طالح
طالع
طالق
طامح
طامع
طامي
طانس
طاهر
طاهي
طاوس
طاوع
طاول
طاوي
طايح
طاير
طايع
طايف
طايل
طباب
طباخ
طبار
طباع
طباق
طبرج
طبرق
طبري
طبطب
طبقي
طبلي
طبنج
طبوب
طبوع
طبول
طبيب
طبيخ
طبيع
طحال
طحان
طحاو
طحلب
طحين
طخيس
طخيم
طرائ
طراب
طراح
طراد
طرار
طراز
طراف
طراق
طرام
طراو
طربي
طردي
طرفي
طرقي
طروب
طروح
طرود
طروش
طريج
طريح
طريد
طريف
طريق
طزاج
طعام
طعان
طعوم
طعون
طعيم
طفاي
طفلي
طفول
طفيف
طفيل
طقطق
طقوس
طلاء
طلائ
طلاب
طلاس
طلاق
طلال
طلاو
طلحي
طلخا
طلسم
طلمب
طلوس
طليح
طليس
طليع
طليق
طمأن
طمار
طماع
طمان
طمطم
طموح
طناش
طنجر
طنطا
طنطن
طهار
طهطا
طهور
طوار
طواش
طواف
طواق
طوال
طوبج
طوبي
طوخى
طوخي
طوطم
طوعي
طوغو
طولي
طومس
طومي
طوني
طوير
طويس
طويق
طويل
طياب
طيار
طياش
طيبي
طيري
طيفي
طيني
طيور
طيون
ظابط
ظاعن
ظافر
ظالم
ظاهر
ظراف
ظروف
ظريف
ظفار
ظفير
ظلال
ظلام
ظلوم
ظليل
ظنون
ظهار
ظهور
ظهير
ظيفت
عائد
عائش
عائض
عائق
عائل
عائم
عابث
عابد
عابر
عابس
عاتب
عاتق
عاتك
عاتي
عاثر
عاجب
عاجز
عاجل
عاجي
عادل
عادم
عادى
عادي
عاذر
عاذل
عارض
عارف
عارم
عاري
عازب
عازر
عازف
عازل
عازم
عازي
عاشر
عاشق
عاشو
عاصر
عاصف
عاصم
عاصى
عاصي
عاطف
عاطل
عاطي
عافا
عافي
عاقب
عاقد
عاقر
عاقل
عاكس
عاكف
عاكو
عالج
عالق
عالم
عالى
عالي
عامر
عامل
عاند
عانس
عانق
عانو
عاني
عاهد
عاهر
عاهل
عاود
عاوز
عاون
عايب
عايد
عايز
عايش
عايض
عايل
عاين
عباء
عباب
عباد
عبار
عباس
عباق
عباي
عبثي
عبجي
عبده
عبري
عبسي
عبقر
عبود
عبور
عبوس
عبوش
عبيد
عبير
عبيس
عبيط
عبيل
عتاب
عتاد
عتاق
عتال
عتام
عتصي
عتوب
عتيب
عتيج
عتيد
عتيق
عتيل
عثور
عثيم
عجائ
عجاب
عجاج
عجاف
عجال
عجان
عجرف
عجرم
عجمى
عجمي
عجور
عجوز
عجول
عجيب
عجيز
عجيل
عجيم
عجين
عداء
عداؤ
عدائ
عداد
عدار
عدال
عداو
عدتم
عدرا
عدشي
عدلى
عدلي
عدني
عدول
عدوى
عدوي
عديد
عديس
عديل
عديم
عذاب
عذال
عذبي
عذري
عذوب
عذوق
عذيب
عراء
عراب
عراج
عراد
عرار
عراف
عراق
عراك
عرام
عربد
عربى
عربي
عرضي
عرعر
عرفج
عرفى
عرفي
عرقل
عرقى
عرقي
عروب
عروج
عروس
عروش
عروض
عروق
عروي
عريب
عريج
عريد
عريس
عريش
عريض
عريف
عريق
عريم
عرين
عزاء
عزائ
عزاب
عزاز
عزام
عزبى
عزمى
عزمي
عزوز
عزوف
عزوم
عزير
عزيز
عزيم
عساس
عساف
عساك
عسال
عسكر
عسلي
عسير
عسيس
عسيل
عشاء
عشائ
عشاب
عشار
عشاق
عشان
عشبي
عشتم
عشرى
عشقي
عشوب
عشور
عشوي
عشير
عشيق
عصائ
عصاب
عصار
عصام
عصبى
عصبي
عصرن
عصري
عصعص
عصمت
عصور
عصوي
عصيب
عصيد
عصير
عصيل
عضاض
عضال
عضلي
عضوم
عضوى
عضوي
عضيب
عضيد
عضيل
عضيم
عطاء
عطائ
عطار
عطاس
عطاش
عطاف
عطال
عطري
عطشى
عطني
عطور
عطوف
عطوي
عطيف
عظام
عظمى
عظمي
عظيم
عفار
عفاس
عفاف
عفان
عفلق
عفوي
عفيش
عفيف
عقاب
عقاد
عقار
عقال
عقرب
عقلن
عقلى
عقلي
عقوب
عقود
عقوق
عقول
عقيب
عقيد
عقير
عقيق
عقيل
عقيم
عكار
عكاز
عكاس
عكاش
عكاظ
عكبر
عكرم
عكسي
عكنن
عكوس
عكوش
عكيد
عكيف
عكيل
علاء
علاج
علاش
علاق
علام
علاو
علجي
علفي
علقم
علمى
علمي
علنى
علني
علوج
علوش
علول
علوم
علوى
علوي
عليا
عليش
عمائ
عماد
عمار
عماش
عمال
عمام
عمان
عمرو
عمرى
عمري
عملي
عمود
عمور
عموش
عمول
عموم
عميد
عمير
عميش
عميق
عميل
عميم
عناء
عناب
عناد
عناق
عناي
عنبر
عنتر
عنجر
عنزى
عنزي
عنصر
عنقي
عنوة
عنود
عنوس
عنيد
عنيز
عنيف
عهود
عواج
عواد
عوار
عواز
عواس
عواش
عواص
عواض
عوام
عوان
عوبد
عوزي
عوسج
عوشز
عوضي
عوفر
عوفي
عوقب
عوكل
عولج
عولم
عومل
عومي
عويج
عويد
عوير
عويس
عويش
عويص
عويض
عويط
عويل
عوين
عياد
عيار
عياش
عياض
عياط
عياف
عيال
عيان
عيتا
عيتي
عيدو
عيدي
عيرو
عيزر
عيسم
عيسو
عيسى
عينى
عيني
عيوب
عيوش
عيوط
عيون
عيين
غائب
غائر
غائص
غائط
غائم
غائي
غابر
غابي
غادر
غادي
غارب
غارد
غارق
غارم
غارو
غاري
غازى
غازي
غاسل
غاشم
غاشي
غاصب
غاضب
غاطس
غاغو
غافر
غافق
غافل
غافو
غافي
غالا
غالب
غالط
غالف
غالم
غالو
غالى
غالي
غاما
غامب
غامد
غامر
غامز
غامض
غامق
غانا
غانج
غاند
غانز
غانغ
غانم
غانى
غاني
غاوس
غاوي
غايب
غباء
غبائ
غبار
غباش
غبان
غباو
غبرا
غبري
غبير
غبيش
غثاء
غجري
غداء
غدار
غدير
غذاء
غذائ
غراء
غراب
غراد
غرار
غراز
غراس
غراف
غرام
غران
غراه
غراي
غربى
غربي
غردق
غرغر
غرقى
غروب
غروج
غرور
غروس
غروف
غروم
غرون
غروي
غريب
غريد
غرير
غريز
غريس
غريش
غريغ
غريف
غريق
غريل
غريم
غرين
غزار
غزال
غزنة
غزول
غزير
غزيل
غسال
غسان
غسول
غسيل
غشاء
غشائ
غشاش
غشام
غشاو
غشيم
غصاب
غصون
غصيب
غصين
غضون
غطاء
غطائ
غطاس
غطرس
غطيم
غفار
غفري
غفور
غفير
غفيص
غلاء
غلائ
غلاب
غلاس
غلاط
غلاف
غلال
غلام
غلاي
غلوب
غلوم
غليس
غليط
غليظ
غليل
غلين
غمار
غماز
غمام
غمبر
غملو
غموض
غميض
غميق
غناء
غنائ
غنام
غندر
غنطو
غنوص
غنوم
غنيم
غواد
غوار
غواص
غوام
غوان
غواي
غوتا
غوتز
غوتس
غوته
غوتو
غوتى
غوتي
غوجو
غودر
غودم
غودو
غودي
غورد
غورغ
غورو
غورى
غوري
غوغل
غوفو
غوكو
غولد
غولر
غولف
غولن
غولي
غوما
غومي
غونغ
غونو
غوني
غويب
غوير
غويز
غويف
غويل
غوين
غياب
غياث
غيار
غياض
غيام
غيان
غياه
غيبس
غيبي
غيتا
غيتس
غيتو
غيثي
غيدا
غيدو
غيزي
غيطى
غيغز
غيفن
غيلي
غينس
غينغ
غيني
غيهب
غيوب
غيور
غيوم
فأتت
فأظن
فؤاد
فؤوس
فإنن
فئتي
فائت
فائد
فائز
فائض
فائق
فاتح
فاتر
فاتك
فاتن
فاجأ
فاجئ
فاجر
فاجع
فاحش
فاحص
فاخت
فاخر
فادح
فادي
فارت
فارح
فارس
فارض
فارط
فارع
فارغ
فارق
فارك
فارم
فاره
فارو
فاست
فاسح
فاسد
فاسق
فاسو
فاسى
فاسي
فاشر
فاشل
فاشي
فاصل
فاضح
فاضل
فاضى
فاضي
فاطر
فاطم
فاعل
فاغر
فافا
فاقد
فاكر
فاكس
فاكه
فالت
فالج
فالح
فالز
فالس
فالق
فالك
فالن
فالو
فالي
فانس
فانغ
فاني
فاهم
فاوض
فايث
فايد
فاير
فايز
فايس
فايع
فايف
فايق
فايل
فاين
فايو
فبرك
فتات
فتاح
فتاك
فتجد
فتحى
فتحي
فتست
فتظل
فتفت
فتوا
فتوح
فتور
فتوش
فتوى
فتيح
فتيل
فجئي
فجاء
فجائ
فجاج
فجار
فجال
فجور
فجير
فجيع
فحام
فحوا
فحوص
فحول
فحوى
فحيح
فخاخ
فخار
فخام
فخذي
فخرو
فخرى
فخري
فخور
فداء
فدائ
فداح
فدان
فدرل
فدعق
فدور
فديو
فراء
فرائ
فرات
فراج
فراح
فراخ
فراد
فرار
فراس
فراش
فراع
فراغ
فراق
فرام
فران
فراي
فرحا
فردى
فردي
فرزل
فرسخ
فرشا
فرضي
فرعي
فرغل
فرقع
فركش
فرمل
فرنج
فرند
فرنس
فرنش
فرنك
فروج
فروخ
فرود
فروض
فروع
فروغ
فروق
فريج
فريح
فريخ
فريد
فرير
فريز
فريس
فريش
فريض
فريع
فريق
فريك
فزار
فزاع
فزور
فزيع
فساد
فستق
فسيح
فسيخ
فسيل
فشار
فشخر
فصاح
فصال
فصام
فصحى
فصلي
فصول
فصيح
فصيل
فضاء
فضائ
فضال
فضفض
فضلى
فضلي
فضول
فضيح
فضيل
فطاح
فطام
فطري
فطور
فطوم
فطير
فطيس
فطيم
فظاظ
فعال
فعلي
فقار
فقاع
فقام
فقرى
فقري
فقهي
فقيد
فقير
فقيه
فكاك
فكاه
فكرى
فكري
فلائ
فلات
فلاج
فلاح
فلاش
فلاق
فلام
فلان
فلاي
فلتر
فلزي
فلسط
فلسف
فلفل
فلكى
فلكي
فلوت
فلوج
فلور
فلوس
فلول
فليب
فليج
فليح
فلير
فليم
فلين
فموي
فناء
فنائ
فناج
فنار
فنان
فندق
فندي
فنون
فنيش
فهاد
فهرس
فهري
فهلو
فهمى
فهمي
فهود
فهيد
فهيم
فوات
فواح
فوار
فواز
فواض
فواق
فواك
فوال
فوتر
فوتو
فوجئ
فوجي
فودز
فورد
فورس
فورم
فوري
فوزى
فوزي
فوشي
فوضى
فوضي
فوغل
فوقي
فوكس
فوكو
فوكي
فولر
فولز
فولك
فولي
فونج
فونس
فونك
فوهر
فويت
فويس
فياض
فيبر
فيتش
فيتو
فيجن
فيجو
فيجي
فيرا
فيرث
فيرد
فيرر
فيرس
فيرن
فيزا
فيسك
فيشر
فيصل
فيظل
فيغو
فيفا
فيقع
فيلا
فيلد
فيلق
فيلم
فيما
فينس
فيوم
قائد
قائل
قائم
قابس
قابض
قابع
قابل
قاتل
قاتم
قاحل
قادر
قادس
قادم
قاذف
قارئ
قارب
قارح
قارس
قارص
قارع
قارن
قارو
قارى
قاري
قاسم
قاسى
قاسي
قاصد
قاصر
قاصم
قاصي
قاضى
قاضي
قاطب
قاطر
قاطع
قاطن
قاطي
قاعد
قافز
قافل
قافي
قانا
قانع
قانو
قاني
قاهر
قاوق
قاوم
قاوو
قايا
قايد
قايل
قايم
قباء
قباب
قباح
قبار
قباض
قبال
قبان
قبرص
قبطى
قبطي
قبلي
قبور
قبوط
قبول
قبيح
قبيس
قبيض
قبيط
قبيع
قبيل
قتاد
قتال
قتام
قتلى
قتيب
قتيل
قحاف
قحفي
قحيص
قداح
قداس
قدام
قدرى
قدسي
قدود
قدور
قدوس
قدوم
قديح
قدير
قديس
قديم
قذاذ
قذار
قذاف
قذال
قذيف
قرآن
قراء
قرائ
قراب
قراح
قراد
قرار
قراش
قراص
قراع
قراق
قرام
قران
قربى
قربي
قرشي
قرصن
قرضا
قرطب
قرقر
قرقع
قرقف
قرقن
قرمط
قرنق
قرنى
قرني
قروب
قروج
قروح
قرود
قروش
قروض
قرون
قروى
قروي
قريب
قريح
قرير
قريش
قريظ
قريع
قرين
قزاز
قزحي
قزيح
قسام
قساو
قسرى
قسري
قسطر
قسطل
قسوم
قسيس
قسيل
قسيم
قشاش
قشري
قشقر
قشقو
قشور
قشوع
قشيب
قشير
قصاب
قصاد
قصار
قصاص
قصبج
قصبى
قصبي
قصدي
قصصي
قصقص
قصور
قصوى
قصيب
قصيد
قصير
قصيص
قصيف
قصيم
قضاء
قضائ
قضاع
قضيب
قطار
قطاط
قطاع
قطاف
قطام
قطان
قطبى
قطبي
قطرى
قطري
قطعى
قطعي
قطني
قطور
قطوع
قطوف
قطيش
قطيط
قطيع
قطيف
قعبو
قعقع
قعقو
قعوا
قعود
قعيد
قفار
قفاز
قفال
قفيل
قلاب
قلاد
قلاش
قلاع
قلاف
قلبى
قلبي
قلتم
قلوب
قلوي
قليب
قليط
قليع
قليل
قماح
قمار
قماش
قمام
قمبر
قمتم
قمتي
قمري
قمزي
قمعي
قمقم
قمنى
قموع
قمير
قميص
قناص
قناع
قنبر
قنبل
قندز
قندس
قنصل
قنصو
قنطر
قنفذ
قنوط
قنين
قهار
قهري
قهقر
قهقه
قواد
قوار
قواس
قواص
قوام
قوبع
قوبل
قوبن
قوتل
قورش
قورن
قوزح
قوصي
قوطي
قوقع
قوقل
قومى
قومي
قونن
قوني
قويد
قويز
قويس
قويض
قويط
قويم
قياد
قيار
قياس
قياص
قياف
قيام
قيسي
قيصر
قيعى
قيعي
قيقب
قيود
قيوم
كؤوس
كئيب
كائد
كائن
كابا
كابد
كابر
كابس
كابل
كابو
كابي
كاتا
كاتب
كاتر
كاتز
كاتس
كاتش
كاتم
كاتو
كاتي
كاثر
كاثل
كاثي
كاجو
كاحل
كاخي
كادح
كادر
كاذب
كارا
كارب
كارت
كارث
كارد
كارز
كارس
كارف
كارك
كارل
كارم
كارن
كاره
كارو
كارى
كاري
كازو
كاسب
كاسح
كاسد
كاسر
كاسل
كاسي
كاشف
كاشي
كاطو
كاظم
كافأ
كافح
كافر
كافى
كافي
كاكا
كاكو
كاكي
كالت
كالح
كالس
كالم
كالو
كالي
كامب
كامد
كامر
كامل
كامن
كامو
كامي
كانغ
كاهل
كاهن
كاهي
كاوس
كاوي
كايج
كايد
كايل
كاين
كايو
كباب
كبار
كباس
كباش
كبدى
كبدي
كبرى
كبري
كبلر
كبيئ
كبيب
كبير
كبيس
كبيش
كتاب
كتار
كتاف
كتان
كتبي
كتفي
كتكت
كتيب
كتير
كثاف
كثيب
كثير
كثيف
كحال
كحلي
كحول
كحيل
كداش
كديم
كذاب
كذلك
كراء
كراث
كراج
كراد
كرار
كراز
كراس
كراع
كراف
كراك
كرام
كراي
كردى
كردي
كرسى
كرسي
كرفس
كركر
كركم
كركي
كرمل
كرنب
كرنك
كرني
كروب
كروت
كروج
كروز
كروس
كروش
كروم
كرون
كروى
كروي
كريب
كريت
كريج
كريد
كرير
كريز
كريس
كريش
كريع
كريغ
كريف
كريك
كريم
كريه
كزاز
كزبر
كساء
كسائ
كساب
كساح
كساد
كسار
كسال
كسكس
كسور
كسوف
كسول
كسيح
كسيد
كسير
كسيس
كشاف
كشفي
كشكش
كشوف
كظري
كعاب
كعبي
كعدو
كعدي
كعوب
كعوش
كعيد
كعيك
كعيم
كفاء
كفائ
كفاح
كفار
كفاف
كفال
كفاي
كفرح
كفري
كفور
كفوف
كفير
كفيف
كفيل
كلاب
كلار
كلاس
كلام
كلاي
كلبش
كلبي
كلتا
كلتي
كلثم
كلسي
كلفن
كلما
كلوب
كلوج
كلود
كلور
كلوم
كلوى
كلوي
كليب
كليج
كلير
كليغ
كليم
كمائ
كماد
كمار
كماش
كمال
كمام
كمان
كمبو
كمنج
كمون
كميخ
كميل
كمين
كنار
كناس
كناف
كنام
كنان
كناي
كنتم
كندا
كندر
كندى
كندي
كنسي
كنعد
كنغر
كنهل
كنوز
كنيد
كنيس
كهان
كهرب
كهرم
كهرو
كهوف
كهول
كواد
كوار
كواز
كواك
كوال
كوام
كوان
كواي
كوبا
كوبر
كوبك
كوبل
كوبو
كوبى
كوبي
كوتا
كوتس
كوتش
كوتو
كوتي
كوثر
كوجو
كوجي
كودو
كودي
كورب
كورت
كورد
كورس
كورف
كورك
كورن
كورو
كورى
كوري
كوزو
كوزي
كوسا
كوسر
كوسي
كوشي
كوفئ
كوفم
كوفي
كوكا
كوكب
كوكس
كوكش
كوكو
كوكي
كولا
كولب
كولر
كولز
كولن
كولو
كولي
كومب
كومن
كومو
كومى
كومي
كونج
كونز
كونغ
كوني
كوهن
كوور
كويت
كويخ
كوير
كويز
كويس
كوين
كيار
كياس
كيال
كيان
كيبر
كيبك
كيبل
كيتا
كيتس
كيتل
كيتو
كيتي
كيخي
كيدج
كيدز
كيدي
كيرس
كيرش
كيرف
كيرك
كيرم
كيرن
كيرو
كيرى
كيري
كيسي
كيشي
كيفن
كيفي
كيكر
كيكو
كيكي
كيلر
كيلو
كيلى
كيلي
كيما
كيمب
كيمو
كيمي
كينج
كيند
كينز
كينغ
كينو
كينى
كيني
كيوب
كيوي
كييف
كييل
لؤلؤ
لئيم
لائح
لائق
لائم
لابد
لابس
لاجئ
لاحج
لاحظ
لاحق
لاحم
لادن
لاذع
لارا
لاري
لازم
لاصق
لاعب
لاغي
لافت
لاقا
لاقط
لاقي
لاكت
لاما
لامب
لامس
لامع
لامي
لانس
لانش
لانغ
لاهب
لاهي
لاوس
لايت
لايف
لايق
لايك
لباد
لباس
لباق
لبان
لبلب
لبنى
لبني
لبون
لبيب
لبيس
لثام
لجان
لجوء
لجوئ
لجين
لحاف
لحام
لحدي
لحسن
لحمي
لحني
لحود
لحوس
لحوم
لحيف
لخبط
لخمي
لدود
لذيذ
لزام
لزوج
لزوم
لسان
لستم
لصوص
لصيق
لطاف
لطفى
لطفي
لطيف
لطيم
لعاب
لعوب
لعين
لغني
لغوي
لفاف
لفظي
لفلف
لفيف
لقاء
لقائ
لقاح
لقلق
لقيط
لقيم
لكزس
لماح
لماذ
لماع
لملم
لميس
لنبي
لندع
لندن
لنكن
لهيب
لواء
لوائ
لواج
لواط
لوبن
لوبو
لوبي
لوتس
لوتو
لوحظ
لوحي
لودر
لورا
لورد
لوري
لوزي
لوسي
لوغو
لوفر
لوقا
لوكا
لولا
لولب
لولو
لومي
لونج
لوند
لونغ
لوني
لويا
لويح
لويد
لويز
لويس
ليأت
لياج
لياق
ليال
ليام
لياو
ليبر
ليبى
ليبي
ليتر
ليتل
ليثى
ليجا
ليجي
ليدز
ليدن
ليدي
ليزر
ليزك
ليزي
ليشت
ليشع
ليضع
ليغو
ليفن
ليفي
ليكس
ليكو
ليلك
ليلى
ليلي
ليما
لينا
ليند
لينز
لينش
لينك
ليهي
ليوث
ليون
لييج
مآثر
مآخذ
مآذن
مآسي
مآقي
مأتم
مأثر
مأخذ
مأدب
مأذن
مأرب
مأزق
مأسا
مأسس
مأسو
مأكل
مأمن
مأوى
مؤات
مؤاخ
مؤاس
مؤبد
مؤتم
مؤثث
مؤثر
مؤثم
مؤجج
مؤجر
مؤجل
مؤخر
مؤدا
مؤدب
مؤدي
مؤذن
مؤرخ
مؤرق
مؤزم
مؤسس
مؤسف
مؤشر
مؤصل
مؤطر
مؤقت
مؤكد
مؤلف
مؤلل
مؤلم
مؤمر
مؤمن
مؤنث
مؤنس
مؤهل
مؤول
مؤون
مؤيد
مؤين
مئتا
مئتي
مئذن
مئزر
مئوي
مئير
مائد
مائى
مائي
مابي
ماتر
ماتس
ماتش
ماتع
ماتم
ماتي
ماثل
ماجد
ماجر
ماجن
ماجى
ماجي
ماحق
ماحي
ماخذ
مادح
مادم
مادى
مادي
ماذا
مارا
مارت
مارج
مارد
مارس
مارش
مارع
مارف
مارق
مارك
مارو
مارى
ماري
مازج
مازح
مازل
مازن
مازو
ماسا
ماسح
ماسك
ماسو
ماسي
ماشط
ماشي
ماضى
ماضي
ماطر
ماطل
ماعد
ماعز
ماغن
ماغي
مافي
ماكث
ماكج
ماكر
ماكس
ماكغ
ماكل
ماكن
ماكو
ماكي
مالئ
مالح
مالط
مالق
مالك
مالم
مالى
مالي
ماما
مامو
مامي
مانج
مانح
ماند
مانز
مانش
مانص
مانع
مانو
ماهر
ماهو
ماهي
ماوس
ماوي
مايا
ماير
مايس
مايك
مايل
مايو
مباح
مباد
مبار
مباع
مبال
مبان
مباي
مبتز
مبتغ
مبتل
مبجل
مبحر
مبخر
مبدأ
مبدإ
مبدئ
مبدا
مبدد
مبدع
مبدل
مبدي
مبذر
مبرح
مبرد
مبرر
مبرز
مبرك
مبرم
مبزع
مبسط
مبسم
مبشر
مبصر
مبضع
مبطل
مبطن
مبطي
مبعث
مبعد
مبغض
مبقا
مبقي
مبكر
مبكى
مبكي
مبلغ
مبنا
مبنى
مبني
مبهر
مبهم
مبوب
مبيت
مبيد
مبيض
مبيع
مبين
متآك
متأت
متأن
متاح
متاخ
متاع
متان
متاه
متبع
متبق
متبل
متبن
متجر
متجل
متجه
متحد
متحر
متحز
متحف
متحم
متخذ
متخف
متخل
متخم
متدن
مترب
مترع
مترف
مترق
مترو
متري
متزن
متسخ
متسع
متسق
متسم
متسن
متسو
متشح
متصد
متصف
متصل
متعب
متعد
متفش
متفق
متقد
متقن
متقى
متقي
متكل
متكى
متكي
متلف
متلق
متمم
متمن
متنب
متهد
متهم
متوج
متوخ
متوف
متون
متيج
متيح
متيم
متين
مثاب
مثار
مثال
مثان
مثبت
مثبط
مثري
مثقب
مثقف
مثقل
مثلث
مثلج
مثلى
مثلي
مثمر
مثمن
مثنى
مثني
مثوا
مثوب
مثول
مثيب
مثير
مثيل
مجاب
مجار
مجاز
مجاط
مجاع
مجاف
مجال
مجان
مجاه
مجبر
مجتب
مجتر
مجتع
مجثل
مجحد
مجحف
مجحم
مجدد
مجدل
مجدو
مجدى
مجدي
مجرا
مجرب
مجرد
مجرم
مجرن
مجرى
مجري
مجزأ
مجزر
مجزل
مجزي
مجسم
مجعد
مجفف
مجلد
مجلس
مجمد
مجمر
مجمع
مجمل
مجنح
مجند
مجنس
مجني
مجهد
مجهر
مجهز
مجهض
مجهل
مجود
مجور
مجوز
مجوس
مجوع
مجوف
مجول
مجون
مجيء
مجيئ
مجيب
مجيد
مجير
محاب
محاج
محاد
محاذ
محار
محاز
محاص
محاط
محاف
محاق
محاك
محال
محام
محبب
محبذ
محبر
محبس
محبط
محبو
محبي
محتج
محتد
محتر
محتف
محتق
محتل
محتم
محجب
محجر
محجم
محجن
محدث
محدد
محدق
محدي
محذر
محرج
محرد
محرر
محرز
محرس
محرض
محرف
محرق
محرك
محرم
محزم
محزن
محسب
محسن
محشو
محشي
محصر
محصل
محصن
محضر
محطم
محظر
محفد
محفز
محفظ
محفل
محقق
محكم
محلب
محلف
محلق
محلل
محلى
محلي
محمد
محمر
محمص
محمل
محمي
محند
محنط
محنك
محور
محوط
محول
محيا
محيد
محير
محيش
محيط
محيل
محيو
محيى
محيي
مخاب
مخاز
مخاض
مخاط
مخاف
مخبأ
مخبئ
مخبر
مخبز
مختر
مختص
مختف
مختل
مخجل
مخدر
مخدع
مخدم
مخرب
مخرج
مخرز
مخرم
مخزن
مخزو
مخزي
مخصب
مخصر
مخصص
مخصي
مخضب
مخضر
مخطئ
مخطط
مخفر
مخفض
مخفف
مخفي
مخلب
مخلد
مخلص
مخلع
مخلف
مخلل
مخمر
مخمل
مخوا
مخول
مخيب
مخيخ
مخير
مخيط
مخيف
مخيل
مخيم
مداح
مداخ
مداد
مدار
مداس
مدام
مدان
مدبب
مدبر
مدجج
مدجن
مدحت
مدخر
مدخل
مدخن
مدرب
مدرج
مدرس
مدرع
مدرك
مدري
مدشن
مدعا
مدعج
مدعم
مدعو
مدعى
مدعي
مدفع
مدفن
مدقع
مدقق
مدلج
مدلس
مدلك
مدلل
مدمج
مدمر
مدمع
مدمن
مدنى
مدني
مدهش
مدوخ
مدور
مدون
مدوي
مديح
مديد
مدير
مدين
مذاب
مذاع
مذاق
مذاك
مذبح
مذحج
مذكر
مذنب
مذهب
مذهل
مذهو
مذيب
مذيع
مذيل
مرئى
مرئي
مراء
مراب
مراث
مراح
مراد
مرار
مراس
مراش
مراع
مراغ
مراق
مرام
مران
مراي
مربح
مربد
مربض
مربط
مربع
مربك
مربو
مربى
مربي
مرتب
مرتد
مرتش
مرتع
مرثي
مرجح
مرجع
مرجف
مرجل
مرجو
مرحب
مرحل
مرخص
مرخي
مردد
مردف
مردم
مرزق
مرسا
مرسخ
مرسل
مرسم
مرسى
مرسي
مرشح
مرشد
مرصد
مرصع
مرضع
مرضى
مرضي
مرطب
مرعا
مرعب
مرعش
مرعى
مرعي
مرغم
مرفأ
مرفق
مرفه
مرقب
مرقد
مرقس
مرقص
مرقط
مرقع
مرقم
مركب
مركز
مرما
مرمر
مرمز
مرمط
مرمل
مرمم
مرمى
مرمي
مرهج
مرهف
مرهق
مروء
مروج
مروح
مرود
مرور
مروض
مروع
مروق
مرون
مروى
مروي
مرىء
مريء
مريب
مريج
مريح
مريخ
مريد
مرير
مريس
مريض
مريع
مريف
مريم
مزاب
مزاج
مزاح
مزاد
مزار
مزال
مزاي
مزبل
مزرع
مزرق
مزري
مزعج
مزعل
مزغن
مزكي
مزلق
مزمع
مزمل
مزمن
مزهر
مزهو
مزود
مزور
مزوز
مزوغ
مزوق
مزيج
مزيح
مزيد
مزيف
مزيك
مزيل
مزين
مسأل
مسؤل
مساء
مساج
مساح
مسار
مساس
مساع
مساف
مساق
مساك
مسال
مسام
مساو
مسبب
مسبح
مسبق
مسبك
مسبل
مستد
مستر
مستش
مستف
مستق
مستك
مستل
مستم
مستن
مسته
مستو
مسجا
مسجد
مسجل
مسجن
مسحر
مسحل
مسحي
مسخر
مسخن
مسدد
مسدس
مسدل
مسدي
مسرب
مسرح
مسرد
مسرع
مسرف
مسري
مسطح
مسطر
مسطو
مسعا
مسعد
مسعر
مسعف
مسعى
مسفر
مسفل
مسقط
مسكر
مسكن
مسكو
مسلح
مسلخ
مسلط
مسلك
مسلم
مسلي
مسما
مسمر
مسمع
مسمك
مسمل
مسمم
مسمى
مسمي
مسند
مسهب
مسهر
مسهل
مسوح
مسود
مسور
مسوس
مسوغ
مسوق
مسوي
مسىء
مسيء
مسيئ
مسيب
مسيج
مسيح
مسير
مسيس
مسيك
مسيل
مسيو
مشاء
مشائ
مشاح
مشاد
مشار
مشاش
مشاط
مشاع
مشاف
مشاق
مشاي
مشبب
مشبع
مشبك
مشبه
مشتت
مشتر
مشتق
مشتك
مشجب
مشجع
مشحن
مشخص
مشدد
مشذب
مشرب
مشرح
مشرخ
مشرد
مشرع
مشرف
مشرق
مشرك
مشري
مششخ
مشعر
مشعل
مشغل
مشفا
مشفر
مشفى
مشقر
مشكا
مشكك
مشكل
مشكو
مشلب
مشلش
مشمش
مشمع
مشمل
مشهد
مشهر
مشوب
مشوح
مشور
مشوش
مشوط
مشوق
مشوه
مشوى
مشوي
مشيئ
مشيب
مشيخ
مشيد
مشير
مشيط
مشيع
مشيم
مشين
مصاب
مصار
مصاص
مصاط
مصاغ
مصاف
مصان
مصبح
مصبر
مصبو
مصحح
مصحف
مصحل
مصدر
مصدق
مصرح
مصرع
مصرف
مصرى
مصري
مصصم
مصطب
مصطف
مصعب
مصعد
مصغر
مصغي
مصفا
مصفح
مصفر
مصفف
مصفق
مصفي
مصلح
مصلو
مصلى
مصلي
مصمك
مصمم
مصنع
مصنف
مصهو
مصوب
مصوت
مصور
مصون
مصيب
مصيد
مصير
مصيف
مضاء
مضاد
مضار
مضاف
مضاو
مضاي
مضبط
مضجر
مضجع
مضحك
مضحي
مضرب
مضرج
مضطر
مضلع
مضلل
مضمخ
مضمر
مضمض
مضمن
مضني
مضيء
مضيئ
مضيع
مضيف
مضيق
مطار
مطاط
مطاع
مطاف
مطال
مطام
مطاو
مطاى
مطاي
مطبخ
مطبع
مطبق
مطبل
مطحن
مطرب
مطرح
مطرد
مطرز
مطرف
مطرق
مطري
مطعم
مطعن
مطلب
مطلع
مطلق
مطلك
مطلي
مطهر
مطهي
مطوا
مطور
مطوع
مطوف
مطول
مطوي
مطيب
مطير
مطيع
مطيل
مظان
مظفر
مظلل
مظلم
مظلي
مظهر
مظيل
معاد
معاذ
معار
معاش
معاف
معاق
معبأ
معبئ
معبد
معبر
معتد
معتز
معتق
معتم
معجب
معجز
معجل
معجم
معجن
معدد
معدل
معدم
معدن
معدو
معدي
معذب
معذر
معرب
معرس
معرض
معرف
معرك
معزب
معزز
معزل
معزي
معسل
معشر
معشق
معصب
معصر
معصم
معصي
معضد
معضل
معطا
معطر
معطف
معطل
معطي
معظم
معفا
معفى
معقب
معقد
معقل
معلا
معلب
معلش
معلق
معلل
معلم
معلن
معمد
معمر
معمع
معمق
معمل
معمم
معنا
معنف
معنى
معني
معهد
معوج
معوز
معوض
معوق
معول
معوي
معيب
معيد
معيز
معيش
معيض
معيط
معيق
معيل
معين
مغار
مغاز
مغاغ
مغال
مغبر
مغتر
مغذي
مغرب
مغرد
مغرر
مغرض
مغرف
مغرم
مغري
مغزا
مغزل
مغزى
مغزي
مغسل
مغشي
مغطا
مغطس
مغطى
مغطي
مغفر
مغفل
مغلب
مغلف
مغلق
مغلي
مغمس
مغمض
مغنا
مغنم
مغنى
مغني
مغوا
مغول
مغوي
مغيب
مغيث
مغير
مغيم
مفات
مفاج
مفاد
مفاز
مفتت
مفتح
مفتر
مفتش
مفتو
مفتى
مفتي
مفجر
مفجع
مفحط
مفخخ
مفخر
مفرج
مفرح
مفرخ
مفرد
مفرز
مفرش
مفرط
مفرغ
مفرق
مفزع
مفسح
مفسد
مفسر
مفصل
مفضل
مفضي
مفطر
مفعل
مفقر
مفكر
مفكك
مفلح
مفلس
مفلو
مفوت
مفوض
مفوه
مفيد
مفيل
مقاب
مقاد
مقار
مقاس
مقاص
مقال
مقام
مقاه
مقبب
مقبر
مقبض
مقبل
مقتب
مقتد
مقتض
مقتل
مقتن
مقحم
مقدح
مقدد
مقدر
مقدس
مقدم
مقرئ
مقرب
مقرر
مقرض
مقرف
مقرن
مقسط
مقسم
مقشر
مقصب
مقصد
مقصر
مقصف
مقصي
مقضي
مقطب
مقطر
مقطع
مقطم
مقعد
مقعر
مقفع
مقفل
مقفى
مقلا
مقلب
مقلد
مقلع
مقلق
مقلل
مقلم
مقنع
مقنن
مقهى
مقود
مقوس
مقوض
مقول
مقوم
مقوي
مقيت
مقيد
مقير
مقيل
مقيم
مكاب
مكار
مكاف
مكاك
مكان
مكاو
مكبر
مكبس
مكبل
مكتب
مكتظ
مكتف
مكثر
مكثف
مكحل
مكحو
مكدس
مكذب
مكرب
مكرر
مكرز
مكرس
مكرم
مكره
مكرو
مكسب
مكسر
مكسو
مكشر
مكعب
مكفر
مكلا
مكلس
مكلف
مكلم
مكمل
مكمم
مكمن
مكنس
مكنش
مكنن
مكوث
مكوج
مكور
مكوك
مكوم
مكون
مكوي
مكيد
مكيف
مكيم
مكين
ملآن
ملاء
ملاح
ملاخ
ملاد
ملاذ
ملاس
ملاط
ملاق
ملاك
ملال
ملام
ملاي
ملبس
ملبن
ملبي
ملتح
ملتف
ملتق
ملتو
ملثم
ملجأ
ملحد
ملحق
ملحم
ملحن
ملحي
ملخص
ملزم
ملصق
ملطخ
ملطش
ملعب
ملعق
ملغا
ملغم
ملغى
ملغي
ملفت
ملفق
ملقا
ملقب
ملقة
ملقط
ملقم
ملقن
ملقي
ملكى
ملكي
ملمح
ملمس
ملمع
ملهب
ملهم
ملهى
ملوا
ملوث
ملوح
ملوش
ملوك
ملول
ملوم
ملون
ملوى
ملوي
مليئ
مليج
مليح
مليخ
مليس
مليش
مليك
مليل
مليم
ممتد
ممتع
ممتل
ممتن
ممثل
ممجد
ممجو
ممحا
ممدد
ممرض
ممرن
ممزر
ممزق
ممسح
ممسك
ممسو
ممشا
ممشط
ممشى
ممطر
ممعن
ممكل
ممكن
مملا
مملح
مملك
ممهد
ممول
مموه
مميت
مميز
مميش
منأى
مناح
مناخ
مناد
منار
مناص
مناط
مناع
مناف
منام
منبج
منبر
منبع
منبه
منتج
منتز
منتم
منجا
منجد
منجز
منجل
منجم
منجي
منحت
منحط
منحل
منحى
مندب
مندد
مندس
مندق
مندل
مندو
منذر
منزل
منسف
منسق
منسى
منسي
منشآ
منشأ
منشؤ
منشئ
منشا
منشد
منشط
منشف
منشق
منشي
منصب
منصر
منصف
منضب
منضد
منضم
منضو
منطق
منظر
منظف
منظم
منعم
منغص
منفا
منفذ
منفر
منفع
منفق
منفى
منقب
منقت
منقح
منقذ
منقط
منقف
منكب
منكر
منمق
منمن
منهج
منهك
منوب
منور
منوط
منوع
منوف
منوم
منوه
منوي
منيا
منيب
منير
منيع
منيف
مهاب
مهاج
مهاد
مهار
مهاز
مهام
مهان
مهبط
مهبل
مهتا
مهتد
مهتر
مهتز
مهتم
مهجر
مهجن
مهدا
مهدد
مهدر
مهدم
مهدى
مهدي
مهذب
مهرب
مهرج
مهري
مهزل
مهزو
مهشم
مهلب
مهلك
مهلل
مهما
مهمش
مهمل
مهنئ
مهنا
مهند
مهنى
مهني
مهور
مهوس
مهول
مهيأ
مهيئ
مهيب
مهيج
مهيد
مهير
مهيض
مهين
مواء
مواج
مواد
موار
مواز
مواس
مواش
مواض
مواط
مواف
مواق
موال
مواي
موبي
موتا
موتر
موتو
موتى
موتي
موثر
موثق
موجب
موجد
موجز
موجع
موجه
موجى
موجي
موحد
موحش
موحل
موحي
موخر
مودع
مودم
مودي
مورا
مورث
مورد
مورس
مورف
مورق
مورك
مورم
مورو
موري
موزع
موزي
موسر
موسس
موسع
موسك
موسم
موسو
موسى
موسي
موشح
موشر
موشك
موشن
موشي
موصل
موصي
موضح
موضع
موضي
موطن
موظف
موعد
موعظ
موغل
موغو
موفد
موفر
موفق
موفي
موقت
موقد
موقر
موقع
موقف
موقق
موقن
موكب
موكد
موكل
موكو
مولا
مولج
مولد
مولر
مولع
مولف
مولن
مولو
مولى
مولي
مومب
مومس
مومن
مومو
مومي
مونت
مونج
موند
مونس
مونش
مونغ
مونو
موهب
مويا
موير
مويز
مويس
مويل
مويه
ميؤو
ميئو
مياح
مياد
ميار
مياس
ميال
ميان
مياه
ميتر
ميتز
ميتس
ميتش
ميتم
ميثا
ميثم
ميجر
ميجل
ميجي
ميحد
ميدا
ميدل
ميدو
ميدي
ميرا
ميرز
ميرس
ميرش
ميرف
ميرك
ميرل
ميرو
ميرى
ميري
ميزر
ميزو
ميسر
ميسم
ميسى
ميشا
ميشل
ميشو
ميغر
ميغل
ميفع
ميقا
ميكا
ميكر
ميكس
ميكل
ميكن
ميكو
ميكى
ميكي
ميلر
ميلز
ميلس
ميلم
ميلو
ميلي
ميمس
ميمن
مينا
مينج
ميند
مينغ
مينو
ميني
ميهى
ميهي
ميور
ميوز
ميوس
ميوع
ميول
ميون
ميير
نأتي
نأخذ
نأكل
نؤثر
نؤمن
نؤهل
نؤيد
نائب
نائل
نائم
نائي
نابت
نابذ
نابض
نابع
نابغ
نابل
نابه
نابو
نابي
ناتئ
ناتج
ناتو
ناثر
ناجح
ناجز
ناجع
ناجم
ناجى
ناجي
ناحل
ناحي
ناخب
ناخذ
نادر
نادل
نادم
نادى
نادي
نارى
ناري
نازح
نازع
نازف
نازك
نازل
نازى
نازي
ناسخ
ناسف
ناسك
ناشئ
ناشب
ناشد
ناشر
ناشط
ناشف
ناشي
ناصب
ناصح
ناصر
ناصع
ناصف
ناصي
ناضج
ناضر
ناضل
ناطح
ناطر
ناطق
ناظر
ناظم
ناعس
ناعم
ناغت
ناغي
نافث
نافخ
نافد
نافذ
نافر
نافس
نافع
نافق
نافل
نافي
ناقد
ناقش
ناقص
ناقض
ناقل
ناكا
ناكر
ناكل
نامى
نامي
نانت
نانج
نانس
نانو
ناني
ناهب
ناهد
ناهز
ناهس
ناهض
ناهل
ناهي
ناور
ناول
ناوم
ناوي
نايب
نايد
ناير
نايس
نايف
نايك
نايل
نايم
نبات
نباح
نباط
نبال
نباه
نبخس
نبدأ
نبدل
نبرر
نبرز
نبرو
نبشر
نبطي
نبعث
نبكي
نبلغ
نبنى
نبني
نبوء
نبوح
نبوى
نبوي
نبيذ
نبيع
نبيل
نبين
نبيه
نتأم
نتاج
نتاف
نتبع
نتبن
نتجه
نتحد
نتحر
نتحس
نتحل
نتحم
نتخذ
نتخط
نتخل
نترك
نترو
نتسل
نتصد
نتعب
نتغا
نتغن
نتفق
نتقن
نتكل
نتلق
نتله
نتوء
نتوج
نتوخ
نتوس
نتوق
نتيج
نتيح
نتيف
نتين
نثار
نثري
نثير
نجاب
نجاح
نجاد
نجار
نجاس
نجاش
نجاع
نجدي
نجرب
نجرى
نجري
نجعل
نجعي
نجلب
نجلس
نجلى
نجلي
نجمع
نجمي
نجنب
نجود
نجور
نجوع
نجول
نجوم
نجوى
نجيب
نجيد
نجيف
نجيل
نجيم
نحات
نحاس
نحاف
نحال
نحبط
نحتج
نحتف
نحتل
نحتم
نحتي
نحدث
نحذر
نحرر
نحرز
نحرق
نحرم
نحسب
نحسد
نحصل
نحفر
نحكي
نحمد
نحمل
نحمي
نحيا
نحيب
نحيط
نحيف
نحيل
نحيي
نخاس
نخاع
نخاف
نخال
نخبر
نختر
نختز
نخدم
نخرب
نخرج
نخسر
نخفي
نخلص
نخلط
نخلق
نخلي
نخيب
نخير
نخيش
نخيل
نداء
نداؤ
ندائ
نداف
ندام
نداو
ندخل
ندرس
ندرى
ندري
ندعم
ندعو
ندعي
ندوب
ندور
ندير
نديم
ندين
نذال
نذبح
نذكر
نذور
نذير
نراع
نربح
نربي
نرتب
نرتق
نرجس
نرجع
نرجو
نرحل
نرحم
نرسل
نرسي
نرشح
نرضى
نرضي
نرعا
نرفز
نركب
نركز
نرمي
نروج
نروح
نروي
نريح
نريد
نزار
نزاع
نزال
نزاه
نزدا
نزكي
نزوح
نزود
نزور
نزوع
نزول
نزوى
نزيد
نزير
نزيف
نزيل
نزيم
نزيه
نسأل
نساء
نساؤ
نسائ
نساب
نساج
نساك
نسبي
نستد
نستك
نستل
نسجل
نسعد
نسعى
نسقط
نسكن
نسلك
نسلم
نسمح
نسمع
نسمي
نسهر
نسهل
نسور
نسوي
نسيب
نسيج
نسير
نسيم
نشاء
نشائ
نشاب
نشار
نشاز
نشاط
نشاف
نشال
نشتر
نشته
نشجع
نشخص
نشرح
نشرع
نشعر
نشعل
نشكر
نشكو
نشمي
نشهد
نشوئ
نشوب
نشوف
نشوي
نشيد
نشير
نشيط
نشيع
نشيل
نصاب
نصار
نصبح
نصبو
نصحو
نصدق
نصرف
نصري
نصغي
نصفى
نصفي
نصلح
نصنف
نصوت
نصوح
نصور
نصوص
نصول
نصوم
نصيب
نصيح
نصير
نصيف
نضار
نضال
نضحك
نضرب
نضطر
نضمن
نضوب
نطاط
نطاع
نطاف
نطاق
نطال
نطرح
نطعم
نطلب
نطلع
نطمح
نطمع
نطنز
نطهر
نطور
نطوف
نطوي
نطيح
نطير
نطيع
نظار
نظاف
نظام
نظري
نظهر
نظير
نظيف
نظيم
نعاج
نعاس
نعال
نعام
نعبد
نعبر
نعتب
نعتد
نعتز
نعتق
نعثر
نعجب
نعذر
نعرب
نعرف
نعزي
نعشق
نعطل
نعطي
نعفي
نعلم
نعمر
نعمل
نعمي
نعنع
نعود
نعوش
نعوض
نعول
نعوم
نعيد
نعير
نعيس
نعيش
نعيق
نعيم
نغرق
نغضب
نغطي
نغلب
نغني
نغيب
نغير
نفاث
نفاخ
نفاد
نفاذ
نفاس
نفاع
نفاق
نفاي
نفتا
نفتح
نفتش
نفدي
نفرح
نفرق
نفرو
نفسى
نفسي
نفشل
نفطى
نفطي
نفعي
نفقد
نفكر
نفهم
نفود
نفوذ
نفور
نفوز
نفوس
نفوق
نفيد
نفير
نفيس
نفيض
نقاء
نقائ
نقاب
نقاد
نقار
نقاز
نقاش
نقاط
نقال
نقاه
نقاو
نقبض
نقبي
نقتد
نقتص
نقتل
نقدر
نقدم
نقدى
نقدي
نقرأ
نقرؤ
نقرب
نقرس
نقسم
نقصر
نقعد
نقفز
نقنع
نقود
نقوش
نقول
نقوم
نقوي
نقيب
نقير
نقيس
نقيق
نقيم
نكات
نكاح
نكاد
نكاز
نكاس
نكاف
نكاي
نكبر
نكتب
نكتف
نكثر
نكذب
نكرم
نكسب
نكسر
نكلف
نكلم
نكمل
نكوص
نكون
نكير
نلبس
نلتف
نلتق
نلجأ
نلحق
نلزم
نلعب
نلغي
نلفت
نلمح
نلمس
نلوم
نماء
نمائ
نمار
نماص
نمام
نمذج
نمرس
نمري
نمسا
نمشي
نمضي
نمطي
نمكن
نملك
نملي
نمنح
نمنع
نمنم
نمور
نمير
نميل
نميم
نناد
ننال
ننبه
ننتب
ننتق
ننتم
ننته
ننجر
ننجز
ننحن
نندم
ننزع
ننزل
ننسا
ننسب
ننسج
ننسى
ننشد
ننشر
ننصح
ننصر
ننصف
ننظر
ننغر
ننفي
ننقد
ننقل
ننكر
ننوي
نهاب
نهاد
نهار
نهام
نهاي
نهبو
نهتد
نهدر
نهدي
نهرب
نهرو
نهرى
نهري
نهنئ
نهور
نهوض
نهير
نوائ
نواب
نواج
نواح
نواد
نوار
نواز
نواس
نواص
نواظ
نواف
نواق
نوال
نوام
نوبخ
نوبل
نوبى
نوبي
نوتر
نوتس
نوجد
نوخذ
نودع
نورا
نورث
نورد
نورس
نوري
نوصل
نوصي
نوعي
نوفر
نوفل
نوفو
نوفي
نوقش
نوقف
نوكس
نوكل
نولد
نومس
نومي
نونو
نوني
نووى
نووي
نويد
نوير
نويس
نويش
نويع
نويف
نويل
نياب
نياح
نيار
نياز
نياس
نياف
نيام
نيبل
نيبو
نيتر
نيتز
نيتس
نيتش
نيتو
نيتي
نيجر
نيدر
نيدو
نيرب
نيرف
نيرو
نيزك
نيسر
نيشن
نيفر
نيفي
نيقي
نيكا
نيكر
نيكس
نيكل
نيكو
نيكي
نيلز
نيلس
نيلي
نيمو
نينو
نيني
نيور
نيوز
نيوس
نيوف
نيوم
هائج
هائل
هائم
هابر
هابس
هابط
هابل
هابي
هاتر
هاتش
هاتف
هاته
هاجد
هاجر
هاجس
هاجل
هاجم
هاجي
هادئ
هادر
هادف
هادم
هادى
هادي
هاذي
هارب
هارد
هارف
هارم
هارو
هاري
هازل
هاسب
هاسل
هاشل
هاشم
هاضم
هاطل
هاغل
هاغن
هافر
هافل
هافن
هاكا
هاكر
هالح
هالد
هالر
هالس
هالش
هالف
هالك
هالو
هامد
هامر
هامس
هامش
هامل
هانئ
هانج
هاند
هانز
هانس
هانغ
هانك
هانم
هانو
هانى
هاني
هاهو
هاوس
هاول
هاون
هاوي
هايا
هايب
هايت
هايج
هايد
هاير
هايز
هايس
هايغ
هايف
هايك
هايل
هايم
هباء
هباب
هباس
هباش
هبري
هبوب
هبوط
هبيد
هبير
هتار
هتاف
هتان
هتبق
هتجي
هتلر
هتمي
هتيل
هتيم
هجاء
هجائ
هجان
هجرس
هجرى
هجري
هجوم
هجير
هجين
هداب
هداج
هدار
هداس
هداف
هدام
هدان
هداي
هدلق
هدهد
هدوء
هدوئ
هدوم
هديب
هدير
هديل
هذلي
هذيل
هذين
هراء
هراب
هرات
هرار
هراس
هراو
هربس
هرتا
هرتز
هرسك
هرطق
هرفي
هرقل
هرمز
هرمس
هرمل
هرمي
هروب
هرول
هرير
هريس
هريش
هزار
هزاز
هزاع
هزال
هزلي
هزيع
هزيل
هزيم
هسام
هشاش
هشام
هشيم
هضاب
هضمى
هضمي
هضيب
هفوف
هقول
هكار
هكذا
هلاب
هلاك
هلال
هلام
هلمو
هلوس
هلوى
هليب
هليل
همام
همبا
همجى
همجي
همدر
همرش
همشر
هموم
هميل
هميم
هناء
هنائ
هناك
هنتر
هنجر
هندس
هندى
هندي
هنري
هنغب
هنمش
هنود
هنوف
هنيئ
هنيب
هنيد
ههنا
هواء
هوائ
هواد
هوار
هواش
هواي
هوبر
هوبز
هوبس
هوبي
هوتو
هوجم
هوجن
هوجو
هودج
هودل
هورس
هورل
هورن
هوشر
هوشي
هوغن
هوغو
هوفر
هوفل
هوكر
هوكس
هوكى
هوكي
هولد
هولز
هولو
هولي
هومو
هونج
هونغ
هوير
هويس
هويش
هياج
هيام
هيبي
هيتس
هيتو
هيثم
هيجل
هيدا
هيدي
هيذر
هيرب
هيرد
هيرش
هيرف
هيرو
هيسن
هيشر
هيغل
هيكس
هيكل
هيلث
هيلد
هيلر
هيلز
هيلس
هيلم
هيلو
هيلي
هيمن
هيمو
هينز
هينو
هيوز
هيوم
وأوب
وئام
وائل
وابل
واتس
واتش
واثب
واثق
واجب
واجد
واجه
واحد
واخد
وادع
وادى
وادي
وارث
وارد
وارف
وارم
وارن
وازر
وازع
وازن
واسط
واسع
واشي
واصف
واصل
واضح
واضع
واطس
واعد
واعر
واعظ
واعي
وافا
وافد
وافر
وافق
وافي
واقع
واقف
واقي
واكب
واكد
واكل
والا
والد
والى
والي
وانغ
واهب
واهم
واهن
واهي
وايت
وايد
وباء
وبيئ
وتري
وتيد
وتير
وثاب
وثاق
وثقى
وثني
وثوق
وثير
وثيق
وجاه
وجوب
وجود
وجوم
وجوه
وجيز
وجيه
وحشي
وحوش
وحيد
وخيم
وداد
وداع
ودود
وديع
وذيب
وراء
ورائ
وراث
وراق
وردي
ورغي
ورقي
ورلد
ورود
وريث
وريد
وزار
وزان
وزرا
وزني
وزير
وساد
وساط
وسام
وسطى
وسطي
وسكى
وسكي
وسمي
وسيط
وسيع
وسيل
وسيم
وشاح
وشاي
وشمي
وشوش
وشيج
وشيك
وصاف
وصال
وصاي
وصفو
وصوف
وصول
وصيف
وضاح
وضعي
وضوء
وضوح
وضيع
وطنى
وطني
وطيس
وظيف
وعاء
وعاظ
وعظي
وعود
وعيد
وعيل
وفاء
وفائ
وفاض
وفاق
وفدي
وفود
وفور
وفير
وفيق
وقاح
وقاد
وقار
وقاي
وقفي
وقود
وقور
وقوع
وقوف
وقيع
وكال
وكفر
وكير
وكيل
ولاء
ولاأ
ولائ
ولاد
ولاي
ولتا
ولتر
ولوج
ولوع
ولوغ
وليد
وليم
وماي
وملح
وميض
ونسو
وهاب
وهاج
وهبي
وهمي
وهيب
ووتش
وودز
ووشو
ووكر
وولش
وولف
ويبر
ويحك
ويست
ويشى
ويصا
ويفر
ويكن
ويكي
ويلز
ويلش
ويلي
وينر
يأبه
يأتى
يأتي
يأثم
يأخد
يأخذ
يأذن
يأسر
يأسف
يأكل
يألف
يألو
يأمر
يأمل
يأمن
يأنس
يأنف
يأوي
يؤتي
يؤثر
يؤجج
يؤجر
يؤجل
يؤخذ
يؤخر
يؤدب
يؤدى
يؤدي
يؤذن
يؤذي
يؤرخ
يؤرق
يؤسس
يؤسف
يؤشر
يؤصل
يؤطر
يؤكد
يؤكل
يؤلب
يؤلف
يؤلم
يؤمر
يؤمل
يؤمن
يؤنب
يؤنس
يؤهل
يؤول
يؤوي
يؤيد
ياأي
يائس
يابس
يابن
يابو
يابي
ياتر
ياجي
ياحي
ياخد
ياخذ
يادل
يارا
يارب
يارد
يارس
يارو
ياري
يازا
يازج
يازي
ياسر
ياسو
ياطر
ياعم
ياغي
يافا
يافط
يافع
يافل
يافي
ياكل
ياكو
يالا
يالل
ياله
يالو
ياما
يامر
يامل
يامن
يامي
يانج
يانز
يانس
يانع
يانغ
ياهل
ياهو
ياور
ياوو
يباب
يباح
يباد
يبار
يباس
يباع
يبال
يبان
يبتر
يبتز
يبتغ
يبتل
يبجل
يبحث
يبحر
يبخس
يبخل
يبدء
يبدآ
يبدأ
يبدؤ
يبدا
يبدد
يبدر
يبدع
يبدل
يبدو
يبدي
يبذر
يبذل
يبرئ
يبرح
يبرد
يبرر
يبرز
يبرع
يبرق
يبرم
يبرو
يبري
يبسط
يبشر
يبصر
يبصق
يبطل
يبطن
يبعث
يبعد
يبعن
يبغض
يبغي
يبقى
يبقي
يبكى
يبكي
يبلع
يبلغ
يبلل
يبلى
يبلي
يبني
يبهج
يبهر
يبوح
يبور
يبوس
يبول
يبون
يبيت
يبيح
يبيد
يبير
يبيض
يبيع
يبيل
يبين
يتأج
يتأذ
يتأس
يتأم
يتأن
يتاح
يتام
يتبد
يتبع
يتبق
يتبن
يتثن
يتجل
يتجن
يتجه
يتحت
يتحد
يتحر
يتحط
يتحف
يتحل
يتخد
يتخذ
يتخط
يتخف
يتخل
يتدل
يتدن
يترب
يترج
يترق
يترك
يترو
يتزي
يتسع
يتسق
يتسل
يتسم
يتسن
يتسي
يتشح
يتشر
يتصد
يتصف
يتصل
يتضح
يتعب
يتعد
يتعر
يتعز
يتعش
يتعظ
يتغذ
يتغن
يتفش
يتفض
يتفق
يتقد
يتقص
يتقن
يتقو
يتقي
يتكئ
يتكر
يتكس
يتكل
يتلط
يتلف
يتلق
يتلو
يتمن
يتنح
يتنز
يتني
يتهد
يتهم
يتوب
يتوج
يتوخ
يتوف
يتوق
يتوك
يتول
يتوه
يتيح
يتيم
يثاب
يثار
يثبت
يثبط
يثرب
يثري
يثقف
يثقل
يثلج
يثمر
يثمن
يثني
يثور
يثيب
يثير
يجاب
يجار
يجاز
يجال
يجان
يجبر
يجتث
يجتر
يجتز
يجحد
يجدد
يجدر
يجدن
يجدو
يجدي
يجذب
يجرأ
يجرؤ
يجرب
يجرح
يجرد
يجرف
يجرم
يجرى
يجري
يجزئ
يجزم
يجزي
يجسد
يجسم
يجعل
يجفف
يجلب
يجلد
يجلس
يجلو
يجلي
يجمد
يجمع
يجمل
يجنب
يجنح
يجند
يجني
يجهد
يجهر
يجهز
يجهش
يجهض
يجهل
يجوب
يجود
يجور
يجوز
يجوع
يجول
يجىء
يجيء
يجيئ
يجيب
يجيد
يجير
يجيز
يجيك
يجيل
يحار
يحاك
يحال
يحبب
يحبذ
يحبس
يحبط
يحبو
يحتج
يحتد
يحتر
يحتش
يحتف
يحتك
يحتل
يحتم
يحتو
يحجب
يحجز
يحجم
يحدث
يحدد
يحدق
يحدو
يحذر
يحذف
يحذو
يحرث
يحرج
يحرر
يحرز
يحرس
يحرص
يحرض
يحرف
يحرق
يحرك
يحرم
يحزم
يحزن
يحسب
يحسد
يحسم
يحسن
يحسو
يحشد
يحشر
يحصد
يحصر
يحصل
يحصن
يحصي
يحضر
يحضن
يحطم
يحظر
يحظى
يحظي
يحفر
يحفز
يحفظ
يحفل
يحقد
يحقر
يحقق
يحقن
يحكم
يحكي
يحلف
يحلق
يحلل
يحلم
يحلو
يحمد
يحمس
يحمل
يحمي
يحنو
يحور
يحوز
يحوط
يحول
يحوم
يحوي
يحيا
يحيد
يحير
يحيط
يحيك
يحيل
يحين
يحيى
يحيي
يخاف
يخال
يخبئ
يخبر
يخبز
يخبو
يختر
يختص
يختف
يختل
يختم
يخجل
يخدر
يخدش
يخدع
يخدم
يخذل
يخرب
يخرج
يخرس
يخرق
يخزن
يخسر
يخشا
يخشي
يخصص
يخصم
يخضع
يخطئ
يخطب
يخطر
يخطط
يخطف
يخطو
يخفض
يخفف
يخفي
يخلد
يخلص
يخلط
يخلع
يخلف
يخلق
يخلو
يخلي
يخمد
يخنق
يخوت
يخوض
يخوف
يخول
يخون
يخيب
يخير
يخيط
يخيف
يخيم
يدأب
يدار
يداس
يداك
يداه
يداو
يداي
يدبر
يدحر
يدحض
يدخر
يدخل
يدخن
يدرب
يدرج
يدرس
يدرك
يدري
يدشن
يدعم
يدعو
يدعى
يدعي
يدفئ
يدفع
يدفن
يدقق
يدلف
يدلك
يدلل
يدلي
يدمج
يدمر
يدمن
يدمي
يدنس
يدنو
يدهس
يدهش
يدور
يدوس
يدوم
يدون
يدوى
يدوي
يدير
يديل
يديم
يدين
يذاع
يذبح
يذبل
يذرف
يذعن
يذكر
يذكي
يذلل
يذهب
يذهل
يذوب
يذود
يذوق
يذيب
يذيع
يذيق
يذيل
يرأس
يرأف
يراد
يراع
يراق
يراك
يرام
يربت
يربح
يربط
يربك
يربو
يربي
يرتئ
يرتب
يرتج
يرتد
يرتش
يرتض
يرتط
يرتع
يرتق
يرتل
يرتو
يرثي
يرجئ
يرجح
يرجع
يرجم
يرجو
يرجى
يرجي
يرحب
يرحل
يرحم
يرخص
يردد
يردع
يردف
يردن
يرزق
يرسب
يرسخ
يرسل
يرسم
يرسو
يرسى
يرسي
يرشح
يرشد
يرشق
يرصد
يرضخ
يرضع
يرضي
يرطب
يرعا
يرعب
يرغب
يرغم
يرفد
يرفس
يرفض
يرفع
يرفق
يرفل
يرقب
يرقد
يرقص
يركب
يركز
يركض
يركع
يركل
يركن
يرمز
يرمق
يرمم
يرمي
يرنو
يرهب
يرهق
يرهن
يروب
يروج
يروح
يروس
يروض
يروع
يروق
يرول
يروم
يرون
يروي
يريا
يريح
يريد
يريس
يزاح
يزاد
يزار
يزال
يزبك
يزحف
يزخر
يزدر
يزدي
يزرع
يزرن
يزري
يزعج
يزعق
يزعل
يزعم
يزمع
يزهد
يزهق
يزهو
يزوج
يزود
يزور
يزول
يزيح
يزيد
يزيف
يزيل
يزين
يسأل
يسأم
يساء
يسار
يساق
يسبب
يسبح
يسبر
يسبغ
يسبق
يسبي
يستب
يستح
يستر
يستع
يستق
يستل
يستم
يستن
يسته
يستو
يستي
يسجد
يسجل
يسجن
يسحب
يسحر
يسحق
يسحل
يسخر
يسخط
يسخن
يسدد
يسدل
يسدي
يسرا
يسرب
يسرح
يسرد
يسرع
يسرف
يسرق
يسرى
يسري
يسطر
يسطع
يسطو
يسعد
يسعف
يسعى
يسعي
يسفر
يسفك
يسقط
يسقي
يسكب
يسكت
يسكر
يسكن
يسكي
يسلب
يسلح
يسلخ
يسلط
يسلق
يسلك
يسلم
يسلي
يسمح
يسمع
يسمم
يسمن
يسمو
يسمى
يسمي
يسند
يسهر
يسهل
يسهم
يسوء
يسوؤ
يسود
يسوس
يسوع
يسوغ
يسوف
يسوق
يسوى
يسوي
يسيئ
يسيب
يسير
يسيل
يشاء
يشاؤ
يشاد
يشار
يشاي
يشبع
يشبه
يشتت
يشتد
يشتر
يشتق
يشتك
يشتم
يشجب
يشجع
يشحذ
يشحن
يشخر
يشخص
يشدد
يشدك
يشدن
يشدو
يشرب
يشرح
يشرد
يشرع
يشرف
يشرق
يشرك
يشطب
يشطر
يشعر
يشعل
يشغل
يشفع
يشفي
يشكر
يشكك
يشكل
يشكو
يشمر
يشمل
يشنق
يشهد
يشهر
يشوب
يشوش
يشوع
يشوف
يشوه
يشوى
يشوي
يشيب
يشيخ
يشيد
يشير
يشيع
يشيل
يصاب
يصار
يصبح
يصبر
يصبغ
يصبن
يصبو
يصحب
يصحح
يصحو
يصدأ
يصدح
يصدر
يصدع
يصدق
يصدم
يصرح
يصرخ
يصرع
يصرف
يصطف
يصعب
يصعد
يصعق
يصغر
يصغي
يصفع
يصفق
يصفو
يصقل
يصلح
يصلى
يصلي
يصمت
يصمد
يصمم
يصنع
يصنف
يصهر
يصوب
يصوت
يصور
يصوغ
يصول
يصوم
يصون
يصيب
يصيح
يصيد
يصير
يصيغ
يضاء
يضاد
يضار
يضاف
يضبط
يضجر
يضحك
يضحي
يضخم
يضرب
يضرم
يضطر
يضعف
يضغط
يضفي
يضلل
يضمد
يضمر
يضمن
يضيء
يضيئ
يضير
يضيع
يضيف
يضيق
يطاح
يطاق
يطال
يطام
يطبخ
يطبع
يطبق
يطحن
يطرأ
يطرب
يطرح
يطرد
يطرز
يطرق
يطرى
يطعم
يطعن
يطفئ
يطفح
يطفو
يطلب
يطلع
يطلق
يطمح
يطمس
يطمع
يطهر
يطور
يطوع
يطوف
يطوق
يطول
يطوي
يطيب
يطيح
يطير
يطيع
يطيق
يطيل
يظفر
يظلم
يظهر
يعاب
يعاد
يعار
يعال
يعان
يعبأ
يعبئ
يعبث
يعبد
يعبر
يعتب
يعتد
يعتر
يعتز
يعتق
يعتل
يعتم
يعتن
يعثر
يعجب
يعجز
يعجل
يعجن
يعدد
يعدل
يعدم
يعدو
يعذب
يعذر
يعرب
يعرض
يعرف
يعري
يعزز
يعزف
يعزل
يعزم
يعزو
يعزي
يعسر
يعشش
يعشق
يعصر
يعصف
يعصم
يعضد
يعطر
يعطف
يعطل
يعطو
يعطى
يعطي
يعظم
يعفو
يعفي
يعقب
يعقد
يعقل
يعكر
يعكس
يعكف
يعلب
يعلق
يعلل
يعلم
يعلن
يعلو
يعلي
يعمد
يعمر
يعمق
يعمل
يعمم
يعمي
يعنف
يعنى
يعني
يعهد
يعود
يعوز
يعوض
يعوق
يعول
يعوم
يعون
يعيب
يعيث
يعيد
يعير
يعيش
يعيق
يعيل
يعين
يغار
يغال
يغان
يغبط
يغتر
يغدر
يغدق
يغدو
يغذي
يغرب
يغرد
يغرر
يغرز
يغرس
يغرف
يغرق
يغرم
يغري
يغزل
يغزو
يغسل
يغضب
يغطس
يغطي
يغفر
يغفل
يغفو
يغلب
يغلط
يغلف
يغلق
يغلي
يغمر
يغمز
يغمس
يغمض
يغنم
يغني
يغور
يغوص
يغوي
يغيا
يغيب
يغيث
يغير
يغيظ
يفاع
يفتأ
يفتت
يفتح
يفتر
يفتش
يفتك
يفتن
يفتي
يفجر
يفجع
يفحص
يفخر
يفرج
يفرح
يفرخ
يفرد
يفرز
يفرش
يفرض
يفرط
يفرغ
يفرق
يفرك
يفرن
يفزع
يفسح
يفسد
يفسر
يفشل
يفصح
يفصل
يفضح
يفضل
يفضي
يفطر
يفطن
يفعل
يفقد
يفقه
يفكر
يفكك
يفلت
يفلح
يفلس
يفند
يفنى
يفني
يفهم
يفوت
يفوح
يفور
يفوز
يفوض
يفوق
يفيد
يفيض
يفيق
يقاد
يقاس
يقاض
يقال
يقام
يقبض
يقبع
يقبل
يقتد
يقتر
يقتص
يقتض
يقتل
يقتن
يقحم
يقدر
يقدس
يقدم
يقدن
يقذف
يقرأ
يقرؤ
يقرب
يقرر
يقرض
يقرع
يقرن
يقسط
يقسم
يقسو
يقشر
يقصد
يقصر
يقصف
يقصي
يقضي
يقطر
يقطع
يقطف
يقطن
يقعد
يقفز
يقفل
يقلب
يقلد
يقلع
يقلق
يقلل
يقلن
يقمع
يقنع
يقنن
يقهر
يقود
يقوض
يقول
يقوم
يقوي
يقيد
يقيس
يقيض
يقيل
يقيم
يقين
يكاد
يكبح
يكبد
يكبر
يكبل
يكتب
يكتر
يكتف
يكتم
يكتو
يكثر
يكثف
يكحل
يكدح
يكدس
يكذب
يكرب
يكرر
يكرس
يكرم
يكره
يكسب
يكسر
يكسل
يكسو
يكسي
يكشر
يكشف
يكفر
يكفل
يكفى
يكفي
يكلف
يكلل
يكلم
يكلي
يكمل
يكمن
يكنس
يكون
يكوى
يكوي
يكيب
يكيد
يكيف
يكيل
يلاس
يلاق
يلام
يلبث
يلبس
يلبي
يلتب
يلتف
يلتق
يلتم
يلجأ
يلجؤ
يلجئ
يلجم
يلحظ
يلحق
يلخص
يلدا
يلدز
يلدغ
يلدن
يلزم
يلسع
يلصق
يلطخ
يلطف
يلطم
يلعب
يلعق
يلعن
يلغى
يلغي
يلفت
يلفظ
يلقا
يلقب
يلقن
يلقي
يللي
يلمح
يلمز
يلمس
يلمع
يلهب
يلهث
يلهج
يلهم
يلهو
يلهي
يلوث
يلوح
يلوذ
يلوز
يلوك
يلوم
يلون
يلوي
يليز
يليس
يليق
يليك
يليم
يلين
يمار
يمام
يمان
يمتد
يمتص
يمتع
يمتل
يمتن
يمثل
يمجد
يمحو
يمدح
يمدد
يمرح
يمرر
يمرض
يمزج
يمزح
يمزق
يمسح
يمسس
يمسك
يمسي
يمشط
يمشى
يمشي
يمضغ
يمضي
يمطر
يمعن
يمقت
يمكث
يمكر
يمكن
يمكو
يملأ
يملؤ
يملئ
يملك
يملن
يملى
يملي
يمنح
يمنع
يمنى
يمني
يمهد
يمهل
يموت
يموج
يمور
يمول
يمون
يميت
يميز
يميط
يميل
يمين
يناد
ينار
يناط
يناك
ينال
ينام
ينبئ
ينبت
ينبث
ينبح
ينبذ
ينبر
ينبس
ينبش
ينبض
ينبع
ينبن
ينبه
ينتج
ينتر
ينتق
ينتم
ينته
ينثر
ينجب
ينجح
ينجد
ينجر
ينجز
ينجل
ينجم
ينجو
ينجي
ينحت
ينحر
ينحل
ينحن
ينحو
ينحي
ينخر
يندب
يندد
يندر
يندس
يندل
يندم
يندي
ينذر
ينزع
ينزف
ينزل
ينسا
ينسب
ينسج
ينسخ
ينسف
ينسق
ينسل
ينسن
ينسو
ينسى
ينسي
ينشأ
ينشئ
ينشب
ينشد
ينشر
ينشط
ينشق
ينصب
ينصح
ينصر
ينصف
ينضب
ينضج
ينضح
ينضم
ينضو
ينطا
ينطق
ينطل
ينطو
ينظر
ينظف
ينظم
ينعت
ينعش
ينعق
ينعم
ينعى
ينعي
ينغر
ينغز
ينغص
ينفث
ينفخ
ينفد
ينفذ
ينفر
ينفس
ينفض
ينفع
ينفق
ينفك
ينفى
ينفي
ينقب
ينقد
ينقذ
ينقر
ينقش
ينقص
ينقض
ينقع
ينقل
ينقي
ينكب
ينكر
ينكس
ينكل
ينكي
ينمو
ينمي
ينهب
ينهج
ينهر
ينهش
ينهض
ينهك
ينهل
ينهي
ينوء
ينوب
ينوح
ينور
ينوع
ينوف
ينول
ينوه
ينوي
ينيب
ينير
ينيس
ينيف
ينيك
يهاب
يهات
يهان
يهبط
يهتد
يهتز
يهتف
يهتك
يهتم
يهجر
يهجس
يهجم
يهجو
يهدأ
يهدئ
يهدد
يهدر
يهدف
يهدم
يهدو
يهدى
يهدي
يهذب
يهرب
يهرع
يهزم
يهشم
يهضم
يهفو
يهلك
يهلل
يهمس
يهمش
يهمك
يهمل
يهنئ
يهود
يهوذ
يهوش
يهول
يهون
يهوي
يهيأ
يهيئ
يهيب
يهيج
يهيل
يهيم
يهين
يوآخ
يوار
يواز
يواس
يواف
يواك
يوان
يوبخ
يوبو
يوبي
يوتا
يوتر
يوتو
يوثر
يوثق
يوجا
يوجب
يوجد
يوجز
يوجع
يوجه
يوجي
يوحد
يوحي
يودع
يورب
يورث
يورج
يورد
يورط
يورغ
يورك
يورن
يورو
يوري
يوزع
يوزف
يوزن
يوسا
يوسع
يوسف
يوسو
يوسي
يوشع
يوشك
يوشي
يوصف
يوصل
يوصم
يوصي
يوضح
يوضع
يوطد
يوطن
يوظف
يوعد
يوغا
يوغل
يوغي
يوفر
يوفق
يوفى
يوفي
يوقد
يوقر
يوقظ
يوقع
يوقف
يوقن
يوكا
يوكس
يوكل
يوكو
يوكي
يولا
يولد
يولع
يولم
يولو
يولى
يولي
يومى
يومي
يونج
يونس
يونغ
يوني
يوهم
يويف
يويل
يويو
ييأس
ييتس
ييري
ييسر
يينغ
##-01
##-03
##-05
##-06
##-07
##-09
##-10
##-11
##-13
##-14
##-15
##-16
##-17
##-18
##-19
##-20
##-21
##-22
##-23
##-24
##-25
##-26
##-27
##-28
##-29
##-30
##-31
##-32
##-33
##-34
##-35
##-37
##-38
##-40
##-45
##-49
##-50
##-60
##-64
##-65
##-70
##-74
##-75
##-77
##-79
##-80
##-81
##-82
##-83
##-84
##-85
##-86
##-87
##-88
##-89
##-90
##-91
##-92
##-93
##-94
##-95
##-96
##-97
##-98
##-99
##.00
##.02
##.15
##.24
##.31
##.43
##.48
##.58
##.59
##.65
##.79
##.97
##.99
##/01
##/02
##/03
##/04
##/05
##/06
##/07
##/08
##/09
##/10
##/11
##/12
##/13
##/14
##/15
##/16
##/17
##/18
##/19
##/20
##/21
##/22
##/23
##/24
##/25
##/26
##/27
##/28
##/29
##/30
##/31
##/32
##/33
##/34
##/35
##/36
##/37
##/38
##/39
##/40
##/41
##/45
##/49
##/50
##/55
##/58
##/59
##/60
##/62
##/64
##/65
##/66
##/67
##/68
##/70
##/71
##/72
##/73
##/74
##/75
##/76
##/77
##/78
##/79
##/80
##/81
##/82
##/83
##/84
##/85
##/86
##/87
##/88
##/89
##/90
##/91
##/92
##/93
##/94
##/95
##/96
##/97
##/98
##/99
##0-1
##0-2
##0-8
##0.0
##0.1
##0.2
##0.3
##0.4
##0.5
##0.6
##0.7
##0.8
##0.9
##0/1
##0/3
##0/4
##0/5
##001
##002
##010
##011
##021
##023
##024
##025
##027
##028
##029
##032
##033
##034
##035
##036
##037
##038
##039
##040
##041
##042
##043
##044
##045
##046
##047
##048
##049
##051
##053
##054
##055
##057
##058
##060
##061
##062
##063
##066
##067
##068
##069
##071
##072
##074
##075
##076
##077
##079
##081
##082
##083
##085
##087
##088
##089
##092
##093
##098
##1-1
##1-2
##1-7
##1-8
##1.0
##1.1
##1.2
##1.3
##1.4
##1.5
##1.6
##1.7
##1.8
##1.9
##1/1
##1/2
##1/3
##1/4
##1/5
##100
##101
##102
##103
##104
##105
##106
##107
##108
##109
##110
##112
##113
##114
##115
##116
##117
##118
##119
##120
##121
##122
##123
##124
##125
##126
##127
##128
##129
##130
##131
##132
##133
##134
##135
##136
##137
##138
##139
##140
##141
##142
##143
##144
##145
##146
##147
##148
##149
##150
##151
##152
##153
##154
##155
##156
##157
##158
##159
##160
##161
##162
##163
##164
##165
##166
##167
##168
##169
##170
##171
##172
##173
##174
##175
##176
##177
##178
##179
##180
##181
##182
##183
##184
##185
##186
##187
##188
##189
##190
##191
##192
##193
##194
##195
##196
##197
##198
##199
##2-1
##2-7
##2-8
##2.0
##2.1
##2.2
##2.3
##2.4
##2.5
##2.6
##2.7
##2.8
##2.9
##2/1
##2/2
##2/9
##200
##201
##202
##203
##204
##205
##206
##207
##208
##209
##210
##211
##212
##213
##214
##215
##216
##217
##218
##219
##220
##221
##223
##224
##225
##226
##227
##228
##229
##230
##231
##232
##233
##234
##235
##236
##237
##238
##239
##240
##241
##242
##243
##244
##245
##246
##247
##248
##249
##250
##251
##252
##253
##254
##255
##256
##257
##258
##259
##260
##261
##262
##263
##264
##265
##266
##267
##268
##269
##270
##271
##272
##273
##274
##275
##276
##277
##278
##279
##280
##281
##282
##283
##284
##285
##286
##287
##288
##289
##290
##291
##292
##293
##294
##295
##296
##297
##298
##299
##3-1
##3-2
##3-7
##3.0
##3.1
##3.2
##3.3
##3.4
##3.5
##3.6
##3.7
##3.8
##3.9
##3/1
##3/2
##300
##301
##302
##303
##304
##305
##306
##307
##308
##309
##310
##311
##312
##313
##314
##315
##316
##317
##318
##319
##320
##321
##322
##323
##324
##325
##326
##327
##328
##329
##330
##331
##332
##334
##335
##336
##337
##338
##339
##340
##341
##342
##343
##344
##345
##346
##347
##348
##349
##350
##351
##352
##353
##354
##355
##356
##357
##358
##359
##360
##361
##362
##363
##364
##365
##366
##367
##368
##369
##370
##371
##372
##373
##374
##375
##376
##377
##378
##379
##380
##381
##382
##383
##384
##385
##386
##387
##388
##389
##390
##391
##392
##393
##394
##395
##396
##397
##398
##399
##4-1
##4.0
##4.1
##4.2
##4.3
##4.4
##4.5
##4.6
##4.7
##4.8
##4.9
##4/1
##4/2
##4/3
##4/4
##4/5
##400
##401
##402
##403
##404
##405
##406
##407
##408
##409
##410
##411
##412
##413
##414
##415
##416
##417
##418
##419
##420
##421
##422
##423
##424
##425
##426
##427
##428
##429
##430
##431
##432
##433
##434
##435
##436
##437
##438
##439
##440
##441
##442
##443
##445
##446
##447
##448
##449
##450
##451
##452
##453
##454
##455
##456
##457
##458
##459
##460
##461
##462
##463
##464
##465
##466
##467
##468
##469
##470
##471
##472
##473
##474
##475
##476
##477
##478
##479
##480
##481
##482
##483
##484
##485
##486
##487
##488
##489
##490
##491
##492
##493
##494
##495
##496
##497
##498
##499
##5-1
##5-8
##5.0
##5.1
##5.2
##5.3
##5.4
##5.5
##5.6
##5.7
##5.8
##5.9
##5/1
##5/7
##500
##501
##502
##503
##505
##506
##507
##508
##509
##510
##511
##512
##513
##514
##515
##516
##517
##518
##519
##520
##521
##522
##523
##524
##525
##526
##527
##528
##529
##530
##531
##532
##533
##534
##535
##536
##537
##538
##539
##540
##541
##542
##543
##544
##545
##546
##547
##548
##549
##550
##551
##552
##553
##554
##556
##557
##558
##559
##560
##561
##562
##563
##564
##565
##566
##567
##568
##569
##570
##571
##572
##573
##574
##575
##576
##577
##578
##579
##580
##581
##582
##583
##584
##585
##586
##587
##588
##589
##590
##591
##592
##593
##594
##595
##596
##597
##598
##599
##6-1
##6.0
##6.1
##6.2
##6.3
##6.4
##6.5
##6.6
##6.7
##6.8
##6.9
##6/1
##6/2
##6/3
##6/4
##600
##601
##602
##603
##604
##605
##606
##607
##608
##609
##610
##611
##612
##613
##614
##615
##616
##617
##618
##619
##620
##621
##622
##623
##624
##625
##626
##627
##628
##629
##630
##631
##632
##633
##634
##635
##636
##637
##638
##639
##640
##641
##642
##643
##644
##645
##646
##647
##648
##649
##650
##651
##652
##653
##654
##655
##656
##657
##658
##659
##660
##661
##662
##663
##664
##665
##667
##668
##669
##670
##671
##672
##673
##674
##675
##676
##677
##678
##679
##680
##681
##682
##683
##684
##685
##686
##687
##688
##689
##690
##691
##692
##693
##694
##695
##696
##697
##698
##699
##7-1
##7-8
##7.0
##7.1
##7.2
##7.3
##7.4
##7.5
##7.6
##7.7
##7.8
##7.9
##7/1
##7/2
##7/3
##7/4
##7/5
##700
##701
##702
##703
##704
##705
##706
##707
##708
##709
##710
##711
##712
##713
##714
##715
##716
##717
##718
##719
##720
##721
##722
##723
##724
##725
##726
##727
##728
##729
##730
##731
##732
##733
##734
##735
##736
##737
##738
##739
##740
##741
##742
##743
##744
##745
##746
##747
##748
##749
##750
##751
##752
##753
##754
##755
##756
##757
##758
##759
##760
##761
##762
##763
##764
##765
##766
##767
##768
##769
##770
##771
##772
##773
##774
##775
##776
##778
##779
##780
##781
##782
##783
##784
##785
##786
##787
##788
##789
##790
##791
##792
##793
##794
##795
##796
##797
##798
##799
##8-1
##8-2
##8.0
##8.1
##8.2
##8.3
##8.4
##8.5
##8.6
##8.7
##8.8
##8.9
##8/1
##8/2
##8/3
##800
##801
##802
##803
##804
##805
##806
##807
##808
##809
##810
##811
##812
##813
##814
##815
##816
##817
##818
##819
##820
##821
##822
##823
##824
##825
##826
##827
##828
##829
##830
##831
##832
##833
##834
##835
##836
##837
##838
##839
##840
##841
##842
##843
##844
##845
##846
##847
##848
##849
##850
##851
##852
##853
##854
##855
##856
##857
##858
##859
##860
##861
##862
##863
##864
##865
##866
##867
##868
##869
##870
##871
##872
##873
##874
##875
##876
##877
##878
##879
##880
##881
##882
##883
##884
##885
##886
##887
##889
##890
##891
##892
##893
##894
##895
##896
##897
##898
##899
##9-1
##9.0
##9.1
##9.2
##9.3
##9.4
##9.5
##9.6
##9.7
##9.8
##9.9
##9/1
##9/2
##9/3
##9/4
##9/5
##900
##901
##902
##903
##904
##905
##906
##907
##908
##909
##910
##911
##912
##913
##914
##915
##916
##917
##918
##919
##920
##921
##922
##923
##924
##925
##926
##927
##928
##929
##930
##931
##932
##933
##934
##935
##936
##937
##938
##939
##940
##941
##942
##943
##944
##945
##946
##947
##948
##949
##950
##951
##952
##953
##954
##955
##956
##957
##958
##959
##960
##961
##962
##963
##964
##965
##966
##967
##968
##969
##970
##971
##972
##973
##974
##975
##976
##977
##978
##979
##980
##981
##982
##983
##984
##985
##986
##987
##988
##989
##990
##991
##992
##993
##994
##995
##996
##997
##998
##://
##ACC
##ACS
##ASA
##ASS
##AST
##ATA
##Ara
##CAT
##SAT
##STA
##The
##acc
##ace
##ach
##aci
##aco
##act
##ada
##add
##ade
##adh
##adi
##ado
##aha
##aid
##ail
##ain
##air
##ais
##ait
##ala
##ald
##ale
##ali
##all
##alm
##alo
##als
##alt
##ama
##ame
##ami
##amm
##ana
##anc
##and
##ane
##ani
##ann
##ano
##ans
##ant
##ara
##arc
##ard
##are
##ari
##arl
##arm
##arn
##aro
##arr
##ars
##art
##asa
##asc
##ase
##ash
##asi
##ass
##ast
##ata
##ate
##ath
##ati
##ato
##ats
##att
##aud
##aul
##aur
##aut
##cal
##can
##car
##ccu
##cel
##cer
##cha
##che
##chi
##cho
##cia
##cin
##cle
##cli
##clo
##coc
##com
##con
##cos
##cra
##cto
##cul
##cus
##dad
##dae
##dal
##dan
##dec
##del
##den
##der
##des
##dia
##din
##dis
##dit
##dol
##dom
##don
##dra
##dro
##ead
##eal
##ean
##ear
##eat
##eau
##ech
##eci
##eco
##ect
##eda
##edi
##eed
##eel
##een
##eer
##eet
##eha
##eil
##ein
##eit
##ela
##eld
##ele
##eli
##ell
##elo
##els
##elt
##ema
##eme
##emi
##emo
##ena
##enc
##end
##ene
##eni
##enn
##eno
##enr
##ens
##ent
##eon
##eor
##era
##erc
##erd
##ere
##eri
##erm
##ern
##ero
##err
##ers
##ert
##esi
##ess
##est
##eta
##ete
##eth
##ets
##ett
##eur
##eus
##eut
##had
##hai
##hal
##ham
##han
##har
##hat
##hed
##hei
##hem
##hen
##her
##hes
##het
##hic
##hil
##hin
##his
##hol
##hom
##hon
##hor
##hos
##hre
##hts
##hus
##ial
##ian
##ias
##ica
##ice
##ich
##ici
##ico
##ics
##ida
##ide
##idi
##ido
##ids
##ied
##iel
##ien
##ier
##ies
##iet
##ieu
##ila
##ild
##ile
##ili
##ill
##ilm
##ilo
##ils
##ima
##ime
##imi
##imm
##ina
##inc
##ind
##ine
##ini
##ino
##ins
##int
##inu
##iol
##ion
##ior
##ios
##ira
##ird
##ire
##irl
##irm
##iro
##irt
##isa
##isc
##ise
##ish
##isi
##ism
##iss
##ist
##ita
##ite
##ith
##iti
##ito
##its
##itt
##ium
##ius
##lac
##lad
##lam
##lan
##lar
##las
##lat
##led
##lee
##lem
##len
##ler
##les
##let
##lia
##lic
##lim
##lin
##lio
##lis
##lit
##lle
##lli
##loc
##lom
##lon
##lor
##los
##lot
##luc
##lue
##lum
##lus
##lut
##mal
##man
##mar
##mas
##mat
##med
##men
##mer
##mes
##met
##min
##mir
##mis
##mit
##mod
##mon
##mor
##mos
##mus
##nal
##nam
##nan
##nat
##nce
##nch
##nde
##ndi
##ndo
##ned
##nel
##ner
##nes
##net
##nic
##nie
##nin
##nis
##nit
##nno
##noc
##nol
##nom
##nor
##nos
##nsi
##nst
##nte
##nto
##ntr
##oad
##oca
##och
##oda
##ode
##odi
##ohn
##oid
##oin
##oir
##ois
##ola
##old
##ole
##oli
##oll
##olo
##ols
##olt
##oma
##ome
##omi
##omm
##omo
##oms
##ona
##ond
##one
##oni
##ono
##ons
##ont
##ood
##ool
##oom
##oon
##oor
##oot
##ora
##ord
##ore
##ori
##orm
##orn
##oro
##orr
##ors
##ort
##osa
##ose
##oss
##ost
##ota
##ote
##oth
##oti
##oto
##ots
##ott
##oul
##oun
##our
##ous
##out
##rac
##rad
##rah
##ral
##ram
##ran
##rar
##ras
##rat
##rea
##rec
##red
##ree
##rei
##rel
##rem
##ren
##res
##ret
##ria
##ric
##rid
##rie
##ril
##rim
##rin
##rio
##ris
##rit
##rna
##roc
##rod
##rol
##rom
##ron
##roo
##ros
##rou
##ruc
##rum
##run
##rus
##san
##sat
##sca
##sch
##sco
##sda
##sel
##sen
##ser
##ses
##set
##sha
##shi
##sho
##sia
##sin
##sis
##son
##sos
##ssa
##sse
##sta
##ste
##sti
##str
##tal
##tan
##tar
##tat
##ted
##tel
##tem
##ten
##ter
##tes
##the
##tic
##til
##tin
##tis
##tom
##ton
##tor
##tos
##tra
##tre
##tri
##trl
##tro
##tto
##tun
##tur
##tus
##uad
##ual
##uan
##uar
##uch
##uda
##ude
##udi
##uel
##uer
##ues
##uic
##uid
##uin
##uis
##uit
##ula
##ule
##uli
##ull
##uls
##ult
##uma
##umi
##una
##unc
##und
##une
##uni
##unn
##uns
##unt
##ura
##urd
##ure
##uri
##urn
##uro
##urs
##urt
##use
##ush
##uss
##ust
##uta
##ute
##uth
##uts
##utt
##آخر
##آرب
##آكل
##أبو
##أتى
##أتي
##أثر
##أجر
##أحب
##أحد
##أخذ
##أخو
##أذن
##أرج
##أرض
##أرى
##أزم
##أسر
##أسف
##أعط
##أقل
##أكد
##أكر
##أكل
##ألف
##ألم
##ألو
##أمر
##أمس
##أمل
##أمن
##أنس
##أهل
##أور
##أوس
##أوك
##أول
##ؤثث
##ؤثر
##ؤجل
##ؤخذ
##ؤخر
##ؤدى
##ؤدي
##ؤذي
##ؤسس
##ؤكد
##ؤلف
##ؤمن
##ؤهل
##ؤود
##ؤول
##ؤون
##ؤيد
##إخو
##إذا
##إكس
##إلا
##إلى
##إير
##ئاف
##ئام
##ئلا
##ئوم
##ئيد
##ئيس
##ئيل
##اؤك
##ائب
##ائج
##ائح
##ائر
##ائظ
##ائع
##ائغ
##ائف
##ائق
##ائك
##ائل
##ائم
##ائن
##ائى
##ائي
##ابا
##ابر
##ابل
##ابو
##ابي
##اثا
##اثر
##اثي
##اجد
##اجر
##اجل
##اجم
##اجن
##اجي
##احم
##احى
##احي
##اخر
##اخي
##ادر
##ادم
##ادو
##ادى
##ادي
##اذف
##ارا
##ارب
##ارت
##ارد
##ارس
##ارش
##ارك
##ارم
##ارو
##ارى
##اري
##ازل
##ازم
##ازو
##ازي
##اسط
##اسف
##اسم
##اسو
##اسى
##اسي
##اشئ
##اشر
##اشف
##اشى
##اشي
##اصر
##اصم
##اصي
##اضب
##اضل
##اطئ
##اطع
##اطي
##اظب
##اعى
##اعي
##اغا
##اغو
##اغي
##افح
##افر
##افل
##افى
##اقع
##اقل
##اقى
##اقي
##اكا
##اكب
##اكس
##اكو
##اكي
##الى
##الي
##اما
##امب
##امر
##امس
##امى
##امي
##انج
##انغ
##اني
##اهث
##اهر
##اور
##اول
##اوى
##اوي
##ايا
##ايب
##ايخ
##ايد
##اير
##ايز
##ايش
##ايض
##ايف
##ايل
##ايم
##ايو
##باء
##بائ
##باب
##باث
##باج
##باح
##باخ
##باد
##بار
##باز
##باس
##باش
##باص
##باط
##باع
##باغ
##باك
##بام
##بان
##باي
##بتر
##بتك
##بحث
##بحر
##بخس
##بخش
##بدآ
##بدأ
##بدؤ
##بدر
##بدع
##بدل
##بدو
##بدي
##بذل
##برئ
##برا
##برج
##برد
##برز
##برس
##برص
##برغ
##برك
##برن
##برو
##بري
##بزغ
##بسط
##بسي
##بشر
##بشع
##بشن
##بصر
##بصق
##بطئ
##بطح
##بطل
##بعث
##بعد
##بعض
##بقى
##بقي
##بكس
##بكو
##بكي
##بلج
##بلد
##بلز
##بلس
##بلط
##بلغ
##بلو
##بلي
##بنج
##بند
##بنز
##بنك
##بني
##بهج
##بهر
##بوب
##بوت
##بوث
##بوج
##بوح
##بود
##بور
##بوز
##بوس
##بوش
##بوص
##بوط
##بوع
##بوغ
##بوف
##بوق
##بوك
##بول
##بوم
##بوي
##بىء
##بيب
##بيت
##بيث
##بيج
##بيد
##بير
##بيز
##بيس
##بيش
##بيط
##بيع
##بيغ
##بيق
##بيك
##بيل
##بين
##بيو
##تاب
##تاج
##تاح
##تار
##تاز
##تاس
##تاش
##تاك
##تبس
##تبع
##تجأ
##تحد
##تحف
##تحم
##تخا
##تخذ
##ترا
##ترز
##ترس
##ترك
##ترن
##ترو
##تري
##تزل
##تسا
##تسع
##تسك
##تسم
##تسو
##تسي
##تشا
##تشر
##تشن
##تشو
##تشى
##تشي
##تصر
##تصق
##تصل
##تضح
##تعظ
##تغذ
##تفض
##تقل
##تقى
##تقي
##تكأ
##تكئ
##تكس
##تلز
##تلو
##تمس
##تنر
##تنى
##تني
##تهز
##تهن
##توب
##تور
##توس
##توف
##توم
##توي
##تيب
##تيج
##تير
##تيز
##تيس
##تيش
##تيغ
##تيف
##تيك
##تيل
##ثأر
##ثاء
##ثاب
##ثاث
##ثار
##ثال
##ثام
##ثان
##ثاي
##ثبت
##ثخن
##ثري
##ثلج
##ثمر
##ثنى
##ثني
##ثوب
##ثور
##ثوس
##ثول
##ثوم
##ثون
##ثوي
##ثيا
##ثيب
##ثيث
##ثير
##ثيس
##ثيق
##ثيك
##ثيل
##ثيم
##ثيو
##جاء
##جاب
##جاج
##جاح
##جاد
##جار
##جاز
##جاس
##جاش
##جاص
##جاع
##جاف
##جاك
##جال
##جام
##جان
##جاو
##جاي
##جبر
##جبل
##جتث
##جحف
##جدر
##جدي
##جذب
##جرؤ
##جرب
##جرح
##جرد
##جرز
##جرف
##جرو
##جري
##جزء
##جزؤ
##جزم
##جسد
##جسم
##جطو
##جعل
##جلز
##جلس
##جلو
##جلى
##جلي
##جمع
##جمل
##جمي
##جنب
##جند
##جنر
##جنز
##جنس
##جني
##جهد
##جهز
##جهش
##جهل
##جوب
##جوج
##جود
##جور
##جوز
##جوس
##جوف
##جوك
##جول
##جوم
##جون
##جوي
##جىء
##جيء
##جيب
##جيت
##جيج
##جيد
##جير
##جيز
##جيس
##جيش
##جيع
##جيف
##جيك
##جيل
##جيم
##جين
##جيو
##حاء
##حاب
##حاج
##حاح
##حاد
##حار
##حاز
##حاش
##حاص
##حاط
##حاف
##حاق
##حال
##حام
##حبس
##حتك
##حتم
##حتى
##حجب
##حجز
##حدث
##حدح
##حدد
##حدش
##حدى
##حذر
##حذف
##حرب
##حرج
##حرر
##حرص
##حرض
##حرف
##حرق
##حرك
##حرم
##حري
##حزب
##حزن
##حسب
##حسم
##حسن
##حشد
##حشر
##حشى
##حصد
##حصر
##حصل
##حضر
##حظى
##حفر
##حفز
##حفظ
##حفل
##حقق
##حكم
##حكي
##حلق
##حلم
##حلو
##حمد
##حمر
##حمص
##حمل
##حمي
##حني
##حوب
##حوت
##حوج
##حوح
##حور
##حوز
##حوص
##حول
##حوم
##حوي
##حيث
##حيد
##حيط
##حيل
##حيم
##خاء
##خاب
##خاخ
##خاد
##خاذ
##خار
##خاص
##خاف
##خال
##خام
##خان
##خبئ
##خبث
##خبر
##خبط
##ختر
##ختص
##ختل
##ختم
##خجل
##خدش
##خدع
##خدم
##خرب
##خرج
##خرط
##خرق
##خسر
##خشب
##خشن
##خشى
##خصص
##خضر
##خضع
##خطأ
##خطئ
##خطب
##خطر
##خطط
##خطف
##خطو
##خفض
##خفف
##خفق
##خفي
##خلص
##خلط
##خلع
##خلف
##خلق
##خلو
##خلي
##خمس
##خنث
##خنق
##خوذ
##خور
##خوس
##خوض
##خوف
##خول
##خون
##خوي
##خيب
##خير
##خيص
##خيل
##خيم
##دأب
##داء
##داؤ
##داب
##داج
##داح
##داد
##دار
##داس
##داش
##داع
##داغ
##داف
##داق
##داك
##دال
##دام
##دان
##داو
##داي
##دتى
##دثر
##دجز
##دجي
##دحر
##دخل
##دخن
##درج
##درد
##درز
##درس
##درك
##درو
##دري
##دزي
##دعم
##دعو
##دعى
##دعي
##دفأ
##دفع
##دفن
##دقق
##دكس
##دلر
##دلع
##دلو
##دلي
##دمج
##دمر
##دنر
##دنس
##دني
##دهش
##دوب
##دوج
##دوح
##دود
##دور
##دوز
##دوس
##دوش
##دوغ
##دوف
##دوك
##دول
##دوم
##دون
##دوى
##دوي
##ديب
##ديث
##ديج
##ديد
##دير
##ديز
##ديس
##ديش
##ديغ
##ديف
##ديك
##ديل
##ديم
##ديو
##ذاء
##ذاذ
##ذار
##ذاع
##ذاك
##ذبح
##ذخر
##ذرن
##ذعن
##ذكر
##ذلك
##ذهب
##ذهل
##ذوب
##ذود
##ذور
##ذول
##ذيب
##ذير
##ذين
##رأس
##رأف
##رأي
##رؤي
##راء
##رائ
##راب
##راث
##راج
##راح
##راخ
##راد
##رار
##راز
##راس
##راش
##راض
##راط
##راغ
##راف
##راق
##راك
##رام
##راو
##راي
##ربأ
##ربح
##ربس
##ربط
##ربع
##ربك
##ربو
##ربي
##رتب
##رتد
##رتر
##رتز
##رتس
##رتش
##رتك
##رتل
##رتن
##رتو
##رتي
##رثي
##رجئ
##رجح
##رجع
##رجل
##رجو
##رجى
##رجي
##رحل
##رحم
##ردج
##ردن
##ردي
##رزح
##رسخ
##رسل
##رسم
##رسن
##رسو
##رسي
##رشح
##رشي
##رصق
##رضخ
##رضى
##رضي
##رعى
##رغب
##رغم
##رغن
##رغو
##رفث
##رفض
##رفع
##رفق
##رفي
##رقص
##رقم
##ركب
##ركز
##ركس
##ركض
##ركع
##ركل
##ركو
##ركي
##رلي
##رمز
##رمو
##رمي
##رنج
##رنر
##رنس
##رنك
##رنو
##رني
##رهف
##رهق
##روب
##روت
##روث
##روج
##روح
##رود
##رور
##روز
##روس
##روش
##روض
##روع
##روغ
##روف
##روق
##روك
##رول
##روم
##رون
##روي
##ريا
##ريب
##ريث
##ريج
##ريح
##ريخ
##ريد
##رير
##ريز
##ريس
##ريش
##ريض
##ريط
##ريغ
##ريف
##ريق
##ريك
##ريل
##ريم
##ريو
##زأر
##زاء
##زاب
##زاج
##زاد
##زار
##زاز
##زاس
##زاع
##زاغ
##زاق
##زاك
##زال
##زام
##زاي
##زبد
##زبى
##زرع
##زعج
##زعم
##زكي
##زلر
##زلق
##زلي
##زمر
##زمع
##زمي
##زنر
##زني
##زهر
##زهو
##زوج
##زود
##زور
##زوف
##زوك
##زول
##زوم
##زون
##زوي
##زيا
##زيب
##زيج
##زيد
##زير
##زيز
##زيس
##زيغ
##زيف
##زيك
##زيل
##زيم
##زيو
##سآب
##سأل
##ساء
##ساب
##ساج
##ساح
##ساخ
##ساد
##سار
##ساس
##ساع
##ساف
##ساق
##ساك
##سام
##سان
##ساو
##ساي
##سبب
##سبح
##سبر
##سبس
##سبع
##سبق
##سبو
##سبي
##ستا
##ستد
##ستر
##ستس
##ستش
##ستف
##ستك
##ستم
##ستن
##ستو
##ستي
##سجل
##سجن
##سحب
##سحر
##سخر
##سخف
##سرح
##سرع
##سرق
##سري
##سطح
##سطر
##سطع
##سطو
##سعد
##سفر
##سقط
##سقي
##سكا
##سكب
##سكر
##سكس
##سكن
##سكو
##سكى
##سكي
##سلب
##سلح
##سلخ
##سلر
##سلط
##سلف
##سلم
##سلو
##سلي
##سمح
##سمر
##سمع
##سمن
##سمو
##سمى
##سمي
##سنج
##سند
##سنر
##سنغ
##سنو
##سني
##سهل
##سوء
##سوب
##سوخ
##سود
##سور
##سوس
##سوف
##سوق
##سوك
##سول
##سوم
##سون
##سوي
##سىء
##سيء
##سيئ
##سيا
##سيب
##سيج
##سيخ
##سيد
##سير
##سيز
##سيس
##سيغ
##سيف
##سيك
##سيل
##سيم
##سيو
##شأف
##شاء
##شاب
##شاج
##شاح
##شاد
##شار
##شاش
##شاف
##شاق
##شاك
##شام
##شان
##شاه
##شاو
##شاي
##شبك
##شتر
##شتي
##شجب
##شجع
##شحذ
##شخص
##شدد
##شرب
##شرح
##شرز
##شرط
##شرف
##شرق
##شرك
##شري
##شطح
##شطر
##شطف
##شظف
##شعب
##شعر
##شغل
##شفش
##شفع
##شفق
##شكر
##شكل
##شكو
##شكي
##شلح
##شلر
##شلي
##شمر
##شمس
##شمل
##شمي
##شنب
##شنج
##شنر
##شنز
##شنع
##شنغ
##شنق
##شني
##شهد
##شهر
##شوب
##شود
##شور
##شوس
##شوش
##شوط
##شوف
##شوق
##شوك
##شول
##شوم
##شون
##شوي
##شىء
##شيء
##شيا
##شيب
##شيح
##شيخ
##شيد
##شير
##شيز
##شيس
##شيش
##شيع
##شيف
##شيك
##شيل
##شيم
##شيو
##صاب
##صاح
##صاد
##صار
##صاص
##صاع
##صاف
##صاق
##صال
##صبح
##صبر
##صبغ
##صحب
##صحف
##صخر
##صدح
##صدر
##صدق
##صدم
##صرح
##صرخ
##صرف
##صطف
##صعب
##صعد
##صفح
##صفر
##صفق
##صلح
##صنع
##صنف
##صهر
##صوت
##صور
##صوص
##صول
##صوم
##صوي
##صيب
##صيح
##صيد
##صير
##صيص
##صيف
##صيل
##ضآل
##ضاء
##ضاؤ
##ضائ
##ضاج
##ضاح
##ضار
##ضاض
##ضاع
##ضاف
##ضام
##ضبط
##ضحك
##ضخم
##ضرب
##ضطر
##ضعف
##ضغط
##ضمن
##ضوح
##ضور
##ضوع
##ضوي
##ضيء
##ضيئ
##ضيح
##ضير
##ضيع
##ضيف
##ضيق
##طاء
##طاب
##طاج
##طاح
##طار
##طاش
##طاط
##طاع
##طاف
##طاق
##طال
##طام
##طان
##طاي
##طبخ
##طبع
##طبق
##طبل
##طبي
##طرأ
##طرب
##طرح
##طرد
##طرش
##طرف
##طرق
##طري
##طعم
##طفأ
##طفئ
##طفل
##طقم
##طلب
##طلع
##طلق
##طلي
##طمح
##طمر
##طمع
##طمى
##طنب
##طهر
##طهو
##طوب
##طور
##طوز
##طوس
##طوش
##طوط
##طوع
##طوف
##طوق
##طول
##طوم
##طون
##طوى
##طوي
##طيء
##طيب
##طيح
##طير
##طيش
##طيط
##طيع
##طيف
##طيق
##طيل
##طين
##ظار
##ظاف
##ظبط
##ظرف
##ظلم
##ظهر
##ظوم
##ظير
##ظيع
##ظيف
##ظيم
##عاء
##عاب
##عاد
##عاذ
##عار
##عاز
##عاش
##عاط
##عاف
##عاك
##عال
##عام
##عان
##عبأ
##عبث
##عبد
##عبر
##عبو
##عتد
##عتق
##عثر
##عجب
##عجز
##عدد
##عدل
##عدم
##عذب
##عذر
##عرب
##عرض
##عرف
##عري
##عزر
##عزف
##عشر
##عشق
##عصر
##عضو
##عطل
##عطي
##عظم
##عقب
##عقد
##عقل
##عكر
##عكس
##عكف
##علق
##علم
##علن
##علو
##على
##علي
##عمر
##عمل
##عند
##عنف
##عني
##عهد
##عوب
##عوث
##عود
##عوذ
##عور
##عوض
##عوف
##عول
##عوم
##عيب
##عيث
##عيد
##عير
##عيز
##عيش
##عيط
##عيل
##عيم
##غاؤ
##غاب
##غاث
##غاد
##غار
##غاز
##غاس
##غاص
##غاط
##غاظ
##غاف
##غال
##غام
##غان
##غاو
##غاي
##غبط
##غبق
##غبي
##غدا
##غدر
##غرب
##غرز
##غرف
##غرق
##غرو
##غري
##غزو
##غسل
##غضب
##غفر
##غلر
##غلز
##غلط
##غلظ
##غلف
##غلو
##غلي
##غمر
##غمق
##غند
##غنر
##غنز
##غنو
##غنى
##غني
##غوب
##غود
##غور
##غوز
##غوس
##غوش
##غوص
##غوط
##غوف
##غول
##غوم
##غون
##غوي
##غيب
##غيت
##غيث
##غيد
##غير
##غيز
##غيس
##غيف
##غيل
##غيم
##غيو
##فاء
##فاج
##فاح
##فاد
##فار
##فاز
##فاس
##فاص
##فاض
##فاظ
##فاع
##فاف
##فاق
##فاك
##فان
##فاي
##فتأ
##فتح
##فتر
##فتس
##فتش
##فتي
##فجر
##فحص
##فحم
##فخر
##فدح
##فرج
##فرح
##فرد
##فرز
##فرس
##فرض
##فرط
##فرق
##فرن
##فرو
##فرى
##فري
##فست
##فسخ
##فسد
##فسر
##فسك
##فشل
##فصح
##فصل
##فصم
##فضح
##فضل
##فطر
##فظع
##فعل
##فعم
##فقأ
##فقد
##فكر
##فكس
##فلا
##فلت
##فلح
##فلد
##فلر
##فلز
##فلش
##فلو
##فلي
##فنر
##فنس
##فني
##فهد
##فوء
##فوئ
##فوت
##فود
##فور
##فوز
##فوس
##فوش
##فوض
##فوف
##فوق
##فوك
##فول
##فوي
##فيج
##فيد
##فير
##فيز
##فيس
##فيش
##فيض
##فيغ
##فيف
##فيك
##قاء
##قاؤ
##قائ
##قاب
##قاح
##قاد
##قاذ
##قار
##قاز
##قاس
##قاش
##قاص
##قاض
##قاط
##قاظ
##قاع
##قاف
##قاق
##قال
##قام
##قاو
##قبح
##قبس
##قبض
##قبل
##قتر
##قتص
##قتض
##قتل
##قجة
##قجي
##قدر
##قدس
##قدم
##قذع
##قذف
##قرأ
##قرب
##قرر
##قرط
##قرع
##قري
##قزز
##قسط
##قسم
##قصد
##قصر
##قضى
##قضي
##قطر
##قطع
##قطف
##قعد
##قفص
##قفل
##قلب
##قلد
##قلص
##قلق
##قلي
##قمر
##قنع
##قني
##قهر
##قوب
##قود
##قور
##قوس
##قوص
##قوط
##قوع
##قوق
##قول
##قوم
##قوى
##قوي
##قيد
##قير
##قيس
##قيص
##قيض
##قيف
##قيق
##قيل
##قيم
##كاء
##كاؤ
##كاب
##كاد
##كار
##كاز
##كاس
##كاش
##كاف
##كاك
##كام
##كان
##كاو
##كاي
##كبث
##كبر
##كبو
##كتب
##كتر
##كتس
##كتظ
##كتف
##كتل
##كتو
##كتي
##كثر
##كثف
##كجي
##كدح
##كذب
##كرد
##كرز
##كرم
##كرو
##كري
##كزي
##كسب
##كسر
##كسل
##كسو
##كسي
##كشف
##كشن
##كفأ
##كفئ
##كفل
##كفى
##كلف
##كلم
##كلي
##كما
##كمن
##كند
##كنز
##كوب
##كوت
##كوج
##كود
##كور
##كوز
##كوس
##كوش
##كوف
##كوك
##كول
##كوم
##كون
##كوي
##كيب
##كيخ
##كيد
##كير
##كيز
##كيس
##كيش
##كيف
##كيك
##كيل
##كيم
##كيو
##لئك
##لاء
##لاؤ
##لاب
##لاج
##لاح
##لاد
##لار
##لاز
##لاس
##لاش
##لاع
##لاغ
##لاف
##لاق
##لاك
##لام
##لاي
##لبث
##لبس
##لبن
##لبو
##لبي
##لتر
##لتز
##لتي
##لثغ
##لجأ
##لجم
##لجن
##لحق
##لخص
##لدا
##لدز
##لدي
##لرز
##لزم
##لسن
##لصق
##لطف
##لعب
##لفت
##لفظ
##لقح
##لقن
##لكس
##لله
##لمح
##لمس
##لنج
##لند
##لنس
##لنغ
##لنك
##لهب
##لهث
##لهج
##لوب
##لوث
##لوج
##لوح
##لود
##لوذ
##لور
##لوز
##لوس
##لوش
##لوغ
##لوف
##لوق
##لوك
##لول
##لوم
##لوي
##ليب
##ليث
##ليج
##ليح
##ليخ
##ليد
##لير
##ليز
##ليس
##ليش
##ليص
##ليغ
##ليف
##ليك
##ليل
##ليم
##ليو
##ماء
##مائ
##ماج
##ماخ
##ماد
##مار
##ماز
##ماس
##ماش
##ماع
##ماغ
##ماك
##مال
##مام
##مان
##ماي
##مبا
##مبر
##مبس
##مبل
##مبو
##مبى
##مبي
##متر
##متص
##متع
##متك
##متى
##مثل
##مذج
##مرأ
##مرز
##مرض
##مري
##مزج
##مسح
##مسك
##مصر
##مضي
##مطر
##معن
##معي
##مكث
##مكس
##مكو
##ملح
##ملس
##ملغ
##ملك
##ملو
##ملي
##منح
##منذ
##منع
##منى
##مني
##مهد
##مهل
##موت
##موث
##موج
##مود
##مور
##موز
##موس
##موش
##موغ
##موف
##موك
##مول
##موم
##موه
##موي
##ميا
##ميت
##ميث
##ميد
##مير
##ميز
##ميس
##ميش
##ميط
##ميع
##ميك
##ميل
##ميم
##نأى
##نار
##ناز
##ناس
##ناش
##ناك
##نبؤ
##نبئ
##نبا
##نبذ
##نبر
##نبك
##نبو
##نبي
##نتج
##نتر
##نتز
##نتس
##نتش
##نتن
##نتو
##نتي
##نثر
##نجا
##نجح
##نجر
##نجز
##نجل
##نجم
##نجن
##نجو
##نجي
##نحن
##نحو
##ندا
##ندر
##ندز
##ندس
##ندل
##ندن
##ندو
##ندى
##ندي
##نرى
##نزا
##نزل
##نزو
##نزي
##نسب
##نسق
##نسل
##نسن
##نسو
##نسى
##نسي
##نشأ
##نشئ
##نشر
##نشي
##نصح
##نصر
##نصف
##نضع
##نضم
##نطق
##نظر
##نظف
##نظم
##نعم
##نعى
##نغا
##نغر
##نغز
##نغن
##نغو
##نفذ
##نفر
##نفس
##نفض
##نفع
##نقذ
##نقص
##نقل
##نقي
##نكأ
##نكا
##نكر
##نكس
##نكو
##نكي
##نما
##نمو
##ننج
##ننغ
##ننى
##نني
##نهض
##نوب
##نوت
##نوخ
##نود
##نور
##نوس
##نوش
##نوع
##نوف
##نوك
##نول
##نوم
##نوه
##نوي
##نيج
##نير
##نيز
##نيس
##نيش
##نيغ
##نيف
##نيك
##نيل
##نيو
##هتف
##هدأ
##هدئ
##هدف
##هذا
##هذب
##هذه
##هرب
##هزء
##هما
##هنأ
##هنئ
##هوب
##هود
##هور
##هوف
##هول
##هوم
##هوي
##هيئ
##هيب
##هيل
##هيم
##وئي
##واء
##واح
##وار
##واط
##وان
##وبا
##وبر
##وبز
##وبس
##وبك
##وبل
##وبو
##وبى
##وبي
##وتر
##وتز
##وتس
##وتش
##وتو
##وتي
##وثي
##وجد
##وجل
##وجو
##وجى
##وجي
##وحد
##وحي
##ودا
##ودج
##ودر
##ودو
##ودى
##ودي
##ورا
##ورث
##ورج
##ورد
##ورز
##ورس
##ورغ
##ورف
##ورق
##ورك
##ورم
##ورن
##ورو
##ورى
##وري
##وزا
##وزر
##وزن
##وزو
##وزى
##وزي
##وسط
##وسن
##وسو
##وسي
##وشن
##وشي
##وصف
##وصل
##وصي
##وضح
##وضع
##وطأ
##وطئ
##وطن
##وطي
##وعد
##وعي
##وغا
##وغر
##وغل
##وغن
##وغو
##وغي
##وفا
##وفر
##وفق
##وفو
##وفى
##وفي
##وقع
##وقف
##وكا
##وكر
##وكس
##وكو
##وكي
##ولا
##ولد
##ولر
##ولز
##ولس
##ولف
##ولو
##ولى
##ولي
##ومب
##ومي
##ونج
##ونز
##ونغ
##وود
##ويت
##ويج
##ويد
##وير
##ويز
##ويس
##ويش
##ويغ
##ويف
##ويك
##ويل
##ياب
##ياح
##ياد
##يار
##ياس
##ياف
##ياق
##ياك
##يام
##يبا
##يبر
##يبس
##يبص
##يبل
##يبو
##يبي
##يتا
##يتح
##يتد
##يتر
##يتز
##يتس
##يتش
##يتك
##يتم
##يتن
##يتو
##يتي
##يثي
##يجا
##يجر
##يجن
##يجو
##يجى
##يجي
##يحا
##يحي
##يدج
##يدر
##يدز
##يدس
##يدو
##يدى
##يدي
##يذر
##يرا
##يرد
##يرز
##يرس
##يرش
##يرف
##يرك
##يرم
##يرن
##يرو
##يرى
##يري
##يزر
##يزل
##يزو
##يزي
##يست
##يسز
##يسك
##يسن
##يسو
##يسى
##يسي
##يشك
##يشن
##يشو
##يشي
##يصل
##يغا
##يغر
##يغن
##يغو
##يغي
##يفا
##يفر
##يفز
##يفن
##يفو
##يقى
##يقي
##يكا
##يكر
##يكس
##يكو
##يكي
##يلب
##يلد
##يلر
##يلز
##يلس
##يلك
##يلو
##يلى
##يلي
##يما
##يمر
##يمس
##يمن
##يمو
##يمي
##ينج
##ينز
##ينغ
##يوب
##يوت
##يود
##يور
##يوز
##يوس
##يوش
##يوف
##يوك
##يول
##يوم
##يوي
##يير
##ييز
##ييف
##ييل
05057
1.200
1.500
10-12
10-15
10-20
10.00
10.15
10.25
10.30
10.45
10/10
10/11
100.0
10500
11-12
11.30
11.45
11/11
11500
12.00
12.15
12.30
12/10
12/11
12/12
120.0
12500
13-14
13.00
13/10
13/11
13078
14-15
14.00
14.30
14/12
14001
14500
15-20
15.00
15/10
15/11
150.0
15500
16.00
16.30
16/11
16500
17.30
17500
18.00
18.30
19-20
19.00
19.30
19/11
19/20
20-25
20-30
20.00
20/11
200.0
21.00
21.45
22.00
22500
24/3/
25/20
25/21
25/22
250.0
26250
27/11
27001
27500
28/11
28/8/
29/10
29/11
3/5/2
300.0
31/12
31250
4-4-2
4/4/2
4/5/1
400.0
42500
43750
500.0
54375
57357
600.0
Archi
Assad
Centr
Child
China
Class
Colle
Conce
Contr
Count
Cross
Saint
Saudi
Smart
Smith
Sound
South
Start
State
Store
Theor
There
Times
Total
Touch
Trade
Train
Trans
Trend
Trust
[CLS]
[PAD]
[SEP]
[UNK]
attac
cells
class
contr
enter
human
inter
issue
media
micro
multi
music
other
state
their
there
touch
trans
under
آحادي
آدامس
آرامي
آرتور
آرسين
آرمين
آزادي
آزوري
آستان
آسيان
آسيوى
آسيوي
آشتون
آشوري
آلوسي
آنجيل
آندرو
آندري
آنذاك
آواخر
آيباد
آيبود
آيبيك
آيدكس
آيدول
آيريس
آيرين
آيفون
آيلند
أبابا
أباتش
أباتي
أبادر
أباطر
أباظة
أبالس
أبالي
أبجدي
أبحاث
أبداع
أبدان
أبراج
أبرار
أبراز
أبرشي
أبريل
أبصار
أبطال
أبعاد
أبقار
أبكار
أبناء
أبناؤ
أبنائ
أبنوب
أبنوس
أبواب
أبوال
أبوتش
أبوجا
أبوشق
أبوفا
أبولو
أبويل
أبيات
أبيار
أتأثر
أتأخر
أتأمل
أتابع
أتابك
أتارب
أتاري
أتاسي
أتباع
أتبين
أتجاه
أتجوز
أتحاد
أتحدث
أتحسس
أتحمل
أتخوف
أتخيل
أتذكر
أتراب
أتراح
أتراك
أترام
أتراه
أترجم
أتردد
أتريد
أتزوج
أتشيه
أتصال
أتصفح
أتصور
أتعاب
أتعاط
أتعجب
أتعرف
أتعلم
أتعود
أتغير
أتفاق
أتفهم
أتقاض
أتقبل
أتكلم
أتمنا
أتمنى
أتمني
أتنفس
أتوري
أتوسل
أتوقع
أتيتم
أتيلا
أثداء
أثقال
أثناء
أثنائ
أثنار
أثينا
أثيني
أجاكس
أجانب
أجبرو
أجداد
أجراء
أجراس
أجرام
أجزاء
أجزائ
أجساد
أجسام
أجفان
أجلاء
أجمال
أجناس
أجنبى
أجنبي
أجهور
أجواء
أجوائ
أجواد
أجوار
أجوجو
أجولة
أجياد
أجيال
أحابي
أحادي
أحارب
أحاسب
أحاول
أحباء
أحبائ
أحباب
أحبار
أحبال
أحتاج
أحترم
أحتمل
أحجار
أحجام
أحداث
أحداق
أحرار
أحراز
أحراش
أحزاب
أحزان
أحزنن
أحساء
أحساس
أحشاء
أحشائ
أحضان
أحفاد
أحفور
أحقاد
أحكام
أحلاف
أحلام
أحمال
أحمدى
أحمدي
أحمري
أحواز
أحوال
أحياء
أحيائ
أحيان
أحيدب
أخادي
أخاطب
أخالف
أخبار
أخبرو
أختار
أختام
أختبر
أختصر
أخدود
أخراج
أخروي
أخشاب
أخصائ
أخطاء
أخطائ
أخطار
أخلاط
أخلاق
أخميم
أخوات
أخوال
أخوان
أخوتن
أخيار
أدائك
أدامز
أدامس
أدباء
أدراج
أدرار
أدران
أدريس
أدغال
أدنبر
أدنوك
أدهشن
أدوات
أدوار
أدوبي
أدولف
أديار
أديان
أديكو
أذكار
أذهان
أذهلن
أذواق
أذيال
أذيني
أرئيل
أرائك
أراجع
أراضى
أراضي
أرافق
أراقب
أراكم
أرامل
أرانب
أراني
أراهن
أرباب
أرباح
أربيل
أرتاح
أرتدي
أرتكب
أرتكز
أرتور
أرجاء
أرجائ
أرجوح
أرجون
أرجيل
أرحام
أرداف
أردتم
أردنى
أردني
أرزاق
أرسال
أرسط
و
أرسطي
أرسين
أرشيد
أرشيف
أرصاد
أرطغر
أرغون
أرقام
أركان
أركيل
أرماد
أرمان
أرمني
أرندل
أرندي
أرنست
أرهاب
أرواب
أرواح
أرواد
أروبا
أروبي
أرويو
أرياف
أريام
أريان
أريبي
أريحا
أريدك
أرينا
أرينج
أرينز
أزبكي
أزتيك
أزرار
أزمير
أزهار
أزهرى
أزهري
أزواج
أزواد
أزياء
أزيائ
أساتذ
أساسى
أساسي
أساعد
أسافر
أساقف
أسامح
أسانج
أساند
أساهي
أساور
أسباب
أسبار
أسبان
أسبرط
أسبقي
أسبوع
أسبير
أستاد
أستاذ
أستار
أستان
أستبق
أستحق
أستدع
أسترا
أستطع
أستعد
أستغل
أستقر
أستقل
أستلم
أستمد
أستمر
أستمع
أستهل
أستون
أستير
أستيك
أستيل
أسدود
أسرار
أسرتا
أسرتى
أسرتي
أسطور
أسطول
أسعار
أسعاف
أسفار
أسفلت
أسفنج
أسقام
أسقفي
أسكوا
أسلاف
أسلاك
أسلام
أسلفت
أسلوب
أسماء
أسمائ
أسماع
أسماك
أسمنت
أسنان
أسوار
أسواق
أسوان
أسياح
أسياد
أسياس
أسياف
أسيوط
أسيوى
أسيوي
أشارك
أشاطر
أشاعر
أشانت
أشاهد
أشاوس
أشباح
أشبال
أشتاق
أشترك
أشتري
أشتهي
أشجار
أشجان
أشخاص
أشداء
أشدود
أشرار
أشراف
أشرفي
أشعار
أشعري
أشغال
أشقاء
أشقائ
أشكال
أشكول
أشلاء
أشلائ
أشمون
أشواط
أشواق
أشواك
أشوري
أشوفك
أشياء
أشيائ
أشيقر
أصابع
أصاحب
أصادف
أصارح
أصافح
أصايل
أصباغ
أصحاء
أصحاب
أصداء
أصدار
أصداف
أصطحب
أصطدم
أصفاد
أصفار
أصقاع
أصلاح
أصناف
أصنام
أصوات
أصولي
أضاحى
أضاحي
أضداد
أضرار
أضراس
أضعاف
أضواء
أطالب
أطباء
أطبائ
أطباق
أطراف
أطروح
أطفال
أطفيح
أطلال
أطلسي
أطلنط
أطمأن
أطمئن
أطماع
أطنان
أطهار
أطوار
أطواق
أطوال
أطياب
أطياف
أظافر
أظفار
أعاتب
أعاجم
أعارض
أعالي
أعامل
أعاهد
أعاود
أعباء
أعبائ
أعتاب
أعتاد
أعتبر
أعتذر
أعترض
أعتزل
أعتقد
أعتقل
أعتمد
أعجاب
أعجبن
أعجمي
أعجوب
أعداء
أعداؤ
أعدائ
أعداد
أعذار
أعراب
أعراس
أعراض
أعراف
أعراق
أعزاء
أعزائ
أعزاز
أعشاب
أعصاب
أعضاء
أعضائ
أعطاب
أعطال
أعظمي
أعقاب
أعلاف
أعلام
أعمار
أعماق
أعمال
أعمام
أعناق
أعوام
أعوان
أعياد
أعيان
أغادر
أغاسي
أغالب
أغامر
أغانى
أغاني
أغتيل
أغراب
أغرار
أغراض
أغريق
أغسطس
أغصان
أغلاط
أغلال
أغلبي
أغنام
أغوار
أغواط
أغيار
أفارق
أفاضل
أفاعي
أفتتح
أفتخر
أفتقد
أفخاخ
أفخاذ
أفراح
أفراد
أفراس
أفرام
أفران
أفرنج
أفضال
أفضلي
أفعال
أفغان
أفكار
أفلاج
أفلاك
أفلام
أفليس
أفليك
أفنان
أفندى
أفندي
أفنيو
أفواه
أفياش
أفيال
أفيخا
أفيلا
أفيون
أقابل
أقارب
أقارن
أقاصي
أقاطع
أقباط
أقترح
أقتنع
أقدار
أقداس
أقدام
أقدمي
أقراص
أقراط
أقران
أقزام
أقساط
أقسام
أقصوص
أقطاب
أقطار
أقطان
أقفاص
أقفال
أقلام
أقلوي
أقليم
أقماح
أقمار
أقوال
أقوام
أقولك
أكابر
أكادي
أكالي
أكباد
أكتاف
أكتشف
أكتفي
أكتوف
أكتيف
أكثري
أكراد
أكروب
أكروم
أكساد
أكساس
أكسبو
أكسيد
أكسيس
أكسيل
أكشاك
أكفاء
أكفان
أكليل
أكمام
أكواب
أكواد
أكوام
أكوان
أكوتي
أكورد
أكوست
أكياس
أكينو
ألأول
ألابا
ألاقي
ألباب
ألبان
ألبرت
ألبوم
ألبير
ألتاي
ألتحق
ألترا
ألتفت
ألتقط
ألتقي
ألتون
ألحان
ألزاس
ألستم
ألسني
ألعاب
ألغاز
ألغام
ألفاظ
ألفرد
ألفيس
ألقاب
ألكسو
ألكسي
ألكما
ألماس
ألماظ
ألمان
ألمعي
ألملم
ألواح
ألوان
ألوسي
ألوني
ألوهي
ألياف
أليجر
أليكس
أمادو
أمارس
أماسي
أماكن
أمامى
أمامي
أماني
أمبول
أمبير
أمتار
أمتلك
أمتين
أمثال
أمثول
أمجاد
أمحمد
أمديد
أمراء
أمرائ
أمراض
أمركي
أمريك
أمشاط
أمطار
أمعاء
أمعائ
أمعري
أمكان
أملاح
أملاك
أملغم
أمناء
أمنائ
أمناس
أمهار
أموات
أمواج
أموال
أميال
أميتا
أميدو
أميري
أنادي
أناشد
أنافس
أناقش
أنامل
أناند
أناني
أنباء
أنبار
أنباط
أنبوب
أنتاج
أنتبه
أنتخب
أنترن
أنتصر
أنتظر
أنتقد
أنتقل
أنتمى
أنتهي
أنتيك
أنثوي
أنجال
أنجلس
أنجلو
أنجوس
أنجيل
أنحاء
أنحائ
أنخيل
أندرس
أندرش
أندرو
أندري
أندلس
أنديز
أنروا
أنزور
أنزيم
أنساب
أنساك
أنسحب
أنسول
أنشاء
أنشاص
أنشود
أنصار
أنصحك
أنطون
أنظار
أنعام
أنغام
أنغلو
أنغيل
أنفار
أنفاس
أنفاق
أنفال
أنقاض
أنماط
أنهار
أنوار
أنواط
أنواع
أنياب
أنيتا
أنيمي
أهالى
أهالي
أهداب
أهداف
أهرام
أهرون
أهواء
أهوائ
أهواز
أهواك
أهوال
أوائل
أوابك
أواجه
أواخر
أواصر
أوافق
أواكس
أوالم
أوامر
أواني
أوباش
أوبال
أوبرا
أوبري
أوبير
أوبيك
أوتاد
أوتار
أوتشي
أوتيل
أوثان
أوجاع
أوجام
أوحال
أودري
أوديب
أوديس
أوراد
أوراس
أوراش
أوراق
أوراك
أورال
أورام
أوربا
أوربى
أوربي
أوردو
أورطي
أورلي
أورنج
أوروب
أورور
أوروك
أورين
أوزار
أوزال
أوزان
أوزبك
أوزون
أوزيل
أوساخ
أوساط
أوستر
أوستن
أوسطي
أوسلو
أوسيم
أوشيم
أوصاف
أوصال
أوصلو
أوضاع
أوطان
أوغاد
أوغست
أوغلو
أوغوز
أوغير
أوفست
أوفيد
أوفير
أوفيس
أوقات
أوقاف
أوكار
أوكتا
أولئك
أولاد
أولاف
أولسن
أولغا
أولمب
أولوي
أوليس
أوليغ
أوليف
أوملي
أونال
أونام
أونمي
أونيل
أوهام
أويحي
أويلر
أوينز
أيائل
أيادي
أياكس
أيتام
أيدول
أيران
أيروا
أيرول
أيفون
أيقون
أيلول
أيمان
أيمكن
أينما
أيوبى
أيوبي
أيوني
إباحي
إباضي
إبتعا
إبحار
إبداء
إبدائ
إبداع
إبدال
إبراز
إبرام
إبريق
إبريل
إبسون
إبصار
إبطاء
إبطال
إبعاد
إبقاء
إبقائ
إبلاغ
إبليس
إبهار
إبهام
إبيار
إتباع
إتجار
إتجاه
إتحاد
إتساع
إتصال
إتفاق
إتقان
إتلاف
إتمام
إتهام
إتيان
إثبات
إثرائ
إثمار
إثناء
إثنائ
إثنين
إجبار
إجحاف
إجراء
إجرائ
إجرام
إجلاء
إجلائ
إجلاس
إجلال
إجماع
إجمال
إجهاد
إجهاض
إحالت
إحباط
إحتضا
إحداث
إحراج
إحراز
إحرام
إحساء
إحساس
إحسان
إحصاء
إحصائ
إحضار
إحقاق
إحلال
إحليل
إحياء
إحيائ
إخبار
إختار
إختلا
إخراج
إخراس
إخشيد
إخصاء
إخصائ
إخصاب
إخطار
إخفاء
إخفائ
إخفاق
إخلاء
إخلائ
إخلاص
إخلال
إخوان
إدارى
إداري
إدجار
إدخار
إدخال
إدراج
إدرار
إدراك
إدراي
إدريس
إدعاء
إدعائ
إدغار
إدماج
إدمان
إدمون
إدنبر
إدهاش
إدوار
إذاعي
إذعان
إرباح
إرباك
إربيل
إرتري
إرتكا
إرتكب
إرجاء
إرجائ
إرجاع
إرساء
إرسائ
إرسال
إرشاد
إرضائ
إرضاع
إرعاب
إرغام
إرفين
إركاب
إرنست
إرهاب
إرهاق
إرواء
إروين
إزعاج
إزمير
إزميل
إسباغ
إسبان
إسبرط
إسبوع
إستاد
إستدع
إستقر
إستلا
إستما
إستمر
إستهل
إستيف
إستيل
إسحاق
إسراء
إسرائ
إسراع
إسراف
إسعاد
إسعاف
إسفلت
إسفنج
إسفين
إسقاط
إسكات
إسكان
إسكوا
إسلام
إسلوب
إسماع
إسمنت
إسناد
إسهال
إسهام
إشباع
إشتبا
إشراف
إشراق
إشراك
إشعار
إشعاع
إشغال
إشكال
إشهاد
إشهار
إصحاح
إصدار
إصرار
إصغاء
إصلاح
إضافى
إضافي
إضحاك
إضراب
إضرار
إضطها
إضفاء
إضمار
إطباق
إطعام
إطفاء
إطفائ
إطلاع
إطلاق
إطلال
إطمئن
إطناب
إظهار
إعتبر
إعترف
إعتقا
إعتقل
إعتمد
إعجاب
إعجاز
إعداد
إعدام
إعراب
إعزاز
إعسار
إعصار
إعطاء
إعطاؤ
إعطائ
إعفاء
إعفائ
إعلام
إعلان
إعمار
إعمال
إعياء
إغاثي
إغداق
إغراء
إغرائ
إغراق
إغريق
إغلاق
إغماء
إغماض
إغنائ
إغواء
إغوائ
إفتاء
إفراج
إفراد
إفراز
إفراط
إفراغ
إفرام
إفراي
إفرست
إفرنج
إفساح
إفساد
إفصاح
إفطار
إفقار
إفلات
إفلاس
إفناء
إفهام
إقبال
إقتدا
إقترح
إقحام
إقدام
إقرار
إقراض
إقصاء
إقصاؤ
إقصائ
إقطاع
إقفال
إقلاع
إقلال
إقليم
إقناع
إكبار
إكتشف
إكثار
إكرام
إكراه
إكساب
إكسبو
إكستر
إكسير
إكليل
إكمال
إلباس
إلتحق
إلتون
إلحاح
إلحاد
إلحاق
إلزام
إلصاق
إلغاء
إلغائ
إلفيس
إلقاء
إلقائ
إلهائ
إلهاب
إلهام
إلياذ
إلياس
إليزي
إليوت
إمباب
إمبار
إمبول
إمتاع
إمداد
إمراض
إمساك
إمضائ
إمطار
إمكان
إملاء
إنبات
إنتاج
إنتخب
إنجاب
إنجاز
إنجلز
إنجيل
إنديك
إنذار
إنرجي
إنرون
إنريك
إنزال
إنزيم
إنسان
إنسول
إنشاء
إنشائ
إنشاد
إنصات
إنصاف
إنعاش
إنعام
إنفاذ
إنفاق
إنفست
إنقاذ
إنكار
إنماء
إنمائ
إنهاء
إنهائ
إنهاض
إنهاك
إهداء
إهدائ
إهدار
إهمال
إياتا
إيبار
إيباك
إيبدو
إيبوك
إيتار
إيتام
إيتان
إيتزا
إيتون
إيتيد
إيثار
إيثان
إيثرن
إيثيل
إيجاب
إيجاد
إيجار
إيجاز
إيجور
إيحاء
إيداع
إيدال
إيدير
إيذاء
إيذائ
إيذاع
إيذان
إيراد
إيران
إيرما
إيروس
إيرول
إيريز
إيريس
إيريك
إيزاك
إيزيس
إيساف
إيستر
إيسكو
إيصال
إيضاح
إيعاز
إيغاد
إيغال
إيغور
إيغيل
إيفائ
إيفاد
إيفان
إيفرا
إيقاد
إيقاظ
إيقاع
إيقاف
إيقون
إيكار
إيكال
إيكاو
إيكوت
إيلائ
إيلاج
إيلاف
إيلام
إيلان
إيليا
إيليو
إيماء
إيمال
إيمان
إيمري
إيميل
إينار
إيناس
إينوك
إيهاب
إيهام
إيهود
إيواء
إيوائ
إيوان
اؤتمن
ائتمن
اباحي
اباطر
اباظة
ابالغ
ابانم
ابتاع
ابتدأ
ابتدع
ابتسم
ابتعث
ابتعد
ابتكر
ابتلا
ابتلع
ابتلي
ابتهج
ابتوب
ابجدي
ابحاث
ابحار
ابداع
ابدال
ابراج
ابرار
ابراز
ابرام
ابرشي
ابريق
ابريل
ابصار
ابطال
ابعاد
ابقاء
ابقاؤ
ابقائ
ابقار
ابقيق
ابكار
ابلاغ
ابليس
ابناء
ابناؤ
ابنائ
ابنتى
ابنتي
ابهار
ابهام
ابواب
ابوال
ابوشق
ابولو
ابيار
اتأخر
اتأمل
اتابع
اتاسي
اتباع
اتجار
اتجاه
اتجوز
اتحاد
اتحدث
اتحرك
اتحمل
اتخاذ
اتخيل
اتدخل
اتذكر
اتراح
اتراك
اترام
اتزان
اتزوج
اتساع
اتساق
اتسام
اتصاف
اتصال
اتصرف
اتصور
اتطلع
اتعاب
اتعاظ
اتعجب
اتعرض
اتعرف
اتعلم
اتغير
اتفاق
اتفرج
اتفضل
اتقاء
اتقان
اتقدم
اتكال
اتكلم
اتلاف
اتمان
اتمتع
اتهام
اتهمو
اتوقع
اتوقف
اتيان
اتيلي
اثبات
اثراء
اثرائ
اثقال
اثمان
اثناء
اثنائ
اثنتا
اثنتي
اثنين
اثينا
اجاكس
اجانب
اجبار
اجتاح
اجتاز
اجتذب
اجترح
اجتمع
اجتنب
اجتهد
اجحاف
اجداد
اجراء
اجرائ
اجراس
اجرام
اجزاء
اجزائ
اجعلي
اجفند
اجلاؤ
اجلائ
اجلال
اجماع
اجمال
اجناس
اجنبي
اجهاد
اجهاز
اجهاض
اجواء
اجوائ
اجيال
احادي
احباء
احبائ
احباب
احبار
احباط
احتاج
احتار
احتاط
احتال
احتجز
احترس
احترف
احترق
احترم
احتسب
احتشا
احتشد
احتضن
احتفظ
احتفل
احتقر
احتكر
احتكم
احتمل
احتوا
احداث
احدود
احراج
احرار
احراز
احرام
احزاب
احزان
احساء
احساس
احسان
احشائ
احصاء
احصائ
احطاب
احفاد
احقاد
احقاق
احكام
احلاف
احلال
احلام
احليل
احماء
احمال
احمدي
احمري
احميد
احواز
احوال
احياء
احيائ
احيان
اخائي
اخاطب
اخبار
اخبرن
اختار
اختبأ
اختبر
اختتم
اخترع
اخترق
اخترن
اختزل
اختزن
اختصر
اختطف
اختفت
اختفى
اختفي
اختلس
اختلط
اختلف
اختلق
اختير
اخدود
اخراج
اخصاب
اخضاع
اخطاء
اخطائ
اخطار
اخفاء
اخفائ
اخفاق
اخلاء
اخلائ
اخلاص
اخلاق
اخلال
اخوان
اخيار
اداري
ادامس
ادجار
ادخار
ادراج
ادرار
ادراك
ادريس
ادعاء
ادعاؤ
ادعائ
ادغار
ادماج
ادمان
ادنبر
ادوار
اديان
اذاعي
اذعان
اذكار
اذلال
اذهان
ارابي
اراجع
ارادت
ارادي
اراضى
اراضي
اراقب
ارانب
ارباب
ارباح
ارباك
اربيل
ارتأي
ارتاب
ارتاح
ارتاد
ارتال
ارتبط
ارتبك
ارتجل
ارتحل
ارتدي
ارتضا
ارتضي
ارتطم
ارتعب
ارتعد
ارتعش
ارتفع
ارتكب
ارتكز
ارتها
ارجاس
ارجيل
ارحام
اردني
ارسال
ارسطو
ارشاد
ارشيد
ارشيف
ارصاد
ارضاء
ارضائ
ارضاع
ارغام
ارقام
اركان
ارمني
ارمين
ارنون
ارهاب
ارهاق
ارواح
ارواد
اروبي
ارويو
ارياس
ارياف
اريان
ارينز
ازادي
ازداد
ازدان
ازدهر
ازرار
ازعاج
ازمان
ازهار
ازهري
ازواج
ازواد
ازوري
اساتذ
اساسي
اساطي
اساعد
اسافر
اسانج
اسباب
اسبار
اسباس
اسباغ
اسبان
اسبست
اسبقي
اسبوع
اسبير
استاد
استاذ
استار
استان
استبد
استبر
استبس
استبق
استتب
استتر
استثن
استجب
استجد
استجل
استحص
استحق
استحل
استحم
استحي
استخف
استدر
استدع
استدل
استرا
استرج
استرح
استرخ
استرد
استرس
استرع
استرق
استرو
استسه
استشر
استشف
استضف
استطع
استظل
استعد
استعر
استعص
استعل
استعن
استغب
استغل
استغن
استفت
استفد
استفز
استقا
استقر
استقص
استقل
استقو
استقي
استكر
استلف
استلق
استلم
استمد
استمر
استمع
استند
استنف
استهز
استهل
استهو
استوح
استور
استوص
استوف
استول
استير
استيف
استيل
اسحاق
اسدال
اسرار
اسراف
اسطبل
اسطور
اسطول
اسعاد
اسعار
اسعاف
اسفار
اسفاف
اسفنج
اسقاط
اسقفي
اسكات
اسكار
اسكان
اسكتش
اسكوا
اسكود
اسكور
اسكيب
اسلاف
اسلاك
اسلام
اسلوب
اسماء
اسمائ
اسماع
اسماك
اسمري
اسمنت
اسموه
اسناد
اسنان
اسهال
اسهام
اسوار
اسواق
اسوان
اسياح
اسياد
اسياس
اسيان
اسيوط
اسيوي
اشاهد
اشباع
اشبال
اشبيل
اشتاق
اشتبك
اشتبه
اشتدا
اشترا
اشترط
اشترك
اشترو
اشتري
اشتعل
اشتغل
اشتكي
اشتمل
اشتهر
اشتهي
اشتيو
اشجار
اشجان
اشخاص
اشراف
اشراق
اشراك
اشعار
اشعاع
اشغال
اشفاق
اشقاء
اشقاؤ
اشقائ
اشكال
اشمعن
اشهاد
اشهار
اشواق
اشوري
اشياء
اشيان
اصابع
اصحاب
اصحاح
اصدار
اصرار
اصطاد
اصطحب
اصطدم
اصطلح
اصطنع
اصفار
اصلاح
اصلان
اصنام
اصوات
اصولي
اضاحي
اضافي
اضالي
اضراب
اضرار
اضطرر
اضطلع
اضطهد
اضعاف
اضلاع
اضمحل
اضواء
اطاري
اطباء
اطبائ
اطباق
اطراء
اطراد
اطراف
اطروح
اطفاء
اطفائ
اطفال
اطلاع
اطلاق
اطلال
اطلبي
اطمأن
اطمئن
اطنان
اطوار
اطياف
اظافر
اظفار
اظهار
اعالي
اعباء
اعبائ
اعتاد
اعتبر
اعتدى
اعتدي
اعتذر
اعترا
اعترض
اعترف
اعتزل
اعتزم
اعتصر
اعتصم
اعتقد
اعتقل
اعتلى
اعتما
اعتمد
اعتمر
اعتنق
اعجاب
اعجاز
اعدائ
اعداد
اعدام
اعذار
اعذرن
اعراب
اعراض
اعراق
اعرجي
اعزائ
اعزاز
اعسار
اعشاب
اعصاب
اعصار
اعضاء
اعضاؤ
اعضائ
اعطاء
اعطاؤ
اعطائ
اعطون
اعظمي
اعفاؤ
اعفائ
اعلام
اعلان
اعمار
اعماق
اعمال
اعمام
اعناق
اعوام
اعوان
اعياد
اعيان
اغاثي
اغادر
اغالب
اغاني
اغتال
اغتسل
اغتصب
اغتنا
اغتنم
اغتيل
اغرائ
اغراب
اغراض
اغراق
اغريق
اغسطس
اغسلي
اغصان
اغضاب
اغلاق
اغلال
اغلبي
اغنام
اغوار
افاجأ
افارق
افاعي
افانا
افتاء
افتتح
افتخر
افترس
افترش
افترض
افترق
افتعل
افتقد
افتقر
افتكا
افتكر
افخاخ
افراج
افراح
افراد
افراز
افراس
افراط
افران
افرنج
افريق
افساح
افساد
افشال
افضال
افضلي
افطار
افعال
افغان
افقار
افكار
افلاج
افلاس
افلام
افندي
افواج
افواه
افيال
افيني
اقارب
اقاصي
اقباط
اقبال
اقتاد
اقتبس
اقتحم
اقترا
اقترب
اقترح
اقترض
اقترع
اقترف
اقترن
اقتسا
اقتسم
اقتصد
اقتصر
اقتضا
اقتطع
اقتطف
اقتلع
اقتنص
اقتنع
اقتيد
اقدام
اقدمي
اقرار
اقراض
اقران
اقساط
اقسام
اقصائ
اقطاب
اقطار
اقطاع
اقفاص
اقفال
اقلاع
اقلام
اقليم
اقمار
اقناع
اقوال
اقوام
اكاسي
اكباد
اكبار
اكتاف
اكتسب
اكتسح
اكتشف
اكتفى
اكتفي
اكثار
اكثرم
اكثري
اكذوب
اكرام
اكراه
اكروم
اكساب
اكساد
اكستر
اكسون
اكسير
اكسيل
اكلاف
اكليل
اكمال
اكمام
اكواب
اكوام
اكورد
اكياس
اكينو
البوم
التأم
التحق
التزم
التفت
التقا
التقط
التقى
التقي
الحاح
الحلو
الدهب
الزام
الشيح
العاب
الغاء
الغائ
الغاط
الفاف
القاب
الكسو
الكنس
اللهم
اللوز
النمر
الياس
امادو
اماكن
امامي
امانو
اماني
امباب
امبير
امتاز
امتاع
امتثل
امتحن
امتدح
امتزج
امتلأ
امتلك
امتنع
امتهن
امثال
امجاد
امداد
امراض
امساك
امطار
امكان
املاء
املاك
امناء
امنحو
امهال
امواج
اموال
اميدو
اميرك
اميري
اميلي
اميني
اناثا
اناقش
اناند
اناني
انباء
انبار
انبثق
انبسط
انبهر
انبوب
انتاب
انتاج
انتار
انتبا
انتبه
انتحر
انتخب
انتدب
انترا
انترك
انترن
انتزع
انتسب
انتشر
انتشل
انتصر
انتظر
انتظم
انتفض
انتفع
انتقد
انتقل
انتقم
انتقي
انتكس
انتلر
انتمي
انتهج
انتهز
انتهك
انتهى
انتهي
انتيك
انتيل
انثوي
انجاب
انجاز
انجال
انجذب
انجلز
انجلو
انجلي
انجوس
انجيل
انحاء
انحدر
انحرف
انحسر
انحشر
انحصر
انخرط
انخفض
اندثر
اندحا
اندرج
اندرز
اندرس
اندره
اندرو
اندري
اندفع
اندلا
اندلس
اندلع
اندمج
اندهش
اندور
انديا
انديز
انديك
انذار
انرجي
انريك
انزال
انزعج
انزلق
انزيم
انساب
انسان
انسحب
انسكا
انسكب
انسول
انسيا
انشاء
انشاؤ
انشائ
انشاد
انشغل
انشود
انصار
انصاف
انصحك
انصرف
انصهر
انضاج
انضام
انضمم
انطاك
انطفأ
انطلق
انظار
انعاش
انعام
انعدم
انعقد
انعكس
انعلم
انغام
انغلق
انغلو
انغمس
انفاذ
انفاس
انفاق
انفال
انفتح
انفجر
انفجن
انفرج
انفرد
انفصل
انفعل
انفير
انقاد
انقاذ
انقرض
انقسم
انقضى
انقطع
انقلب
انكار
انكسر
انكشف
انكفأ
انكلو
انكمش
انكوم
انكون
انمائ
انمار
انماط
انهاء
انهائ
انهار
انهاك
انهال
انهزم
انهمر
انهمك
انواء
انوار
انواع
انياب
انيتا
انييس
اهالي
اهتدي
اهتلا
اهتمم
اهداب
اهداف
اهرام
اهلاك
اهمال
اهواء
اهوائ
اهوار
اهواز
اهوال
اواخر
اوالم
اوامر
اواني
اواوي
اوبرا
اوبري
اوبير
اوتار
اوتشي
اوتيل
اوجاع
اوجام
اوحال
اودوم
اوديس
اوراس
اوراق
اورام
اوربي
اورلي
اوروب
اوروم
اوريب
اوريل
اوزار
اوزال
اوزان
اوزبك
اوزون
اوزيل
اوستر
اوسلو
اوصاف
اوصال
اوضاع
اوطان
اوغاد
اوغاس
اوغست
اوغلو
اوغلي
اوغير
اوفست
اوفير
اوفيس
اوقاف
اوكار
اوكور
اولاد
اولمب
اولوف
اولوي
اوليس
اوليغ
اوهام
اويحي
ايادي
اياكس
ايالا
ايباد
ايبار
ايباك
ايبدو
ايبرت
ايبلا
ايبيك
ايتام
ايتان
ايثار
ايثان
ايثيل
ايجاب
ايجار
ايجاز
ايجور
ايداع
ايدور
ايدير
ايذائ
ايذان
ايراد
ايران
ايرفي
ايرلي
ايروس
ايرول
ايريز
ايريس
ايريك
ايرين
ايزاك
ايزيك
ايستر
ايسكو
ايصال
ايضاح
ايعاز
ايغال
ايغور
ايفاد
ايفان
ايفون
ايقاظ
ايقاع
ايقاف
ايقون
ايكال
ايكوس
ايلاء
ايلاف
ايلام
ايلان
ايليس
ايليو
ايمار
ايمان
ايمري
ايميل
اينار
ايناس
ايندو
اينما
اينوك
اينيا
ايهاب
ايهام
ايهود
ايوائ
ايوان
ايوبي
بؤساء
بائعو
بابكي
بابلو
بابلي
بابور
بابوش
بابوى
بابوي
باترس
باتلر
باتنة
باتيل
باجور
باجيو
باخوس
باخوم
بادوش
باديء
باراج
باراس
باراك
باربر
باربي
بارثي
باردو
بارسا
بارسي
بارقي
باركر
باركس
بارلو
بارلي
بارما
بارنز
بارني
باروخ
بارود
باروش
باروك
بارون
باريز
باريس
باريش
بازار
بازرك
بازلت
بازيل
باساد
باستا
باستر
باسكو
باسكي
باسوس
باسيج
باسيل
باشبو
باشور
باطني
باطون
بافار
بافلو
بافيا
بافيت
بافيل
باقري
باقور
باكلي
باكور
باكيت
باكير
بالاس
بالاك
بالطو
بالوع
بالول
بالون
باليه
بامبو
باموق
باموك
بانام
بانتو
بانتي
بانجو
باندا
باندو
باندي
بانشي
بانغي
بانكس
بانوس
بانيد
بانيو
باهبر
باهلي
باولا
باولو
باوند
بايدن
بايرن
بايرو
بايلي
باينز
باييس
ببتيد
ببغاو
بتراء
بتروف
بترول
بترون
بثينة
بجاني
بجاية
بحارن
بحبوح
بحتري
بحرين
بحوزت
بحيرى
بحيري
بخارى
بخاري
بخلاء
بدأتم
بدائع
بدائل
بدائي
بدارو
بدارى
بداعش
بداوي
بدران
بدلاء
بدناء
بديري
بديهي
بديوي
بذالي
برابر
براجن
برادع
برادو
براذر
براري
برازي
براطل
براعم
براغا
براغي
برافد
برافو
براقش
براكس
برامج
برامك
برانت
براند
برانس
برانى
براني
براهم
براون
برايل
برايم
براين
بربار
بربري
بربور
بربير
برتول
بردعى
برديس
برذرز
برزان
برزنج
برسيم
برشاء
برشام
برشور
برصوم
برغوت
برغوث
برفقت
برقاش
برقاي
برقوق
بركات
بركان
برلنت
برلين
برمجي
برميل
برناج
برنار
برنام
برنجي
برنوص
برهان
برهوم
برواز
بروتس
بروتي
برودي
بروذر
بروست
بروسي
بروغر
بروفي
بروكس
بروكل
برومو
برونز
برونو
بروير
برويز
بروين
بريان
بريتش
بريتن
بريتو
بريدة
بريدج
بريدي
بريزب
بريزم
بريسب
بريفي
بريقع
بريكس
بريكي
بريمر
بريمن
بريمو
بريمي
برينت
بريند
برينس
بسباس
بسبوس
بستان
بستكي
بستين
بسطاء
بسطاو
بسفور
بسكوت
بسمتي
بسيسو
بشائر
بشاير
بشتون
بشركت
بشمرك
بصائر
بصحبت
بصوتي
بصيري
بضائع
بطارك
بطاري
بطاطا
بطاطس
بطالي
بطاني
بطاين
بطحاء
بطراو
بطريق
بطلان
بعادي
بعبدا
بعدما
بعلبك
بعيني
بغداد
بغضاء
بغيلي
بقائي
بقاعي
بقايا
بقدرت
بقسما
بقشيش
بقعاء
بقلاو
بكائي
بكاري
بكباش
بكتري
بكركي
بكيري
بلابل
بلاتا
بلاتر
بلاتس
بلاذر
بلازا
بلازي
بلاسم
بلاشف
بلاشك
بلاغي
بلانش
بلايت
بلاير
بلباو
بلبول
بلبيس
بلتاج
بلحاج
بلحسن
بلخير
بلدان
بلشفي
بلطجى
بلطجي
بلطيق
بلطيم
بلعاو
بلعوم
بلعيد
بلغار
بلفور
بلقاس
بلقان
بلقرن
بلقيس
بلكون
بللور
بلماح
بلمار
بلمند
بلنسي
بلهاء
بلوتو
بلوري
بلوشي
بليزر
بليكس
بلينا
بليهد
بليهي
بليون
بمفرد
بنائي
بنادق
بنانى
بناني
بنتلي
بنجاب
بندار
بندري
بندقي
بندكت
بندلي
بندور
بندول
بنزاي
بنزرت
بنزين
بنطال
بنعلي
بنغال
بنفسج
بنيان
بنيني
بنيوي
بهائم
بهائى
بهائي
بهاما
بهتان
بهجور
بهرام
بهروز
بهزاد
بهلال
بهلول
بهلوي
بهنسي
بواخر
بوادر
بوادي
بوارج
بوارح
بواري
بواسل
بواقي
بواكي
بوالص
بوبكا
بوبكر
بوبوف
بوتاس
بوتان
بوترو
بوتشر
بوتشي
بوتكس
بوتيك
بوتين
بوجبا
بوجمع
بوحمد
بوخضر
بوخوم
بودين
بورتر
بورتو
بورخا
بوردن
بوردو
بورسل
بورضا
بورقب
بورما
بورمي
بورنو
بوريس
بوريم
بوزيد
بوسان
بوستر
بوسطج
بوسطن
بوسعد
بوسكو
بوسني
بوشري
بوشهر
بوطيب
بوعبد
بوعرا
بوعرك
بوعري
بوعلي
بوغاز
بوغوص
بوفون
بوفيه
بوكسر
بولاق
بولتن
بولحي
بولدر
بولسن
بولنت
بولند
بوليس
بوليص
بومبي
بوميل
بونتا
بونتي
بونغو
بونير
بويتن
بويكو
بوينج
بوينس
بوينغ
بويهي
بويوك
بويول
بياتر
بياتي
بياجي
بيارق
بيافر
بيانو
بيبان
بيبرس
بيبسي
بيتار
بيترز
بيترو
بيتزا
بيتكو
بيتلز
بيتيس
بيجار
بيجاك
بيجام
بيحان
بيحبو
بيداو
بيدرو
بيرتس
بيرتي
بيرجر
بيرسي
بيرغر
بيرغن
بيرلو
بيرند
بيرني
بيروت
بيرون
بيريث
بيريد
بيريز
بيريس
بيريش
بيزنس
بيسار
بيساو
بيسرز
بيسري
بيسلي
بيشوب
بيضاء
بيضاو
بيضوي
بيطار
بيطاط
بيطرى
بيطري
بيفرل
بيقول
بيكار
بيكام
بيكرم
بيكون
بيكيت
بيكيه
بيلسا
بيلور
بيلين
بيليه
بينتو
بينما
بيهار
بيومي
بيونج
بيوند
بيونغ
بييرو
تآمري
تأبيد
تأبين
تأثيث
تأثير
تأجيج
تأجير
تأجيل
تأخير
تأديب
تأرجح
تأريخ
تأزيم
تأسلم
تأسيس
تأشير
تأصيل
تأطير
تأقلم
تأكسد
تأكيد
تأليب
تأليف
تأليه
تأملي
تأميم
تأمين
تأنيب
تأنيث
تأهيل
تأويل
تأييد
تؤاخذ
تؤازر
تؤلمن
تابلو
تابوت
تابوه
تابيا
تاتسو
تاتشر
تاثير
تاجور
تاجير
تاخير
تاراس
تاردي
تارود
تاريح
تاريخ
تاسوس
تاسيس
تاشير
تاطير
تاكسى
تاكسي
تاكيد
تالنت
تامار
تامبا
تامبو
تامور
تامول
تامير
تاميل
تانجو
تانغو
تانيا
تانيت
تاهيل
تايبي
تايتن
تايجر
تايغر
تايكو
تايلر
تايمز
تباحث
تبادر
تبادل
تبارك
تباري
تباشر
تباطأ
تباطؤ
تباطئ
تباعد
تباغت
تباكي
تبالغ
تبالي
تباهي
تبايع
تباين
تبتسم
تبتعد
تبتغي
تبتكر
تبتلع
تبجيل
تبخير
تبخيس
تبديل
تبذير
تبرمج
تبرهن
تبريد
تبرير
تبريز
تبريك
تبسيط
تبشير
تبصير
تبعثر
تبلور
تبليغ
تبودل
تبويض
تبيان
تبييض
تبيين
تتآكل
تتأتى
تتأثر
تتأخر
تتأكد
تتألف
تتألق
تتألم
تتأمل
تتأهب
تتأهل
تتابع
تتاثر
تتاجر
تتالي
تتبار
تتباه
تتبدد
تتبدل
تتبرع
تتبنا
تتبنى
تتبني
تتبوأ
تتبيل
تتبين
تتجاو
تتجدد
تتجذر
تتجرد
تتجرع
تتجزأ
تتجسد
تتجسس
تتجمع
تتجمل
تتجنب
تتجوز
تتجول
تتحاش
تتحجج
تتحدث
تتحدى
تتحرر
تتحرش
تتحرك
تتحسب
تتحسر
تتحسس
تتحسن
تتحصل
تتحصن
تتحضر
تتحطم
تتحفظ
تتحقق
تتحكم
تتحمل
تتحول
تتخبط
تتخرج
تتخصص
تتخلص
تتخلف
تتخلل
تتخوف
تتخيل
تتدبر
تتدخل
تتدرب
تتدرج
تتدفق
تتذكر
تتذمر
تتذوق
تترأس
تتراء
تتراخ
تتراص
تتربص
تترتب
تترجم
تتردد
تترسب
تترشح
تترصد
تترقب
تتركز
تترنح
تتريث
تتريك
تتزعم
تتزوج
تتزين
تتسام
تتساو
تتسبب
تتستر
تتسرب
تتسرع
تتسلح
تتسلط
تتسلق
تتسلل
تتسلم
تتسوق
تتسول
تتسيد
تتشبث
تتشرب
تتشكل
تتصدر
تتصدى
تتصرف
تتصور
تتصيد
تتضخم
تتضرر
تتضمن
تتطرق
تتطلب
تتطلع
تتطهر
تتطور
تتعاط
تتعاف
تتعال
تتعام
تتعثر
تتعجب
تتعجل
تتعذب
تتعذر
تتعرض
تتعرف
تتعرى
تتعزز
تتعقب
تتعلق
تتعلم
تتعمد
تتعمق
تتعهد
تتعود
تتغاض
تتغلب
تتغيب
تتغير
تتفاد
تتفتح
تتفجر
تتفحص
تتفرج
تتفرع
تتفرغ
تتفرق
تتفضل
تتفقد
تتفكك
تتفنن
تتفهم
تتفوق
تتقاض
تتقاط
تتقبل
تتقدم
تتقرب
تتقلد
تتقلص
تتقمص
تتقيد
تتكتم
تتكرر
تتكرم
تتكشف
تتكفل
تتكلف
تتكلم
تتلاف
تتلاق
تتلبس
تتلخص
تتلذذ
تتلقا
تتلقف
تتلكأ
تتلمذ
تتلمس
تتلون
تتماد
تتماش
تتماه
تتمتع
تتمتم
تتمثل
تتمدد
تتمرد
تتمسك
تتمكن
تتملك
تتمنا
تتميز
تتناس
تتناف
تتنصت
تتنصل
تتنفس
تتنقل
تتنكر
تتنوع
تتهاد
تتهدد
تتهرب
تتهيأ
تتوار
تتواز
تتوال
تتوان
تتوتر
تتوجب
تتوجه
تتوحد
تتورط
تتورم
تتوزع
تتوسط
تتوسع
تتوسل
تتوصل
تتوعد
تتوغل
تتوفر
تتوقع
تتوقف
تتولا
تتولد
تتولى
تتولي
تتوهم
تتويج
تثاؤب
تثاقف
تثاقل
تثبيت
تثبيط
تثقيف
تثقيل
تثليث
تثمين
تثوير
تجابه
تجادل
تجاذب
تجارب
تجارى
تجاري
تجافي
تجالس
تجامل
تجانس
تجاهد
تجاهل
تجاوب
تجاور
تجاوز
تجاوي
تجبير
تجتاح
تجتاز
تجتذب
تجتمع
تجتهد
تجدون
تجديد
تجديف
تجذير
تجرجر
تجريب
تجريح
تجريد
تجريم
تجسسي
تجسيد
تجسير
تجسيم
تجعيد
تجفيف
تجليس
تجمهر
تجميد
تجميع
تجميل
تجنيد
تجنيس
تجهيز
تجهيل
تجوال
تجويد
تجويع
تجويف
تجيير
تجييش
تحابب
تحابي
تحادث
تحاذي
تحارب
تحاسب
تحاصر
تحاصص
تحاضر
تحافظ
تحاكم
تحاكي
تحالف
تحامل
تحاور
تحاول
تحاوي
تحايا
تحايل
تحبني
تحبيب
تحبين
تحتاج
تحتار
تحتجب
تحتجز
تحتدم
تحترف
تحترق
تحترم
تحتسب
تحتشد
تحتضر
تحتضن
تحتفظ
تحتفل
تحتفي
تحتقر
تحتكر
تحتكم
تحتمل
تحتوي
تحجيم
تحديث
تحديد
تحديق
تحذير
تحرري
تحريج
تحرير
تحريز
تحريض
تحريف
تحريك
تحريم
تحزيم
تحسبن
تحسسي
تحسيس
تحسين
تحشيد
تحصيل
تحصين
تحضير
تحطيم
تحفظي
تحفيز
تحفيظ
تحقير
تحقيق
تحكيم
تحليق
تحليل
تحمير
تحميض
تحميل
تحنيط
تحوير
تحويش
تحويل
تحييد
تخابر
تخاذل
تخارج
تخاصم
تخاطب
تخاطر
تخالط
تخالف
تختار
تختال
تختبر
تختتم
تخترع
تخترق
تختزل
تختزن
تختصر
تختفي
تختلج
تختلط
تختلف
تختنق
تخدير
تخديم
تخريب
تخريج
تخريد
تخريف
تخزين
تخسيس
تخصصى
تخصصي
تخصيب
تخصيص
تخضير
تخطيط
تخفيض
تخفيف
تخلخل
تخليد
تخليص
تخليق
تخمير
تخمين
تخويف
تخوين
تخيير
تخييل
تخييم
تداخل
تدارس
تدارك
تداعب
تدافع
تداهم
تداول
تداوم
تداوي
تداين
تدبير
تدجين
تدخين
تدريب
تدريج
تدريس
تدشين
تدعيم
تدغدغ
تدقيق
تدليس
تدليك
تدليل
تدمري
تدمير
تدنيس
تدهور
تدوال
تدوير
تدويل
تدوين
تذاكر
تذاكي
تذبذب
تذكار
تذكري
تذكير
تذييل
ترابط
ترابى
ترابي
تراتب
تراثي
تراجع
تراجم
تراحم
تراخي
ترادف
ترازي
تراسل
تراشق
تراضي
تراعي
ترافع
ترافق
ترافل
تراقب
تراقص
تراقي
تراكب
تراكس
تراكم
تراكي
ترامب
تراند
ترانز
ترانس
تراهن
تراوح
تراود
تراوغ
تراوي
ترايب
ترايد
ترايل
تربوى
تربوي
تربيط
تربيع
ترتاح
ترتاد
ترتان
ترتبط
ترتدي
ترتضي
ترتطم
ترتعد
ترتعش
ترتفع
ترتقي
ترتكب
ترتكز
ترتوي
ترتيب
ترتيل
ترجيح
ترجيع
ترحاب
ترحال
ترحيب
ترحيل
ترخيص
ترداد
ترددي
ترسان
ترسيب
ترسيخ
ترسيم
ترشيح
ترشيد
ترشيش
ترصيف
ترطيب
ترعرع
ترغيب
ترفيع
ترفيل
ترفيه
ترقوي
ترقيع
ترقيم
تركتم
تركيا
تركيب
تركيز
تركيع
ترمذي
ترميز
ترميم
ترنيم
ترهون
ترهيب
تروخي
ترودو
تروفو
ترولل
ترولي
ترومب
ترويج
ترويح
ترويس
ترويض
ترويع
تروين
ترياق
تريبل
تريزا
تريسي
تريفي
تريكة
تريكو
تريكي
تريلل
تريمس
تريند
تزاحم
تزامن
تزاوج
تزايد
تزداد
تزدهر
تزعزع
تزلزل
تزمير
تزوجن
تزويج
تزويد
تزوير
تزويق
تزييت
تزييف
تزيين
تساءل
تساؤل
تسائل
تسابق
تسابي
تسارع
تساعد
تسافر
تساقط
تسالي
تسامح
تسامر
تسامي
تساند
تساهل
تساهم
تساور
تساوم
تساوي
تساير
تسبيب
تسبيق
تستبد
تستبق
تستثن
تستجب
تستجد
تستحث
تستحق
تستحم
تستحي
تستخف
تستدر
تستدع
تستدل
تسترد
تستشر
تستشف
تستطع
تستظل
تستعد
تستعر
تستعص
تستغل
تستغن
تستفح
تستفد
تستفز
تستقر
تستقص
تستقل
تستقو
تستقي
تستلم
تستمد
تستمر
تستمع
تستمي
تستند
تستهل
تستور
تستوف
تستول
تستوي
تسجيل
تسخير
تسخيف
تسخين
تسديد
تسريب
تسريح
تسريع
تسطيح
تسطير
تسطيع
تسعير
تسعين
تسفير
تسقيط
تسقيع
تسكين
تسلسل
تسلطي
تسليح
تسليع
تسليف
تسليك
تسليم
تسميد
تسميم
تسهيل
تسوبي
تسونغ
تسووي
تسويغ
تسويف
تسويق
تسيبي
تسيطر
تسيفي
تسيير
تسييس
تسييل
تشاؤم
تشابك
تشابل
تشابم
تشابه
تشابو
تشابي
تشاتا
تشاجر
تشاحن
تشادى
تشادي
تشارف
تشارك
تشارل
تشاطر
تشاغل
تشافي
تشاكر
تشامب
تشانج
تشاند
تشانس
تشانغ
تشانل
تشاهد
تشاور
تشاوش
تشايم
تشبيح
تشبيك
تشبيه
تشتاق
تشتبك
تشترط
تشترك
تشترى
تشتري
تشتعل
تشتغل
تشتكي
تشتمل
تشتهر
تشتهي
تشتيت
تشجير
تشجيع
تشحيم
تشخيص
تشديد
تشذيب
تشرئب
تشرتش
تشرذم
تشرشل
تشريح
تشريد
تشريع
تشريف
تشريق
تشريك
تشرين
تشطيب
تشطير
تشغيل
تشفير
تشكيك
تشكيل
تشلسى
تشلسي
تشميل
تشنيع
تشهير
تشوكو
تشونج
تشونغ
تشويش
تشويق
تشوين
تشويه
تشيكل
تشيكو
تشيكى
تشيكي
تشيلر
تشيلل
تشيلو
تشيلى
تشيلي
تشينج
تشينغ
تشيني
تشييد
تشييع
تصاحب
تصادر
تصادف
تصادم
تصارح
تصارع
تصاعد
تصافح
تصافي
تصالح
تصاوي
تصحيح
تصحيف
تصدير
تصديق
تصريح
تصريف
تصطاد
تصطحب
تصطدم
تصعيد
تصغير
تصفوي
تصفيق
تصلني
تصليح
تصميم
تصنيع
تصنيف
تصوري
تصويب
تصويت
تصوير
تضاؤل
تضاعف
تضافر
تضامن
تضاهي
تضايق
تضخيم
تضطرب
تضطهد
تضعضع
تضليل
تضمحل
تضميد
تضمين
تضييق
تطابق
تطارد
تطالب
تطالع
تطاول
تطاير
تطبيب
تطبيع
تطبيق
تطبيل
تطريب
تطريز
تطعيس
تطعيم
تطفيش
تطليق
تطمئن
تطمين
تطنيش
تطهير
تطواف
تطوان
تطوعى
تطوعي
تطويب
تطوير
تطويع
تطويق
تطويل
تظاهر
تظليل
تعاتب
تعادل
تعادي
تعارض
تعارف
تعارك
تعاري
تعازى
تعازي
تعاضد
تعاطف
تعاطى
تعاطي
تعاظم
تعافى
تعافي
تعاقب
تعاقد
تعاكس
تعالج
تعالق
تعالى
تعالي
تعامد
تعامل
تعامي
تعاند
تعانق
تعانى
تعاني
تعاهد
تعاود
تعاون
تعايد
تعايش
تعاين
تعبان
تعبدي
تعبوي
تعبيد
تعبير
تعتاد
تعتبر
تعتدي
تعتذر
تعترض
تعترف
تعتري
تعتزل
تعتصر
تعتصم
تعتقد
تعتقل
تعتلي
تعتمد
تعتنق
تعتني
تعتير
تعتيم
تعجيز
تعجيل
تعداد
تعددي
تعديل
تعدين
تعذيب
تعرقل
تعريب
تعريج
تعريض
تعريف
تعزير
تعزيز
تعساء
تعسفى
تعسفي
تعسكر
تعشيش
تعطيل
تعظيم
تعقيب
تعقيد
تعقيم
تعكير
تعلمي
تعليق
تعليل
تعليم
تعمير
تعميم
تعنيف
تعهيد
تعويد
تعويذ
تعويض
تعويق
تعويل
تعويم
تعيير
تعيين
تغادر
تغازل
تغاضي
تغافل
تغالب
تغالي
تغامر
تغاير
تغتال
تغتسل
تغتصب
تغتفر
تغذوي
تغريب
تغريد
تغرير
تغريم
تغسيل
تغلغل
تغليب
تغليف
تغيير
تفاءل
تفاؤل
تفاجأ
تفاجؤ
تفاجئ
تفاخر
تفادي
تفارق
تفاصل
تفاضل
تفاعل
تفاقم
تفاني
تفاهم
تفاوت
تفاوض
تفتتح
تفتخر
تفترس
تفترش
تفترض
تفترق
تفتعل
تفتقد
تفتقر
تفتكر
تفتيت
تفتيش
تفجير
تفحيط
تفخيخ
تفخيم
تفريخ
تفريد
تفريش
تفريط
تفريع
تفريغ
تفريق
تفسير
تفسيق
تفصيل
تفضيل
تفطير
تفعيل
تفقدي
تفقير
تفكير
تفكيك
تفلسف
تفليس
تفنيد
تفنيش
تفويج
تفويض
تفينت
تقابل
تقاتل
تقادم
تقاذف
تقارب
تقارن
تقاسم
تقاضى
تقاضي
تقاطر
تقاطع
تقاعد
تقاعس
تقاني
تقاوم
تقاوي
تقايض
تقبيل
تقتات
تقتاد
تقتحم
تقتدي
تقترب
تقترح
تقترض
تقترف
تقترن
تقتسم
تقتصر
تقتضي
تقتلع
تقتنص
تقتنع
تقتني
تقتير
تقتيل
تقدمي
تقدير
تقديس
تقديم
تقرحي
تقريب
تقرير
تقريظ
تقريع
تقزيم
تقسيط
تقسيم
تقشير
تقصير
تقطير
تقطيع
تقفيل
تقليب
تقليد
تقليص
تقليل
تقليم
تقنين
تقهقر
تقوقع
تقويض
تقويم
تقييد
تقييس
تقييم
تكاتف
تكاتك
تكاثر
تكاثف
تكاري
تكاسل
تكافؤ
تكافئ
تكافح
تكافل
تكالب
تكامل
تكبدو
تكبير
تكبيل
تكترث
تكتسب
تكتسح
تكتشف
تكتمل
تكتنف
تكتيك
تكثيف
تكدير
تكذيب
تكرار
تكرمي
تكرور
تكرير
تكريس
تكريم
تكساس
تكسير
تكشير
تكعيب
تكفير
تكليف
تكميل
تكميم
تكنيك
تكوير
تكوين
تكيفي
تكييف
تلألأ
تلاؤم
تلائم
تلابي
تلاتل
تلاحظ
تلاحق
تلاحم
تلازم
تلاشى
تلاصق
تلاطم
تلاعب
تلافي
تلاقى
تلاقي
تلامذ
تلامس
تلاوى
تلاوي
تلبيس
تلتحق
تلتحم
تلتزم
تلتصق
تلتفت
تلتقط
تلتقي
تلتمس
تلتهب
تلتهم
تلحمي
تلحين
تلخيص
تلطيخ
تلطيش
تلطيف
تلعثم
تلعفر
تلفاز
تلفزي
تلفون
تلفيق
تلقيح
تلقين
تلكلخ
تلكوم
تلملم
تلمود
تلميح
تلميذ
تلميع
تلويث
تلويح
تلوين
تليلي
تمائم
تماثل
تمادي
تمارا
تمارس
تمازج
تماسك
تماشي
تماضر
تماطل
تمالك
تمانع
تماهي
تمايز
تمايل
تمتاز
تمتثل
تمتحن
تمتدح
تمتزج
تمتطي
تمتلئ
تمتلك
تمتنع
تمتيع
تمثال
تمثيل
تمجيد
تمحور
تمحيص
تمدرس
تمديد
تمدين
تمركز
تمرير
تمريض
تمرين
تمزيق
تمساح
تمشيط
تمظهر
تمكين
تمليك
تمهيد
تموشن
تموقع
تمويل
تموين
تمويه
تمياط
تميمي
تمييز
تمييع
تنابذ
تنابز
تناثر
تناجي
تناحر
تنادى
تنادي
تناذر
تنازع
تنازل
تناسب
تناسخ
تناسق
تناسل
تناسي
تناشد
تناصب
تناصح
تناصر
تناصف
تناضح
تناطح
تناظر
تناغم
تنافر
تنافس
تنافي
تناقش
تناقص
تناقض
تناقل
تنامي
تناوب
تناول
تنباك
تنبسط
تنبعث
تنبوء
تنبيه
تنتاب
تنتبه
تنتحب
تنتحر
تنتخب
تنتزع
تنتسب
تنتشر
تنتشل
تنتصب
تنتصر
تنتظر
تنتظم
تنتعش
تنتفخ
تنتفض
تنتفي
تنتقد
تنتقل
تنتقم
تنتمي
تنتهج
تنتهز
تنتهك
تنتهي
تنجذب
تنجرف
تنجلي
تنجيد
تنجيم
تنحاز
تنحدر
تنحصر
تنحني
تنحيف
تنخدع
تنخرط
تنخفض
تندثر
تندرج
تندفع
تندلع
تندمج
تندهش
تندوف
تنديد
تنزان
تنزعج
تنزلق
تنزيه
تنساق
تنسحب
تنسيب
تنسيق
تنشغل
تنشيط
تنصاع
تنصرف
تنصهر
تنصيب
تنصير
تنصيص
تنضوي
تنطبق
تنطفئ
تنطلق
تنطوي
تنظير
تنظيف
تنظيم
تنعاد
تنعزل
تنعقد
تنغمس
تنغير
تنغيص
تنفتح
تنفجر
تنفرج
تنفرد
تنفسى
تنفسي
تنفصل
تنفعل
تنفيد
تنفيذ
تنفير
تنفيس
تنفيع
تنقاد
تنقبض
تنقشع
تنقطع
تنقلب
تنقيب
تنقيح
تنقيط
تنكري
تنكسر
تنكيل
تنموى
تنموي
تنميط
تنهار
تنهال
تنهزم
تنهمر
تنهيد
تنوخي
تنوري
تنومة
تنوير
تنويع
تنويم
تنويه
تهاتف
تهاجر
تهاجم
تهافت
تهامى
تهامي
تهاني
تهاون
تهاوي
تهجير
تهدهد
تهديد
تهديف
تهديم
تهذيب
تهرول
تهريب
تهريج
تهليل
تهمني
تهميش
تهويد
تهويل
تهويم
تهوين
تهيمن
تهييج
تواؤم
توائم
توابع
توابل
تواتر
تواتي
تواجد
تواجه
توارث
توارد
تواري
توازن
توازي
تواسي
تواصل
تواصي
تواضع
تواطؤ
تواطئ
تواظب
تواعد
توافد
توافر
توافق
توافي
تواكل
توالد
توالى
توالي
توانس
تواني
توباز
توباك
توبول
توبيخ
توتال
توتسي
توتير
توثيق
توجيه
توحدي
توحيد
توداي
تودور
توديع
تورام
توران
توربو
توركو
تورنر
تورنغ
تورني
توروس
توريث
توريد
توريس
توريط
توريق
توزان
توزير
توزيع
توسعي
توسكر
توسيط
توسيع
توشكى
توشكي
توشيح
توصيف
توصيل
توضيح
توطين
توظيف
توعوي
توفير
توفيق
توقيت
توقير
توقيع
توقيف
توكيد
توكيل
تولدو
تولوز
توليب
توليد
توليف
توماس
تونسى
تونسي
تويتر
تويتي
تويجر
تويست
توينب
تويني
تياجو
تياغو
تيباز
تيبتي
تيتان
تيتوس
تيتوف
تيجان
تيدور
تيراس
تيران
تيربو
تيرنر
تيرول
تيريز
تيريس
تيريم
تيسكو
تيسير
تيشرت
تيفود
تيفوس
تيفيز
تيكوم
تيلور
تيليس
تيماء
تيمار
تيمبر
تيمبل
تيموث
تيمور
تيمية
تينتو
تينور
تينيت
تيولي
ثائقى
ثاتشر
ثالوث
ثاندر
ثانوى
ثانوي
ثبوتي
ثبيتي
ثرثار
ثعالب
ثعبان
ثعلوب
ثقافى
ثقافي
ثقالي
ثقتنا
ثكالى
ثلاثى
ثلاثي
ثمالي
ثمانى
ثماني
ثميري
ثنائى
ثنائي
ثنايا
ثنيان
ثوابت
ثواني
ثورجي
ثويني
ثيران
جابرى
جابري
جابور
جابون
جاخور
جادري
جاذبي
جارثي
جاردن
جارنر
جارود
جاروس
جاروش
جاريث
جاريد
جازان
جازول
جاسبر
جاستن
جاسكو
جاسوس
جاسون
جاكار
جاكلي
جاكوب
جاكيت
جاكيه
جالاس
جالكس
جالوب
جالوت
جالون
جامبا
جامبل
جامبو
جامبي
جامعى
جامعي
جاموس
جاميس
جاميك
جانبي
جانرز
جانفي
جانيت
جانيس
جاهزي
جاهلي
جاويد
جاويش
جايتن
جايكا
جايمس
جايمي
جايين
جبائر
جبائي
جبابر
جبالى
جبالي
جبران
جبروت
جبريل
جبشيت
جبلاي
جبناء
جبهوي
جبيلي
جثمان
جحلان
جدائل
جداري
جداول
جداوي
جدايل
جدران
جدعان
جديتا
جديعي
جرائد
جرائم
جرابل
جرابي
جراتس
جراحى
جراحي
جرادي
جراكن
جراند
جرايد
جرايس
جربوع
جرثوم
جرجور
جرجوع
جرجير
جرجيس
جردوه
جرذان
جرمان
جرنال
جروان
جريان
جريبي
جريتس
جريسي
جريوي
جزائر
جزائى
جزائي
جزافي
جزاير
جزيئي
جزيري
جطيلي
جعافر
جعايب
جعايد
جعدان
جعران
جعفري
جعلتن
جعلوه
جعوين
جعيتا
جعيثن
جفالي
جلائل
جلابي
جلاجل
جلاسج
جلاهم
جلباب
جلبوع
جلبوه
جلعاد
جلعود
جلفار
جلمود
جلواح
جلوبل
جلوبو
جليجل
جليدي
جليفي
جليلي
جماجم
جمارك
جماعى
جماعي
جمالي
جمايك
جمايل
جمباز
جمبرى
جمبري
جمجوم
جمركى
جمركي
جمشيد
جمعاء
جمعان
جمعوه
جمعوي
جمهور
جمهوي
جميرا
جنائز
جنائن
جنائى
جنائي
جنابي
جناحي
جنتيل
جندرم
جندري
جندوب
جندول
جنرال
جنزور
جنزير
جنكيز
جنوبى
جنوبي
جنوني
جنيبي
جنيدل
جنيدي
جنيفر
جنيني
جهابذ
جهادي
جهتان
جهتين
جهراء
جهلاء
جهنمي
جهوزي
جهينة
جوائز
جوابي
جواثا
جواثى
جوادي
جوارب
جوارح
جواري
جواشي
جواكي
جوامع
جوانب
جوانج
جوانح
جوانو
جواني
جواهر
جوايا
جوبيه
جودار
جورجى
جورجي
جوردن
جوردي
جورشي
جوزاء
جوزاف
جوزيب
جوزيف
جوزيه
جوستن
جوسيب
جوعان
جوفاء
جوفري
جوكوف
جولان
جولدن
جوليا
جوليو
جومان
جوميز
جوناس
جونتر
جوندر
جونيه
جوهان
جوهرى
جوهري
جوهور
جويبر
جويدة
جويدي
جويسر
جويعد
جويلى
جويلي
جويني
جويهر
جويهل
جيانج
جيانغ
جياني
جيتار
جيتسو
جيتكس
جيرار
جيران
جيرتس
جيرجي
جيرزي
جيرسي
جيرغا
جيرفي
جيرلز
جيرما
جيرمي
جيرود
جيروم
جيريس
جيزان
جيزيل
جيسكا
جيسون
جيفري
جيكوب
جيلاس
جيلدر
جينفر
جينوم
جينيس
جينيف
جيهان
جيورج
جيوسي
جيولي
جيونج
جيونغ
حاجتي
حاخام
حارثي
حاروف
حاريص
حازمي
حاسوب
حاكمي
حامدي
حامضي
حاملو
حامول
حانوت
حانون
حبابي
حبارى
حباري
حباشن
حبايب
حبتور
حبردي
حبيبى
حبيبي
حبيشي
حبيني
حتاوي
حتحور
حثلين
حجازى
حجازي
حجيري
حجيلي
حدائق
حداثي
حداوي
حدثني
حددوه
حدرية
حدشيت
حدودي
حديبي
حديدى
حديدي
حذيفي
حرائق
حرابي
حراجل
حراجي
حرارى
حراري
حراشف
حراشي
حرامى
حراير
حرباء
حرحور
حرستا
حرشفي
حرفاء
حرفوش
حرقان
حرقوص
حركتا
حركتي
حرمان
حرندا
حروفي
حريتي
حريدي
حريري
حريمى
حزازي
حزيمي
حسابي
حساسي
حساوي
حسبان
حسبما
حسناء
حسياء
حسينى
حسيني
حشائش
حضائر
حضارى
حضاري
حضرمي
حضيري
حظائر
حفناو
حقائب
حقائق
حقانى
حقاني
حقايق
حققتم
حققوه
حقوقى
حقوقي
حقيقى
حقيقي
حكائي
حكماء
حكومى
حكومي
حلاحل
حلافي
حلاني
حلايب
حلحول
حلزون
حلفاء
حلفاؤ
حلفائ
حلوان
حلوتس
حليبي
حمائم
حمائي
حماده
حمادى
حمادي
حماسي
حماقى
حماقي
حمامص
حمامي
حمانا
حمدان
حمدين
حمراء
حمراو
حمروش
حمساو
حمقاء
حملتي
حملوه
حمودي
حموري
حميدي
حميري
حميضي
حميمي
حنابل
حناجر
حناشى
حناشي
حناكي
حناوي
حنايا
حنبعل
حنبلي
حنتوش
حنجور
حنطور
حنفوش
حنكوش
حنيني
حوائط
حواتم
حواجب
حواجز
حوادث
حوادي
حواري
حواسب
حواسي
حواشي
حوافر
حوافز
حوالي
حوامد
حوامض
حوامل
حواني
حوراء
حوران
حوزوي
حوسني
حومان
حويصل
حويفي
حياتو
حياتى
حياتي
حيادي
حياني
حيتان
حيثما
حيدان
حيدوس
حيران
حيرتن
حيشان
حيطان
حيلول
حيمود
حينئذ
حينما
حيوان
خابور
خاتشي
خاتمي
خاتون
خارجى
خارجي
خاركو
خازوق
خاطفو
خافير
خاقان
خالته
خالدي
خامئن
خانجي
خايمي
خبائث
خباري
خبراء
خبرية
خبيزي
ختامى
ختامي
خثران
خثعمي
خثلان
خديوي
خذاري
خذلان
خذلوه
خرائب
خرائط
خرازي
خراشي
خراطي
خرافى
خرافي
خربان
خربوش
خرخير
خرساء
خرسان
خرشوف
خرطوش
خرطوم
خرفان
خروشو
خريجو
خريجي
خريطي
خريفي
خرينج
خزائن
خزاعي
خزامى
خزامي
خزعبل
خسائر
خسران
خشخاش
خصائص
خصوصي
خضراء
خضراو
خضيري
خطابي
خطايا
خطباء
خطفوه
خفاجي
خفايا
خلادي
خلاعي
خلافي
خلاوي
خلايا
خلايق
خلايل
خلخال
خلدون
خلفاء
خلفان
خلفوه
خلوصى
خليجى
خليجي
خليفة
خليفي
خليلي
خليوي
خمائر
خمائل
خماسي
خمسين
خمعلي
خمينى
خميني
خناجر
خناصر
خنافر
خنزير
خنساء
خنفور
خنيزي
خنيفر
خنيني
خوابي
خواتم
خواجي
خوادم
خوارج
خوارق
خواري
خوازي
خواطر
خوالد
خوالي
خواهر
خوجلي
خوخوي
خودرو
خوسيب
خوسيه
خوصصة
خوليو
خومين
خويري
خويطر
خويلد
خيالى
خيالي
خيامي
خيبري
خيخون
خيران
خيريز
خيشوم
خيطان
خييلي
داؤود
دائرى
دائري
داخلى
داخلي
داداب
داربي
داركو
دارمي
داروم
داريا
داريو
داستن
داعشي
داغان
دافعي
دافني
دافور
دافوس
دافيد
دافيز
دافيس
داكار
دالار
دالاس
دالما
داماس
دامور
داندي
دانوب
دانيش
دانيل
داهوم
داودي
داونر
داوني
داوود
دايتش
دايغو
دايفد
دايلي
دايمي
دباسي
دبدوب
دبلوم
دبليو
دبوسي
دبيبو
دبيخي
دبيسي
دجاني
دجنبر
دجيكو
دجيلي
دحروج
دحلان
دحمان
دخاني
دخلاء
دخلتا
درابز
درابي
دراجي
دراخم
دراري
دراسى
دراسي
دراغم
دراغو
دراغي
دراما
درامى
درامي
دراهم
دراوى
درايف
درباس
دربال
دربند
دردار
دردري
دردور
دردير
درسدن
درسوه
درغام
دركوش
درمان
درمكي
درندل
درنيق
درواز
دروكد
درويش
دريبي
دريدي
دريهم
دريوش
دزيكو
دسائس
دساتر
دستور
دسمان
دسوقى
دسوقي
دشداش
دعائم
دعائي
دعاوى
دعبول
دعموه
دعيني
دغرير
دغيثر
دغيدى
دغيري
دغيشم
دغيلي
دفاتر
دفاعى
دفاعي
دفتري
دفتيه
دفعوه
دقائق
دقامس
دقايق
دقدوق
دقماق
دقهلي
دكاتر
دكالي
دكتور
دكرور
دكوان
دلائل
دلالي
دلاور
دلبحي
دلفين
دلمون
دلهوم
دلوقت
دليفر
دليمي
دليهي
دماغي
دمرجي
دمشقي
دمعتي
دمقرط
دمياط
دميتر
دميني
دندان
دنشوا
دنكان
دنمرك
دنيبر
دنيزل
دنيني
دنيوي
دهامش
دهراب
دهشور
دهقان
دهلوي
دهليز
دهناء
دوائر
دوائي
دوابش
دواجن
دواخل
دواسر
دواعي
دوافع
دوالي
دواني
دوبار
دوبال
دوبري
دوبلر
دوبلي
دوبوي
دوتشي
دوجان
دوديك
دوران
دورتي
دورسي
دوريس
دوزيم
دوستم
دوسري
دوشار
دوشنب
دوعاج
دوغان
دوغما
دوفال
دوفيل
دوكاب
دولاب
دولار
دولتي
دوللي
دولوز
دوندا
دونوف
دونيل
دويتش
دويتو
دويحس
دويحي
دويري
دويهي
دياكي
ديالا
ديالو
ديالى
ديالي
ديانا
ديباج
ديباك
ديبرا
ديبكا
ديبور
ديتول
ديتين
ديجان
ديجول
ديجون
ديحان
ديدان
ديدرو
ديدوش
ديديي
ديراب
ديربى
ديربي
ديروط
ديرون
ديريك
ديزرت
ديزنى
ديزني
ديزير
ديسبل
ديسكن
ديسكو
ديشان
ديغول
ديفار
ديفان
ديفنس
ديفون
ديفيا
ديفيد
ديفيز
ديفيس
ديفيل
ديكسي
ديكنز
ديكور
ديلاي
ديللو
ديللي
ديلما
ديلور
ديماس
ديمان
ديمبا
ديمبس
ديمبل
ديمبو
ديمتر
ديملر
ديموم
ديمون
ديمير
دينار
دينزل
دينكا
دينيز
دينيس
ديوار
ديوان
دييجو
دييغو
ذايدي
ذبائح
ذبيان
ذخائر
ذرائع
ذكرتم
ذكروه
ذكوري
ذهاني
ذوادي
ذواكر
ذوبان
ذويبي
ذيابي
ذيبان
ذيفان
رأيتم
رؤساء
رؤساؤ
رؤسائ
رؤيوي
رئاسى
رئاسي
رئتين
رئتيه
رئىسي
رئيسى
رئيسي
راؤول
رائدي
رابيد
رابين
راتكو
راتنج
راجحى
راجحي
راجيف
راخوى
راخوي
رادار
رادوي
راديس
راديك
راديو
راسيل
راشاو
راشدي
راشيل
راعوي
رافار
رافال
رافعي
رافيل
راقصو
راكان
راكيل
رامبل
رامبو
رامزي
رامسي
راموس
رامون
رامين
رانجر
رانجي
راندي
رانيا
راهول
راوتر
راوند
راوول
رايتس
رايدر
رايلا
رايلي
راينر
رباعى
رباعي
ربانى
رباني
ربطوه
ربوبي
ربيان
ربيعي
رجائى
رجائي
رجالي
رجاوي
رجحان
رجراج
رجولي
رجيلي
رحايا
رحمان
رحيلي
رخامي
رخاوى
رخصتي
ردادي
رداوي
رددوه
رزكار
رزنام
رزوقي
رسائل
رسامي
رسايل
رستاق
رسلان
رسموه
رسوبي
رسولي
رسومي
رسيفر
رشاوى
رشاوي
رشايد
رشدان
رشراش
رشوان
رشودي
رشيدى
رشيدي
رضائي
رضوان
رعايا
رعنان
رغائب
رغبتي
رفاعى
رفاعي
رفاهي
رفايع
رفحاء
رفضتا
رفضوه
رفعوه
رفقائ
رفيدة
رفيدي
رقائق
رقابى
رقابي
رقباء
رقراق
رقيطي
ركائز
ركايب
ركبتي
ركلتي
ركيبي
رمادى
رمادي
رمحال
رمسيس
رمضان
رميثي
رميحي
رميضي
رنتيس
رنكوس
رهائن
رهبان
روائي
روابح
روابط
روابي
رواتب
رواسي
رواشد
روافد
روافع
رواند
روبار
روبرت
روبنز
روبوت
روبير
روبيز
روبين
روبيو
روتجر
روتين
روجير
روخاس
رودلف
رودنس
رودني
روديك
روساء
روستو
روسنف
روسيا
روسيف
روشان
روغوز
روغوف
روفرز
روكار
روكتس
روكسى
روكسي
رولان
رولكس
روليت
رومان
روماو
رومبا
رومبو
رومنط
رومنى
رومني
رومية
روميل
روميو
رونار
روندو
روهان
رويال
رويبض
رويتر
رويسي
رويشد
رويعي
رويلي
روينى
رويني
رياحي
ريادى
ريادي
رياضى
رياضي
ريامي
ريايس
ريباس
ريبري
ريبوس
ريبوك
ريبير
ريتشل
ريتشي
ريتيل
ريثما
ريجان
ريجيس
ريجيم
ريحان
ريحاو
ريختر
ريدلي
ريسنج
ريسول
ريشار
ريشان
ريشتر
ريعان
ريغان
ريغيف
ريفاس
ريفرز
ريفير
ريفيو
ريكار
ريكور
ريماس
ريمكس
ريمكو
ريموت
ريمون
ريناد
رينار
رينان
رينبو
رينزي
رينيه
ريهاغ
ريهام
ريهان
ريودي
ريوني
رييكا
زئبقي
زائير
زابول
زادكو
زارني
زاروب
زاكار
زاكور
زاكوم
زامبى
زامبي
زايبر
زايدي
زبائن
زبادي
زباني
زبدين
زبرجد
زبناء
زبيدي
زبيري
زجاجى
زجاجي
زحالق
زخارف
زخرفي
زرائب
زرابي
زراري
زراعى
زراعي
زراقط
زرالد
زرايب
زرداب
زرزار
زرزور
زرعوه
زرقاء
زرقان
زرقاو
زركلي
زرنيخ
زرهون
زروال
زرياب
زعابي
زعانف
زعبيل
زعتري
زعران
زعرور
زعزوع
زعلان
زعماء
زعنون
زعيتر
زغدود
زغرتا
زغلول
زغوان
زغيبي
زفزاف
زقزوق
زكارن
زكريا
زلابي
زلازل
زلامي
زلزال
زليتن
زمالك
زمكان
زملاء
زملاؤ
زملائ
زملكا
زنابق
زناتي
زنبرك
زنتان
زنتوت
زنجان
زندان
زنديق
زنزان
زنيدي
زهافا
زهانغ
زهاوي
زهراء
زهران
زوابع
زواحف
زوارق
زواري
زواوي
زوايا
زوبير
زوجتى
زودتن
زوراء
زوران
زوربا
زوريخ
زوكور
زوليك
زومبي
زويتن
زياني
زياية
زيايي
زيبار
زيباو
زيتون
زيجوت
زيدان
زيزون
زيسكو
زيمان
زيمبا
زيمرم
زينجا
زينغا
زيهوف
زيودي
زيورخ
سأكتف
سألتن
سائقو
ساباط
سابور
سابين
ساتشي
ساتور
ساتيا
ساحتي
ساحلى
ساحلي
ساحور
سادات
سارتر
سارجي
ساركو
ساريد
ساسكو
ساسكي
ساسين
ساطور
ساعدي
سافوي
سافير
سافيل
سافين
سافيو
ساكسو
ساكنو
سالار
سالاس
سالمي
سالوس
سالوم
ساليس
ساليف
سامار
سامبا
سامبو
سامبي
سامري
سامنت
سامنث
سامور
سانتا
سانتو
سانجي
ساندر
ساندز
ساندو
ساندى
ساندي
سانشا
سانشو
سانيو
ساوبر
ساونا
ساوند
سايبر
سايتس
سايتك
سايتو
سايدو
سايرس
سايكس
سايكل
سايكو
ساينز
ساينس
ساينو
سبائك
سباتي
سبادي
سبارو
سباعى
سباعي
سبالي
سبانخ
سباهي
سبايا
سبايس
سبايك
سبتمر
سبحان
سبرنت
سبرنج
سبروت
سبسبي
سبسطي
سبعين
سبقتن
سبكتر
سبكيم
سبلاش
سبليت
سبلين
سبنسر
سبورت
سبوسي
سبوعي
سبيتز
سبيرز
سبيرو
سبيطي
سبيعي
سبينس
ستائر
ستارت
ستارز
ستامب
ستاند
ستانل
ستايت
ستاير
ستايل
ستترك
ستجمع
ستجيب
ستخسر
ستديو
ستراس
ستروب
ستروم
ستريت
ستريد
ستريك
ستسعد
ستشعر
ستصبح
ستظهر
ستعطي
ستعيد
ستفيد
ستقتل
ستمنح
ستونز
ستيتي
ستيشن
ستيفن
ستيلا
ستيلر
ستينغ
ستيني
سجائر
سجاجي
سجالي
سجلوه
سجناء
سحائى
سحائي
سحابي
سحاقي
سحالي
سحايا
سحمان
سحنون
سحيمى
سحيمي
سخاوي
سداسي
سدحان
سديري
سرائر
سراقب
سرايا
سراير
سرجنت
سرجيو
سرحان
سرداب
سردار
سردين
سرطان
سرعان
سرغاي
سرفيس
سرقسط
سرقوه
سركوز
سركيس
سرمدي
سرهيد
سروال
سروجي
سريان
سريري
سعداء
سعدان
سعدنى
سعدني
سعدون
سعفان
سعودى
سعودي
سعيدي
سعيود
سفاجا
سفاري
سفاني
سفتلا
سفراء
سفرجل
سفنكس
سفهاء
سفورز
سفيان
سقراط
سقطتا
سكارى
سكاكا
سكاكر
سكالا
سكانى
سكاني
سكايب
سكراب
سكران
سكروز
سكوبي
سكوتر
سكوتي
سكودا
سكولز
سكوني
سكوير
سكيكد
سلاجق
سلاحف
سلاسل
سلافن
سلافي
سلالم
سلاوي
سلايد
سلايم
سلبوه
سلتيك
سلجوق
سلحفا
سلخان
سلطان
سلطوي
سلفيو
سلمان
سلمنق
سلموه
سلندر
سلهام
سلوان
سلوقي
سلوكي
سلولي
سليطي
سليمي
سماري
سماعي
سماكد
سمالي
سماني
سماوى
سماوي
سمبوس
سمحتم
سمراء
سمسار
سمسطا
سمسمي
سمسون
سمعان
سمعتم
سمعتن
سمكرى
سمنود
سميري
سميسم
سنأتي
سنابس
سنابل
سناجب
سنارى
سنافر
سنافي
سنتان
سنتيم
سنتين
سنجاب
سنجاق
سندان
سنطور
سنغال
سنكري
سنهور
سنودن
سنوري
سنوسي
سنوكر
سنونو
سنيدي
سنيور
سوائل
سوابق
سواحل
سوادي
سوارك
سواري
سوازو
سواسي
سواعد
سواقى
سواقي
سواكن
سوالف
سوانح
سواني
سوبوت
سوبيا
سوبيس
سوتشي
سوثبي
سوداء
سودان
سوداو
سودير
سوديك
سورجي
سوردو
سورنس
سوروس
سوريا
سوزان
سوساي
سوسيو
سوفيت
سوكور
سولار
سولاف
سولجن
سوليد
سوليس
سومار
سوماف
سومرز
سومري
سومطر
سوميد
سونار
سونيا
سونيل
سوهاج
سويتش
سويتو
سويدى
سويدي
سويسي
سويلم
سوينك
سيؤول
سيئول
سياتل
سياحى
سياحي
سيادى
سيادي
سياسى
سياسي
سيامي
سيبقي
سيبوي
سيبيل
سيتار
سيتبن
سيترو
سيتزن
سيتلق
سيجار
سيجما
سيجمع
سيجوم
سيدار
سيدتي
سيدنى
سيدني
سيرجي
سيرغي
سيرفر
سيرور
سيريا
سيريل
سيزار
سيزان
سيزمي
سيستم
سيسكو
سيسون
سيسيل
سيطور
سيغال
سيغما
سيغول
سيفاس
سيقان
سيقلي
سيكار
سيكتف
سيكلو
سيلاس
سيلان
سيلتا
سيلسو
سيلفا
سيلفر
سيلفي
سيليس
سيليك
سيمان
سيمبا
سيمبل
سيمنز
سيمنس
سيمور
سيموس
سيمون
سيناء
سينثي
سينما
سينور
سيهات
سيوفي
سييرا
شابلن
شابور
شابير
شابيل
شاخور
شادار
شادلي
شادور
شاذلى
شاذلي
شارتر
شارقة
شارلز
شارما
شارني
شاروق
شارون
شاريت
شاطئي
شاطبى
شاطبي
شاطىء
شاعري
شاغور
شافعى
شافعي
شافيز
شاقور
شاكور
شاكوش
شاكيد
شاكير
شاكيل
شالكة
شالكه
شالوم
شاليت
شاليط
شاليف
شاليه
شامبو
شامبي
شامري
شامسي
شاموس
شامير
شانشي
شانلي
شانيل
شاهار
شاهدو
شاهند
شاهين
شاوشى
شاويش
شايجي
شايفر
شايقي
شبابي
شبارو
شباشب
شباني
شبراو
شبرمي
شبعان
شبكتي
شبكشي
شبنان
شبيبي
شبيجل
شبيطة
شبيغل
شبيلي
شتائم
شتائي
شتادي
شتاوي
شتاين
شتروغ
شتنبر
شتورا
شتورم
شتيرن
شتيغن
شتيفي
شجاعي
شجعان
شجعتن
شجعوه
شحاته
شحاني
شحرور
شحناء
شحومي
شخبوط
شدائد
شدادي
شدايد
شدوخي
شرائح
شرائط
شرائع
شرائي
شرابي
شراري
شراشف
شراعي
شراون
شرايب
شرباش
شرباص
شرباك
شربتل
شربجي
شرتون
شرشال
شرفاء
شرقاط
شركاء
شركاؤ
شركائ
شركتا
شركتي
شركسي
شرهان
شروان
شرودر
شرويد
شريان
شريدة
شريدي
شريطي
شريعى
شريفي
شطرنج
شظايا
شعائر
شعاعي
شعالي
شعبان
شعبوي
شعراء
شعرائ
شعشاع
شعفار
شعلال
شعلان
شعواء
شعوري
شعيبي
شفافي
شفاهي
شفايف
شقائق
شقاقي
شقاوي
شقحاء
شقراء
شقيري
شكاوى
شكاوي
شكشوك
شكيلي
شلاحي
شلالا
شلايك
شلباي
شلتوت
شلغوم
شلهوب
شلومو
شليمي
شليوي
شماري
شماسي
شمالى
شمالي
شمامس
شمايل
شمبان
شمخان
شمردل
شمروخ
شمشون
شمطاء
شمعون
شملان
شمندر
شمولي
شميدت
شميسي
شميلي
شميمر
شناوى
شناوي
شنبري
شنتشن
شنعاء
شنقيط
شنيبر
شنيشل
شنيفي
شهائد
شهابي
شهاوي
شهباء
شهباز
شهداء
شهدائ
شهدتا
شهزاد
شهناز
شهوان
شوائب
شواحن
شوادر
شوادف
شوارب
شوارد
شوارز
شوارع
شواشي
شواطئ
شواطي
شواغر
شواغل
شواكل
شوامخ
شوباش
شوبان
شوبير
شودري
شوراع
شوربج
شورله
شوستر
شوشان
شوغون
شوفال
شولتز
شومان
شوملي
شوندر
شونيس
شويبل
شويرخ
شويري
شويعر
شويغو
شويمي
شيانج
شيانغ
شيبان
شيبرد
شيبوب
شيبوك
شيتوس
شيحان
شيخوخ
شيراز
شيراك
شيراو
شيربا
شيركو
شيرلي
شيروف
شيروك
شيريل
شيرين
شيشان
شيطان
شيكار
شيكاو
شيلبي
شيليم
شيماء
شيمشك
شيمون
شينجن
شينجي
شينزو
شينغن
شينكو
شينوك
شينوي
شيهان
شيوبل
شيوعي
صابري
صابور
صابون
صاخور
صاروخ
صاعقة
صافول
صالتي
صالحي
صالون
صامطة
صاندا
صاندي
صانعو
صاهود
صايفي
صباحى
صباحي
صبايا
صبحان
صبيان
صحابي
صحارى
صحاري
صحافي
صحتنا
صحراء
صحرائ
صحفيى
صحناو
صدقون
صدمتن
صدمني
صديدي
صديقى
صديقي
صرامي
صربيا
صرصار
صرصور
صعايد
صعداء
صعلوك
صعودي
صعيدى
صعيدي
صفائح
صفاقس
صفحتي
صفراء
صفراو
صفصاف
صفوان
صفوري
صقعبي
صلاحي
صلاصل
صلبوخ
صلصال
صلوات
صليبا
صليبي
صليلي
صمعان
صمويل
صنائع
صنادق
صنادل
صناعى
صناعي
صنافي
صنايع
صنبور
صندوق
صنعاء
صنعوه
صنقور
صنهاج
صنوبر
صهاين
صهريج
صهيون
صوابر
صوابع
صوابي
صوارم
صواري
صواعق
صوالح
صوامع
صواني
صوايا
صورتي
صوفان
صوفيا
صومال
صوناد
صويدر
صويلح
صيادل
صيادو
صيخان
صيدلى
صيدلي
صيرفي
صيرور
صيعري
صيقلي
صيوان
ضبابي
ضحايا
ضرائب
ضربوه
ضرغام
ضرماء
ضرورى
ضروري
ضريبى
ضريبي
ضعفاء
ضغائن
ضفادع
ضفتين
ضلوعي
ضمائر
ضوابط
ضواحي
ضوضاء
ضويحي
طائفى
طائفي
طابور
طابوق
طاجيك
طاحوس
طاحون
طارمي
طاعون
طاغوت
طاغور
طاقوي
طاكسي
طالبي
طالما
طاهري
طاووس
طبائع
طباقى
طبران
طبرجل
طبريا
طبشور
طبلاو
طبيشي
طبيعى
طبيعي
طبيلة
طحالب
طحاوي
طحنون
طرائف
طرائق
طرارو
طراطي
طراون
طربوش
طرحوه
طرسوس
طرشان
طرطور
طرطوس
طرفاي
طرواد
طريبي
طريدي
طريفي
طشقند
طعيمي
طغيان
طفولي
طفيلي
طقوسي
طلائع
طلائي
طلابى
طلابي
طلاسم
طلبوه
طليان
طليطل
طماطم
طمبور
طنبور
طنطاو
طنيجي
طهبوب
طهران
طهماز
طوائف
طوابع
طوابق
طوارئ
طوارق
طواري
طواعي
طواغي
طواوي
طوبار
طوباس
طوبال
طوروس
طوسون
طوفان
طوقان
طوكيو
طولان
طوماس
طومان
طيران
طيفور
ظاهري
ظرفاء
ظفيرى
ظفيري
ظلماء
ظهاري
ظهران
ظواهر
عائشة
عائلى
عائلي
عابري
عاجبك
عادلى
عادلي
عارضي
عارور
عازار
عازمي
عازور
عاشور
عاطفى
عاطفي
عاقور
عاقول
عالمى
عالمي
عاليه
عامرى
عامري
عامود
عانوت
عايدة
عايدي
عبابد
عباجي
عبادى
عبادي
عباسى
عباسي
عبدال
عبدرب
عبدلل
عبدلي
عبدول
عبسان
عبقري
عبودي
عبيدي
عتاهي
عتراو
عتروس
عتريس
عتمان
عتيبة
عتيبي
عتيري
عثمان
عجائب
عجائز
عجاجي
عجايب
عجرود
عجلان
عجلون
عجمان
عجيري
عجيزى
عجيلي
عدائى
عدائي
عدنان
عدوان
عذارى
عذاري
عذبوه
عذراء
عرائس
عرائش
عرائض
عرابى
عرابي
عراجي
عرادي
عراقى
عراقي
عرايا
عرايس
عرايش
عربون
عرجاء
عرجون
عرسال
عرسان
عرضوه
عرطوز
عرعور
عرفات
عرفان
عرفتم
عرفوه
عرقجي
عرقوب
عرمان
عرمرم
عرموط
عرمون
عرنوس
عروبي
عروسي
عريان
عريبي
عريجي
عريضي
عريعر
عريفى
عريفي
عريمي
عريني
عزائم
عزائي
عزازي
عزاوي
عزايز
عزايم
عزباء
عزوبي
عزيزي
عساكر
عسالي
عسراو
عسعوس
عسكرى
عسكري
عسيري
عسيلي
عشائر
عشاير
عشتار
عشقوت
عشماو
عشوان
عشيرج
عصائر
عصابى
عصابي
عصافر
عصبون
عصبوي
عصفور
عصماء
عصمان
عصيان
عصيمي
عضيلي
عطارد
عطاطر
عطاوي
عطايا
عطبرة
عطشان
عطوان
عظائم
عظماء
عفاسي
عفالق
عفريت
عفيفى
عفيفي
عقائد
عقابي
عقارب
عقارى
عقاري
عقربي
عقلاء
عقيلي
عكاري
عكاوي
عكرمي
عكروت
علائق
علائم
علاجى
علاجي
علالي
علاني
علاوى
علاوي
علشان
علماء
علمائ
علوان
علودي
علولا
علوني
علياء
عليائ
عليمى
عليمي
عليوي
علييف
عمائر
عمادي
عماري
عمالق
عمالى
عمالي
عمامر
عمانى
عماني
عماير
عمداء
عمران
عمروس
عمروش
عمروف
عمشيت
عملاء
عملاؤ
عملائ
عملاق
عمودي
عموري
عمومى
عمومي
عمياء
عميان
عميري
عميمي
عنابى
عنابي
عناصر
عناكب
عنانى
عنبري
عنتاب
عنتري
عنجري
عندما
عنصرى
عنصري
عنقاء
عنقري
عنقود
عنهمب
عنوان
عنيزة
عنيزي
عوائد
عوائق
عوائل
عواجي
عوادي
عوارض
عوارك
عوازم
عواصف
عواصم
عواضي
عواطف
عوافي
عواقب
عواقل
عوالق
عوالم
عوالي
عوامر
عوامل
عوامي
عوانس
عوايد
عوجاء
عورتا
عوفاد
عوفير
عولقى
عولقي
عولمي
عومري
عوهلي
عويشق
عويضة
عويمر
عيادي
عياري
عيتان
عيدان
عيديد
عيسوى
عيفان
عيلام
عيناك
عيواص
غابور
غابون
غابوي
غاردن
غارنر
غارني
غارود
غاروس
غاريث
غاريس
غازول
غاسكي
غافري
غالاس
غالبي
غالوب
غالون
غامبا
غامبي
غامدي
غانتس
غاندي
غانسو
غايتس
غبراء
غبريس
غثيان
غدامس
غدران
غذائى
غذائي
غذامي
غرائب
غرائز
غرابي
غراتس
غرامي
غراند
غراوي
غرايب
غرايس
غرباء
غردقة
غرسلي
غرغور
غرفتي
غرناط
غروسم
غروسو
غريان
غريتا
غريتس
غريزي
غزالى
غزالي
غزاوي
غزلان
غزنوي
غساسن
غساني
غشمشم
غشيان
غصيني
غضاري
غضبان
غضروف
غضنفر
غطفان
غفاري
غفران
غفعات
غفيلي
غلاسغ
غلاكس
غلطان
غلعاد
غلمان
غلمية
غلوبل
غلوبو
غلوري
غلوكو
غليان
غليكو
غليوم
غليون
غمبار
غمراو
غمرتن
غملاس
غنائم
غنائى
غنائي
غنامي
غنايم
غنتوت
غندور
غنوشى
غنوشي
غوانغ
غوايش
غوبتا
غوبلز
غوتشي
غوتير
غوتيي
غودار
غودلا
غوديس
غوران
غوردن
غوردي
غوركي
غورما
غوريو
غوسطا
غوغاء
غوغان
غوغول
غوكسي
غولدن
غولوف
غوميز
غونار
غونتر
غونكو
غوينم
غيابي
غيبوب
غيتار
غيرتس
غيفار
غيلاس
غيلان
غيلسن
غينغر
غينيا
غينيس
غيوان
غيورغ
غييرم
فأرجو
فؤادي
فئران
فابري
فابيو
فاتشي
فاتور
فاجعل
فاجنر
فاجوم
فاحذر
فاحرص
فاخور
فاديم
فارجو
فارسى
فارسي
فارمر
فاروس
فاروق
فاريا
فاريل
فاسكو
فاشست
فاطلب
فاطمي
فاعلي
فاعور
فاغنر
فاقوس
فالوج
فالير
فاندر
فانني
فانوس
فانيل
فايبر
فايتر
فايتس
فاينل
فاينن
فبرأي
فتاوا
فتاوى
فتاوي
فتبدو
فتجده
فتصبح
فتصير
فتضطر
فتقتل
فتيان
فجائع
فجحان
فخاري
فخفاخ
فدائي
فرائس
فرائض
فراتي
فرادى
فراعن
فراغي
فرامل
فرانز
فرانس
فرانك
فراول
فرايد
فرجوي
فرحات
فرحان
فردان
فردوس
فرزدق
فرزلي
فرسان
فرساي
فرشوط
فرشيش
فرضوه
فرعون
فرغلى
فرغلي
فرفور
فرقاء
فرقاط
فرمان
فرماو
فرناس
فرنجي
فرنسا
فرنسى
فرنسي
فرنكو
فرهاد
فرهود
فروسي
فرونت
فرويد
فريتا
فريتز
فريتس
فريجي
فريحي
فريدي
فريزر
فريزي
فريند
فزاري
فستان
فسطاط
فسفاط
فسفور
فصائل
فضائح
فضائل
فضائى
فضائي
فضالى
فضالي
فضفاض
فضلاء
فطائر
فطاير
فظائع
فعالي
فعلتم
فغالي
فقدان
فقراء
فقهاء
فكاهي
فكتور
فكهان
فلاتر
فلاحو
فلاحي
فلادي
فلاسف
فلاسي
فلافل
فلاني
فلبين
فلتان
فلسطي
فلسفي
فلكور
فلندع
فلنعم
فلورو
فلوري
فلويد
فليأت
فليرح
فليشر
فليصم
فليطح
فليطي
فليفل
فليقل
فليكر
فليكس
فنادق
فنتور
فنجال
فنجان
فندقي
فنراه
فنربه
فنرجو
فنسأل
فنسمع
فنسنت
فنضطر
فنطاس
فنعرف
فننصح
فهيقي
فوائد
فوائض
فواجع
فواحش
فوارس
فوارق
فواصل
فواقع
فواكه
فوبيا
فوتسي
فوتون
فوتيل
فوجتس
فوجيء
فودري
فودكو
فوربس
فورتي
فوردو
فوركس
فوروم
فوزان
فوستر
فوسفو
فوضوى
فوضوي
فوغتس
فوكاس
فوكوس
فولاذ
فولغا
فولغو
فولفو
فولكر
فولكس
فوليك
فوندا
فيأخذ
فيؤكد
فيالق
فيبكو
فيبلغ
فيتور
فيتول
فيتيس
فيتيل
فيجاس
فيحاء
فيحان
فيحتل
فيخرج
فيدال
فيدجي
فيدخل
فيدرر
فيديل
فيديو
فيذهب
فيران
فيرجع
فيرجن
فيردر
فيردى
فيردي
فيرست
فيرما
فيرمي
فيرنر
فيرهو
فيروز
فيروس
فيرير
فيسأل
فيسبا
فيستا
فيستر
فيسنت
فيشير
فيصلي
فيضان
فيضطر
فيعمد
فيعني
فيغاس
فيفاء
فيفري
فيفضل
فيقرر
فيلبس
فيلجأ
فيلدز
فيلكا
فيلكس
فيللا
فيللم
فيلهو
فيلود
فيليب
فيمتو
فينجر
فينشر
فينشي
فينغر
فينكس
فينلي
فينوس
فينول
فينيس
فينيق
فينيل
فيوجن
فيومي
فييرا
فيينا
قابسي
قابلي
قابوس
قابيل
قادري
قادسي
قادير
قاديش
قاذور
قارتي
قارصل
قارور
قارون
قاروه
قارىء
قاريء
قازان
قاسمي
قاشان
قاطرج
قاطنو
قاعدي
قالوه
قامتا
قاموس
قانسو
قانصو
قانون
قبائل
قبارص
قباطي
قبانى
قباني
قبايل
قبرصى
قبرصي
قبطان
قبقاب
قبلان
قبندي
قبيسي
قبيصى
قبيصي
قتالي
قثامي
قحطان
قدامى
قدامي
قدماء
قدمتا
قدمتم
قدموس
قدومي
قذائف
قذافى
قذافي
قرآني
قرأتم
قرائن
قرائي
قراصن
قرافي
قرامط
قراوي
قرايب
قربان
قرجان
قرداح
قردان
قررتا
قرزعي
قرصان
قرصاي
قرضاب
قرطاج
قرطاس
قرطام
قرعون
قرغيز
قرقاح
قرقاش
قرقاص
قرقور
قرقوش
قرمزي
قرميد
قرنفل
قروني
قريتى
قريتي
قريشي
قزوين
قسائم
قساطل
قساوس
قشتال
قشعمي
قشقاو
قصائد
قصايد
قصباء
قصتنا
قصدير
قصيبي
قصيمي
قضائى
قضائي
قضايا
قضبان
قضقاض
قضيبي
قضيتا
قطامش
قطامي
قطايف
قطعان
قطعوه
قعدان
قعقاع
قعيمي
قفاري
قفطان
قفقاس
قلائد
قلائل
قلاقل
قلالي
قلاوي
قلعجي
قلنسو
قليبي
قليوب
قماشي
قماطي
قمتين
قمصان
قمودي
قميزي
قنابل
قناطر
قناعي
قناني
قناوى
قناوي
قنبيط
قندوز
قنديل
قنصلي
قنطار
قنطاو
قنطور
قنيطر
قهاوي
قهوجى
قهوجي
قوائم
قواتي
قوارب
قوارض
قواسم
قواعد
قوافل
قوافي
قواقع
قوزاق
قوقاز
قولون
قومجي
قوميز
قويدر
قويسم
قويضي
قويعي
قويفل
قيادي
قياسى
قياسي
قيثار
قيراط
قيزان
قيصري
قيصوم
قيعان
قيلول
قينان
قيوين
كأنما
كاباس
كابتن
كابرس
كابري
كابلي
كابوت
كابور
كابوس
كابول
كابيس
كابيل
كابين
كاتشب
كاتيا
كاتيل
كاثود
كادقل
كاراج
كاراغ
كارتر
كارتل
كارثي
كارفر
كارلا
كارلس
كارلو
كارمو
كارنو
كارني
كارول
كارير
كاريس
كاريك
كاريل
كارين
كازاخ
كاساي
كاسبر
كاسبي
كاستر
كاستل
كاسكو
كاسيت
كاسير
كاسيز
كاسيو
كاشغر
كاشير
كاظمي
كافكا
كافور
كاكاو
كاكول
كالاس
كالام
كالوم
كالون
كالين
كامار
كامبل
كامبو
كامري
كامسك
كامكو
كامور
كامير
كانتا
كانتو
كاندي
كانون
كانيو
كاهيل
كاوتش
كاودر
كاورو
كاياك
كايتل
كايتي
كايرو
كايزر
كايسي
كبائر
كباتن
كبارى
كباري
كبراء
كبريت
كبسول
كبوشي
كبيسي
كتائب
كتابي
كتاني
كتبوه
كتساف
كتكوت
كتلوي
كتمان
كثبان
كحولي
كدادي
كدولت
كذبلس
كرابل
كرادل
كراسي
كرافت
كرامر
كرامي
كرانس
كراهي
كراوس
كراول
كرايي
كرباج
كربول
كربون
كرتون
كردوس
كردون
كرزاى
كرزاي
كرفان
كركار
كركتر
كركدي
كركلا
كركوت
كركوك
كرمان
كرملي
كروات
كرواس
كروان
كروبر
كروبي
كروجر
كروزر
كروغر
كروكر
كروكي
كرويف
كريات
كريدي
كريري
كريكت
كريمر
كريول
كزبري
كساسب
كسليك
كشكول
كشمير
كعادت
كفاحي
كفارن
كفرحب
كفرنب
كفلاء
كفورى
كفوري
كلابر
كلابش
كلابي
كلارا
كلارك
كلافي
كلاكس
كلامى
كلامي
كلاود
كلاوس
كلايد
كلايس
كلايف
كلاين
كلباء
كلثوم
كلدان
كلفني
كلكتا
كلمتي
كلميم
كلنكر
كلوتي
كلورو
كلونى
كليبر
كليتي
كليرك
كليشي
كلينت
كلينك
كمارو
كمالي
كمايل
كمبري
كمبيا
كمبيو
كمثرى
كمجرم
كمسار
كمومي
كمونى
كميفك
كنائس
كناري
كناني
كندري
كندور
كنزار
كنساس
كنعان
كنكون
كنيدي
كنيست
كهربي
كهنوت
كوابل
كوادر
كوادو
كوارث
كوارع
كوارك
كواري
كواسي
كواشر
كواشف
كواكب
كوالا
كوامن
كوامي
كوانج
كوانغ
كواهل
كوبرا
كوبرز
كوبرى
كوبري
كوبلر
كوبلي
كوبون
كوبيك
كوتشر
كوتلر
كوتور
كوتيل
كوخاف
كوداك
كودجا
كودري
كورال
كورام
كوربن
كورتز
كورتس
كورتن
كورتي
كوردي
كورسك
كورسي
كورفو
كوركر
كورنث
كورنر
كورنو
كورني
كوريا
كورير
كوزاك
كوزمو
كوسبا
كوسبي
كوستا
كوستر
كوستو
كوستي
كوفاس
كوفال
كوكبي
كوكتو
كوكيز
كولاج
كولمب
كولنز
كولوك
كولوم
كوليج
كولير
كوليس
كولين
كومار
كومبر
كومبس
كومبو
كومبي
كومكس
كونار
كونتر
كونتي
كونجو
كوندر
كوندو
كوندي
كونري
كونست
كونغو
كونكت
كونور
كونيغ
كوهلر
كوهين
كويتى
كويتي
كويرس
كويري
كويست
كويفا
كويكب
كويكي
كويلو
كوينز
كيابل
كياني
كيبكو
كيبيك
كيدار
كيدال
كيران
كيربر
كيربي
كيرتز
كيرتس
كيرست
كيرلا
كيرلس
كيرني
كيروز
كيروش
كيريل
كيزاد
كيسلر
كيسوك
كيشوت
كيغال
كيغان
كيفاش
كيفما
كيليس
كينجز
كيندل
كيندي
كينغز
كينكل
كينون
كينيا
كيهان
كيوان
كيوتو
كيودو
كيوشو
كيوكو
كيونغ
كيويل
كييزا
كييفو
لأسرت
لأكون
لاباز
لابيد
لاتفي
لاجوس
لاجيء
لاحرب
لادسو
لاذقي
لازال
لازلت
لازلو
لاسال
لاسلك
لاشيء
لاشين
لاصفي
لاعبو
لاعنف
لاعود
لاغان
لاغوس
لافال
لامار
لاندو
لانكا
لاهاي
لاهوت
لاهور
لاهيا
لاوعي
لاوند
لايجد
لايحب
لايحق
لايخف
لايصح
لايقل
لاينز
لاينس
لبلاب
لبنان
لتصبح
لتونس
لجنتي
لحبيب
لخريج
لدائن
لداعش
لراغب
لسائق
لساني
لشبون
لشركت
لطائف
لغتين
لفائف
لقانى
لقطاء
لقمان
لكصاس
لماذا
لمعان
لموظف
لمياء
لنأخذ
لندني
لوائح
لواعج
لوبان
لوبوف
لوبيز
لوثار
لوثري
لوجست
لوران
لورنز
لورنس
لوريل
لورين
لوزان
لوزرا
لوسيو
لوغار
لوغان
لوغوس
لوفيغ
لوكاس
لوكاش
لومان
لومير
لوهان
لويجي
لويحق
لويحي
لويدز
لويمي
ليأخذ
ليؤكد
لياقي
ليالى
ليالي
ليبان
ليبدأ
ليبرو
ليبور
ليبيا
ليتشي
ليثبت
ليحقق
ليخرج
ليخوف
ليدجر
ليرنر
ليزري
ليزيك
ليستر
ليشكل
ليصبح
ليعود
ليفنس
ليفني
ليفين
ليكرز
ليكنز
ليكود
ليلكي
ليمان
ليمور
ليمون
ليندا
ليندر
ليندس
ليندل
ليندن
ليندي
لينزي
لينضم
لينون
ليونز
مأثور
مأجور
مأخوذ
مأذون
مأزوم
مأساو
مأسوي
مألوف
مأمور
مأمول
مأموم
مأمون
مأهول
مؤاخذ
مؤازر
مؤامر
مؤانس
مؤتلف
مؤتمر
مؤدلج
مؤرخو
مؤسسي
مؤكسد
مؤيدو
مئتين
مائتا
مائتي
مائوي
مائير
مابعد
مابين
ماتري
ماتسو
ماتيا
ماتيس
ماتيو
ماثيو
ماجاء
ماجرى
ماجري
ماجعل
ماجور
ماجيك
ماحدث
ماحصل
ماحول
مادام
مادتي
مادفع
مادوف
ماذكر
مارتا
مارتن
مارتي
مارثا
مارجو
مارشي
مارغو
مارفل
ماركس
ماركو
مارلو
مارلي
مارمي
ماروق
ماروك
مارون
ماريا
ماريس
ماريك
مارين
ماريو
مازاد
مازال
مازدا
مازلت
مازلن
مازمب
مازني
مازوت
مازور
مازوز
ماسبق
ماستر
ماسور
ماسون
ماشاء
ماشاب
ماشال
ماضوي
ماطاش
ماعاد
ماعرف
ماعلي
ماعون
ماغرو
ماغوط
مافعل
مافيا
مافيش
ماقال
ماقام
ماقبل
ماقدم
ماكان
ماكاو
ماكاي
ماكتب
ماكدو
ماكرو
ماكري
ماكغر
ماكغو
ماكفي
ماكلو
ماكنز
ماكول
ماكون
ماكيت
ماكين
مالاي
مالبث
مالدي
مالرو
مالطا
مالطي
مالكو
مالكى
مالكي
مالمو
مالوف
ماليش
ماموث
مانجا
مانجم
مانجو
ماندر
ماندل
ماندو
ماندي
مانسي
مانشر
مانشي
مانغا
مانغو
مانلي
مانوي
مانيا
مانيش
ماورد
ماورو
ماوري
مايتم
مايجب
مايخص
مايرز
مايكل
مايلز
مايلي
ماينز
مايور
مباحث
مباخر
مبادئ
مبادر
مبادل
مبادى
مبارا
مبارح
مبارد
مبارز
مبارك
مباري
مباسط
مباشر
مباغت
مبالا
مبالغ
مبانى
مباني
مباها
مباهج
مبايض
مبايع
مبتدئ
مبتدع
مبتذل
مبتسر
مبتسم
مبتعث
مبتعد
مبتغا
مبتكر
مبتهج
مبتهل
مبتور
مبثوث
مبحوث
مبحوح
مبخوت
مبدئي
مبذول
مبرمج
مبرهن
مبرور
مبروك
مبسوط
مبشور
مبعثر
مبعلي
مبعوث
مبلور
مبهور
مبولح
مبوما
مبيكي
متآخي
متآمر
متأبط
متأثر
متأخر
متأزم
متأصل
متأكد
متألف
متألق
متألم
متأمل
متأهل
متابع
متاثر
متاجر
متاحف
متاخم
متاعب
متبار
متباك
متبحر
متبدل
متبرج
متبرع
متبقي
متبلد
متبني
متبوع
متبول
متتال
متتبع
متجبر
متجدد
متجذر
متجرد
متجسد
متجمد
متجمع
متجنب
متجنس
متجهم
متجوز
متجول
متحاب
متحجب
متحجر
متحدث
متحدر
متحرر
متحرش
متحرك
متحسر
متحسس
متحصل
متحصن
متحضر
متحطم
متحفز
متحفظ
متحفي
متحقق
متحكم
متحلق
متحلل
متحمس
متحمل
متحور
متحول
متحير
متحيز
متخاف
متخبط
متخرج
متخصص
متخطي
متخفف
متخلد
متخلص
متخلف
متخلق
متخلي
متخوف
متخيل
متداع
متدثر
متدخل
متدرب
متدرج
متدفق
متدلي
متدني
متدين
متذرع
متذكر
متذمر
متذوق
متذيل
مترئس
متراخ
متراس
متراص
متربص
متربع
مترتب
مترجم
متردد
متردي
مترسب
مترسخ
مترشح
مترصد
مترقب
متركز
مترنح
مترهل
متروك
متريث
متزعم
متزلج
متزلف
متزمت
متزوج
متساو
متسبب
متسرب
متسرع
متسكع
متسلح
متسلط
متسلق
متسلل
متسلم
متسمر
متسوق
متسول
متسيب
متسيد
متشبع
متشبه
متشجع
متشدد
متشرد
متشظي
متشعب
متشقق
متشكل
متشنج
متشوق
متصحر
متصدر
متصدع
متصدق
متصدي
متصرف
متصفح
متصلب
متصور
متصوف
متصيد
متضاد
متضخم
متضرر
متضرع
متضمن
متطرف
متطرق
متطفل
متطلب
متطلع
متطهر
متطور
متطوع
متظلم
متعاط
متعاف
متعال
متعبد
متعثر
متعدد
متعدي
متعذر
متعرج
متعرض
متعسر
متعصب
متعضي
متعطل
متعفف
متعفن
متعقل
متعلق
متعلل
متعلم
متعمد
متعمق
متعنت
متعهد
متغرب
متغلب
متغيب
متغير
متفان
متفتح
متفجر
متفحم
متفرج
متفرد
متفرع
متفرغ
متفرق
متفسخ
متفقد
متفلت
متفهم
متفوق
متقاض
متقال
متقبل
متقدر
متقدم
متقشف
متقطع
متقلب
متقلص
متقمص
متقيد
متكبد
متكبر
متكتل
متكتم
متكثف
متكدس
متكرر
متكسر
متكفل
متكلس
متكلم
متكون
متكيف
متلبس
متلفز
متلقم
متلقي
متلمس
متلهف
متلون
متلوي
متمتع
متمثل
متمدد
متمدن
متمرد
متمرس
متمرن
متمسك
متمشي
متمعن
متمكن
متملق
متملك
متمني
متموج
متمول
متميز
متناس
متنام
متنبئ
متنبى
متنبي
متنحي
متنزه
متنصر
متنطع
متنفذ
متنفس
متنفع
متنقل
متنكر
متنمر
متنور
متنوع
متهاو
متهدل
متهرب
متهور
متهيئ
متوار
متواز
متوال
متوتر
متوجب
متوجس
متوجه
متوحد
متوحش
متوخا
متورط
متورم
متوزع
متوسط
متوسع
متوسل
متوصل
متوضع
متوطن
متوعد
متوغل
متوفا
متوفر
متوفى
متوفي
متوقد
متوقع
متوقف
متوكل
متولد
متولى
متولي
متوهج
متوهم
متياس
متيبس
متيسر
متيقظ
مثابر
مثالث
مثالى
مثالي
مثقال
مثقوب
مثلما
مثنوي
مجابل
مجابه
مجادل
مجادي
مجاذي
مجارا
مجارد
مجارى
مجاري
مجازا
مجازر
مجازي
مجافي
مجالس
مجامع
مجامل
مجانى
مجاني
مجاهد
مجاهي
مجاور
مجايل
مجبول
مجتاز
مجتزأ
مجتمع
مجتهد
مجداف
مجدلي
مجدمي
مجدوب
مجدول
مجذوب
مجرشي
مجرمو
مجروح
مجرور
مجروش
مجزوء
مجلاد
مجلوب
مجمتع
مجموع
مجنون
مجهري
مجهود
مجهول
مجوقل
مجوهر
مجيدي
محابا
محابي
محاجج
محاجر
محادث
محادق
محاذي
محارب
محارم
محازب
محاسب
محاسن
محاصر
محاصص
محاضر
محافط
محافظ
محافل
محاكا
محاكم
محاكي
محالي
محاما
محامو
محامى
محامي
محاني
محاور
محاول
محايا
محايث
محايد
محايل
محبوب
محبوس
محتاج
محتار
محتال
محتجز
محترف
محترق
محترم
محتسب
محتشد
محتشم
محتضن
محتفظ
محتفل
محتكر
محتمل
محتوا
محتوم
محتوى
محتوي
محجري
محجوب
محجوز
محدود
محذوف
محراب
محرزي
محروس
محروق
محروم
محسوب
محسود
محسوس
محسوم
محشور
محصور
محصول
محضار
محظور
محظوظ
محفور
محفوض
محفوظ
محفوف
محققو
محكوم
محللو
محلول
محمدى
محمود
محمول
محموم
محميد
محوري
محوسب
محويت
محيدث
محيسن
مخابر
مخابز
مخاتي
مخادع
مخارج
مخازن
مخاشن
مخاصم
مخاطب
مخاطر
مخاطي
مخافر
مخالص
مخالط
مخالف
مخالي
مخاوف
مخايل
مخبري
مخبوء
مخبوز
مختار
مختال
مختبئ
مختبر
مختتم
[...]
