[PAD]
[UNK]
[CLS]
[SEP]
[MASK]
!
%
&
(
)
*
+
,
-
.
/
0
1
2
3
4
5
6
7
8
9
:
a
b
c
d
e
f
g
h
i
j
k
l
m
n
o
p
q
r
s
t
u
v
w
x
y
z
،
؛
؟
ء
آ
أ
ؤ
إ
ئ
ا
ب
ة
ت
ث
ج
ح
خ
د
ذ
ر
ز
س
ش
ص
ض
ط
ظ
ع
غ
ػ
ؼ
ؽ
ؿ
ف
ق
ك
ل
م
ن
ه
و
ى
ي
##و
##ا
##ه
##م
##g
##e
##a
##5
##ل
##ق
##ح
##ظ
##ن
##ي
##ش
##ت
##د
##ة
##س
##إ
##ئ
##9
##7
##ف
##ر
##ط
##ز
##خ
##ك
##ذ
##r
##l
##s
##2
##ب
##4
##1
##ء
##أ
##ع
##v
##y
##o
##n
##u
##h
##k
##p
##w
##j
##ص
##غ
##ى
##ج
##f
##t
##b
##c
##ؤ
##m
##3
##6
##0
##ث
##ض
##8
##i
##d
##x
##q
##z
##آ
##ؽ
##ؿ
##ؼ
ال
##ال
##ية
الم
##ات
في
##ان
##ار
من
##ين
##ام
##ها
##لى
##ير
وال
##ول
الت
##اد
##ري
الع
##را
##ون
##لي
##ما
الأ
##ست
##لا
##نا
على
##اب
##وا
##ور
أن
لل
##يد
##هم
الس
##يا
الح
الا
ان
##عد
الق
##ائ
بال
الش
عن
##لك
الج
الد
الب
##اء
##وم
##يل
##رب
##اف
مع
##ود
##رة
##من
الف
##ذا
##قد
##حد
##عة
##رك
الن
إلى
وت
##مة
##يس
##قة
##مل
التي
##بي
##اع
الإ
الك
الل
##مد
وأ
##وق
الخ
##يت
الذ
##سب
##لم
ما
##يم
لا
##في
##رو
##بد
##بل
##بر
الص
بن
##لة
##ارة
##مر
الو
وا
مح
الر
##ني
##قي
##حت
##هد
##عل
##ذه
##يع
##مع
##جل
كان
وق
##ته
علي
##مو
##كن
##سي
##رف
##با
الى
الذي
أو
لم
##لال
##تي
##اني
##دي
##كر
##سم
الط
##خر
المت
هذا
وه
##يات
##سا
##اض
##صل
##كل
##عت
الث
##يف
##حة
كل
##عب
است
##اص
بين
##أن
##ئيس
عبد
يت
وم
بعد
##سة
هذه
##نة
##نت
##لف
الله
##قت
##رض
##كت
##هر
##دم
##جه
##بة
##سل
##شار
##زي
أم
##عا
##دا
##مال
##كان
##وي
##كون
مت
##وف
##رت
##يرة
##ولة
إن
##وس
وب
##ادة
##جا
##الم
##صر
مد
العام
##قا
والم
##طة
##راء
##بار
##بن
20
عام
خلال
##عض
##ديد
##شر
##يث
##ريق
تع
##وب
##فا
##خت
هو
##جت
##وض
لت
##در
##قل
##دة
الي
##وج
وع
##الي
##خل
##طل
أي
والت
##انية
##ثر
مش
##اري
##رح
##ارات
##له
##ركة
##وز
##وع
وي
تم
##ورة
وس
بل
ذلك
##طن
عبدال
تح
محمد
##رق
##خص
##اح
##ند
مس
كما
المح
فى
المن
##فس
##قر
##جلس
##كم
##دد
قال
له
##ئة
الأم
وقال
##ادي
يع
ول
##وات
##فت
حيث
الان
تت
##اج
##فر
##وى
##ذلك
##افة
بم
وز
##ثل
بت
الغ
##وري
19
رئيس
##سية
اله
وج
##تها
المع
أك
هي
العرب
مست
##وية
المد
ولا
بد
##وت
قبل
##الة
##ليم
##عود
##ويت
المست
وإ
مج
قد
##كي
##تى
للم
الاست
المس
##عي
ون
أب
##رج
##ضا
##حدة
ومن
##طقة
سي
##حي
##عم
##كوم
##بت
##ينة
به
وفي
تن
##يز
##سبة
وح
غير
با
بح
الز
يق
##الية
وك
##وان
العالم
عليه
بر
##أس
##لب
عند
##ناء
##رائ
الدول
الآ
##فة
##ميع
##يرا
حتى
بعض
##يب
تق
##وة
ام
##تخ
##حمد
مؤ
يم
الام
المش
##فض
بش
##فع
##ماع
وقد
##قبل
وهو
##كة
200
النا
لي
الات
##قط
##حا
كانت
##قات
##وار
##نية
أس
##ركز
##رياض
ست
تش
##صب
##ثة
##قب
##صاد
##سط
أنه
##رد
##سن
هنا
ثم
##قدم
##وك
##زة
##ولا
اليوم
##اط
##يش
البل
##جد
##به
##اصة
##حو
##سلام
##خرى
وكان
##امل
عدد
##صف
##حاد
##قيق
العمل
بأن
##رات
##لام
##ابة
كب
وف
##إن
##دارة
للت
##جم
مجلس
المؤ
##ضع
فيها
##اه
##جة
##يين
##رم
الرئيس
##يان
##تم
##سات
ملي
##كد
##رن
##ضاف
المص
##رية
الرياض
السيا
##اة
عمل
##بات
الكويت
فيه
##واق
##زيز
لكن
دول
يوم
##عيد
##فاع
الوز
##لت
والأ
الأول
##از
##بية
ات
الحكوم
##بع
##يج
##راق
أع
##صد
##ثير
##صة
##هما
##ارج
##يخ
##ارية
يج
المم
لأن
الماض
وان
##غير
لأ
##الات
##روع
##افظ
عم
##طاع
بها
##ولى
ين
##يه
##جنة
فت
##قاء
يح
تأ
ولك
نظ
مص
##هل
##وص
الض
##وقع
المنا
السعود
يكون
##ديدة
العربية
##ختلف
مثل
نفس
##00
لد
##ائل
هناك
تس
وش
بأ
##امج
##ينا
مق
##يو
خط
##ثم
التع
تص
##مه
##لاح
##طال
##ورية
##يلة
##كية
##جتماع
تج
الأس
##حدث
##اخل
##سرائ
إلا
ولكن
إلي
المج
سن
##ؤول
##انون
##امة
عبدالله
##فل
التن
جميع
مو
##سين
والع
##خط
##راف
##رى
لها
حد
لن
بالم
اعت
ود
##برا
##جتمع
الذين
المر
تد
أكثر
كت
##ركات
أبو
##وير
##كا
ور
##ابات
المتحدة
##حر
##اريخ
##راج
منذ
فإن
201
والا
أحد
انت
##عية
سب
##قى
##الح
##شف
##صول
##ظر
يست
انه
##ارس
الموا
حق
تحت
##رار
حول
بالت
المو
وهي
دون
##لكة
يا
أمس
##واء
##انب
يمكن
##باب
اي
اللا
##يني
إذا
##كرة
##سبب
##ذكر
لح
فر
يد
او
تط
##بلغ
##قول
##حية
##سان
منها
##لاء
##عات
##وط
التج
تلك
##ريد
الساب
##غم
##شت
##ظم
العامة
الوق
بط
مر
##علام
##ضم
##وائ
##طف
الملك
وذلك
##قتصاد
##ربية
مبار
الشيخ
آخر
الرا
وأن
الوطن
##ليل
##ذي
##نى
##اق
يتم
##سر
##لاق
##هدف
##ضي
الأمير
##ساعد
##الت
##موعة
ولي
##بط
##فضل
##لاف
##كتور
##ماء
##عزيز
##امعة
##دية
##اش
أول
المنت
أد
##ضر
##ضافة
##اته
لبن
مم
##عاون
بشكل
##خد
ابن
##يري
الماضي
للا
##عر
الحكومة
##لسط
##فاق
عليها
##طر
##يئة
##عداد
الاتحاد
والتي
##لية
والد
احت
##ودة
الدولة
شي
موا
التح
##عمال
الجز
الفريق
لو
##جر
بإ
##صح
##ئا
أيضا
##لاث
##لط
منطقة
حال
الإن
##طني
مليون
##قال
الأخ
##ارت
العم
فيما
##زم
##طار
لاع
جه
وما
مما
وزير
##الد
المقبل
بع
واست
أحمد
أش
الجن
##يط
##أة
##ريب
المنطقة
##زب
يش
##لق
مصر
##خدم
##باد
جن
وزارة
##ائية
شركة
##ديث
الإم
تكون
سنة
##ساء
##يدة
المشار
ليس
##فق
##كس
##كري
لإ
##اس
فقد
المملكة
##حث
##يران
لبنان
##ضة
##جن
##كثر
الثاني
##مية
##وقف
##عار
الدكتور
##زل
##ليات
##واب
المبار
الشر
##خذ
##سرائيل
أمام
##ينية
زي
##اما
##اذ
قي
الأمن
حين
مدير
14
##افظة
يس
ولم
فه
الفت
خاصة
نق
تست
شخص
نحو
##حن
##وه
ارت
تف
أخرى
##وح
عبدالعزيز
وص
بما
##ولايات
##ريف
##يلي
والإ
##ربع
وخ
##يال
المجلس
##ورو
##ظمة
اس
##جراء
##فيذ
##احب
عدم
عندما
##غة
##شرة
##راك
الوقت
##ظام
الوطني
والح
##مي
العق
الإسلام
##صبح
الأولى
##رفة
بي
عبر
##نائ
نت
والن
##ليج
اللبن
السعودية
##طي
##غي
للأ
10
منه
##يفة
##زيد
##ظيم
بسبب
فقط
##ياة
أما
##انيا
##مت
بج
المجتمع
##قديم
##وني
دولار
##زمة
الخارج
مدينة
دور
سيا
الصح
قائ
##ائر
##قيقة
قام
رس
كث
قدم
نها
مختلف
##زا
وأضاف
##ابعة
لما
##ومات
##كمة
##كتب
بلغ
وجود
العلا
آل
واحد
##هيم
##ابل
##همة
##حق
الشركة
##كو
بس
##عادة
##شي
##تر
##اعة
##ياء
##اتها
##روف
##معية
الشعب
##حل
والس
##رس
المركز
##جز
ومع
##اعت
فريق
العراق
داخل
اب
الاحت
الخط
##لاثة
##خب
الولايات
18
اللجنة
12
##فظ
طريق
المه
##قاط
تو
##جهة
بالن
##ابع
وهذا
تب
##وسط
بص
الناس
والش
##ضية
##انة
##أت
ضمن
15
عشر
##تمر
البن
##طق
عل
##حات
أق
وسلم
##عضاء
##مس
الفلسط
صلى
صح
وإن
بق
##وله
الاجتماع
##ضاء
العربي
الجه
##جان
##قاف
##داء
وعلى
عمر
الآن
##عى
##راض
سمو
أح
اللاعب
##بير
##مبر
المخ
##الى
##ملة
اللي
##واقع
##ريط
##تخابات
##سبوع
الثال
المالية
مركز
الأمر
##جاز
الظ
جاء
##لاب
##طلق
##ادر
ضد
إدارة
الوزراء
الاقتصاد
اخت
نس
بالإ
##جب
كبير
أبي
ألف
لع
##فريق
للع
وقت
لدى
مستوى
البر
##جال
الوا
أهم
##جات
للح
عاما
##خدام
##وما
تر
##رحلة
القي
يقول
##راسة
##داد
الخليج
##ياه
11
حل
التد
الدولية
المق
ذكر
##طب
عنه
كبيرة
للش
لهم
ويت
الشباب
##يك
##ارب
أخ
##اقة
##غل
##ضور
صاحب
##اهد
##الب
جز
##ؤون
الدولي
السابق
##اث
التق
العلم
أنها
وغير
##هتم
##اعد
الشرق
##عتبر
وعد
الخاصة
##دت
القطاع
##وضح
العديد
##صوص
##اك
##سكر
مشار
##يدا
نش
##براهيم
##وريا
البط
##امي
##اهرة
##وء
نفسه
##علن
قر
##مين
السن
حسن
وضع
المواطن
##هن
الكت
يؤ
فع
فال
التص
التعليم
يجب
جانب
##سسة
لش
لاعب
بو
القانون
الأن
جديدة
##ئي
مخ
الوطنية
##خرج
##ائب
##طية
##تين
##دمات
نف
خالد
##يته
##شة
مجموعة
##ضح
##لعب
امس
##طلب
##مان
لان
الار
##طفال
لدي
السل
##قرار
عملية
##ثناء
##نان
##هاب
والذي
##ابت
الحر
##زال
مشروع
العالمية
##بدأ
الثانية
##تيجة
بك
بان
##نع
عقد
##كات
النف
##سسات
وجه
وكانت
للد
موض
##ربي
13
أجل
##ربة
##طلاق
##اهر
مشيرا
##ادات
ترك
هد
فل
بدا
عض
وأكد
التى
الداخل
##ظهر
شر
التأ
الحد
المغ
##باح
##ده
ذات
أج
##هداف
شهر
علا
##انا
##وبة
السي
##ائرة
##جاه
##سيا
البلاد
##نامج
حم
دولة
رح
مسؤول
##صار
عد
الكثير
##قم
##نف
##ادم
صف
##يدي
مجال
199
##ضمن
الإمارات
##زام
القر
##ارك
##شاء
الفترة
##وال
لك
سنوات
##ابية
القدم
صالح
الانت
تقدم
##اي
##واصل
البلد
نسبة
سل
عب
##ومة
التش
رب
الفر
لجنة
المصر
حدث
المباراة
##ويل
قطاع
##علق
المدينة
كم
##ساب
تحقيق
احد
##ائق
الشركات
السوق
جدا
تك
اخ
الخارجية
بيان
المسؤول
##ليا
الجديد
الرو
##جيل
##صادر
عرض
فأ
التعاون
##ريم
أص
ريال
تاريخ
25
حالة
الأمري
##جوم
##وجد
عدة
سعود
اسم
علم
##طالب
والق
سعد
تل
نادي
الاول
الدين
مض
دي
أغ
السياسية
الجم
##ولات
احمد
جديد
حسب
##عاية
دبي
##مدة
##هي
##لات
هل
يف
##جاح
##فاء
مرة
##ئية
شيء
صد
النها
##هاز
والص
##ائج
سعيد
نهاية
##ثمار
##ائي
##قه
كتاب
##الف
النظام
الجمه
حكوم
لكل
لس
محا
##قرير
##ويات
##نين
##تخب
الطبي
اش
##كار
تخ
17
سيت
##تهم
باسم
##ريقة
الإعلام
##كلة
##دمة
أف
العد
والب
كون
ولد
##ورا
وبعد
والث
##عين
وتم
قرار
##لمين
##ئاسة
ثلاثة
مب
##رام
الامير
كيف
##ساس
منت
مك
المشروع
الداخلية
16
نقطة
##خصص
وكذلك
##حص
##املة
##ادث
الجديدة
التط
##تل
30
الاد
تعد
القب
بينما
البحر
المصري
##ولي
مكان
فهد
القد
عق
الهيئة
##ادل
##تا
##والي
دين
الاخ
اد
ويع
##اجة
الآخر
رأ
الفرن
##فه
لج
##ظبي
المط
##حيح
الاس
##صور
والف
##جاوز
أنا
##اصمة
##هور
يأ
الأح
##جهزة
الحديث
##قافة
الجيش
والج
كرة
يحت
##حب
##علان
واحدة
فض
يب
الدفاع
للن
##وبية
##ادية
##خول
مث
حاليا
أكد
لمن
##يص
الحياة
##يرية
##وث
بير
أل
##اده
وليس
السمو
هم
وث
##طع
والخ
##كيل
المنتخب
أكبر
إذ
مه
باب
##علومات
حديث
##قدر
السعودي
أعمال
##ريح
بالأ
##اصر
##قية
تحد
باست
##قليم
بكل
بنسبة
توا
وأشار
##لمان
ساب
حسين
منهم
##باط
نائب
##شح
وبين
بار
رغم
برنامج
##غيير
##ضايا
سليم
لب
##جي
عالم
وصل
الشخص
##صحاب
لكرة
بغ
اللبناني
بناء
اليمن
اللقاء
##جراءات
##احة
##طيع
##ونية
فترة
للإ
الخاص
خارج
مليار
يعني
لق
تقديم
أفضل
الاعت
الشع
السلام
##هاد
##شفى
##اخ
##ائزة
##راتيج
##ئب
حزب
##قق
وتع
##وفير
##هتمام
الرسم
##سلحة
التس
##ائف
##ميل
مرت
##رجة
الدور
##ناعة
##هب
در
##راب
##عبة
مباراة
ثلاث
اجتماع
##ارع
##نتاج
##يام
وقالت
##يتها
##لين
نظام
##ائد
##ئات
نقل
##هرب
النادي
للج
قدر
##ربعة
المال
قانون
##قامة
##ادت
جامعة
##هير
رأس
##افي
الانتخابات
الأش
الخام
##سرائيلي
اذا
للس
مؤك
الكبير
##وسف
أبوظبي
الثالث
والاست
##كين
##فراد
##وفي
قل
يون
##ذر
الرح
وط
السف
جل
مبا
##طلع
سكان
سواء
جهة
اقت
##ماية
حا
مقابل
سلط
ظل
بالع
مسا
##ونة
النائب
إليه
شهد
بف
مساء
##غا
طلب
##واج
خصوص
المرأة
دعم
رم
مل
الأخيرة
المرحلة
بداية
الثلاث
##هرجان
##اليات
الاقت
حمد
بقي
أر
بات
كافة
##ابي
بيت
الأرض
الحكم
أمري
تعالى
##صال
الحالي
##وجه
إم
##ستان
ينا
اع
انها
الوزارة
##قص
قوله
الجميع
##مود
##مالي
فان
الذى
##ؤلاء
##اتهم
الأعمال
##يار
##تيار
##ميز
تؤ
##حقيق
الحرب
ملا
##شارك
إنه
الشريف
نوع
ني
##ماعي
المشت
وتن
##مرار
تنا
فلا
##اعر
مال
بمن
موقع
اص
##اعات
##سام
تنفيذ
رجال
##صالات
##كام
سر
الأخرى
الترك
أت
##بيق
الحق
##سباب
حركة
هيئة
دائ
زيادة
فن
ضر
اكت
##راع
##طلا
الجمعية
المستقبل
##رفع
##كبر
كأس
يكن
وسط
##شد
نج
يص
سم
استخدام
##روج
##ماعة
##al
##آن
المحت
##لاة
##وبر
##يق
وذكر
الأع
المواطنين
ينت
اح
##ظف
الاقتصادية
##وضع
قص
يقوم
جد
المدر
##هيل
##باء
انا
العل
أمير
##ثار
رقم
##راكز
##سكرية
##ناصر
##زن
التاريخ
رسم
لاست
إحد
##عليم
##روض
بالنسبة
الموسم
##برز
خلف
الإدارة
رسول
##قبال
عبدالرح
الأد
أمر
##هلي
العن
بلا
خصوصا
لنا
شع
##وفر
روا
##وجود
قب
كنت
##رص
حصل
أيام
لقد
##راجع
اللاعبين
للق
طبي
نص
الخدمات
السياسي
الاجتماعية
يخ
الدوري
الخم
ارتفاع
المشاركة
##رز
البي
القرار
وكل
تغ
الجامعة
القوات
##رمين
سجل
198
طب
##جار
لهذا
امام
##باس
دع
معه
المعلومات
عنها
الماضية
##شاركة
لص
##مالية
فقال
سوق
الشرطة
##قام
اكثر
الدست
بالإضافة
معد
##شرين
نتيجة
والمع
خم
##سى
وحد
تقوم
كثيرا
22
##طوير
##ماس
المؤتمر
##شن
مؤكدا
##فتت
##شل
واضاف
إضافة
ناصر
##يون
يعد
لأنه
المقبلة
##اعدة
جعل
تطوير
بشأن
##خاص
المسا
منا
ير
24
البطولة
وأوضح
##ضان
مساعد
يوسف
##برى
نحن
العلاقات
ليست
وين
واس
عبدالرحمن
الإنسان
فهو
فا
##ذب
##وجيه
##وام
العمر
الصحة
الشهر
##ظاهر
21
نع
فرن
##ياب
##ولوج
عضو
الإسلامية
##طاء
##an
إسرائيل
وض
أمن
التف
ومد
بدأ
المز
رؤ
القص
حيات
الملكي
وعن
##راح
##ورات
حقوق
جنوب
##فقة
##ثنين
##راقي
اللبنانية
##صادي
سليمان
جان
سوريا
الحل
وتش
إس
##قدير
القاهرة
تعرض
وآ
واعت
##ندوق
مبارك
##ثمر
##ستر
هؤلاء
##غب
رفض
لر
##ساسية
بأنه
##لبية
العاصمة
زوج
المحلية
##قدمة
البعض
يعرف
المعار
طالب
إد
وسي
كال
الدرا
موس
##صلحة
كتب
للاست
##اكل
##صابة
المب
الصحية
معل
السلط
المدير
بدأت
القاد
23
##ارد
بعيد
يعت
فوق
الثقاف
##انت
##ؤال
الحكومية
##ارق
عمليات
المناطق
كذلك
##er
بخ
بالح
##ليف
##ثلة
التربية
الديم
الدم
##ستاذ
بالد
حكم
الموض
##شق
اغ
والك
الساعة
##ابر
##زية
بهدف
محافظة
##زيادة
وبالت
نه
##هود
##حافظة
##ظة
نا
##يفا
أهل
الجام
##غط
##حان
##بدو
مصادر
بهذا
مف
سموه
قوات
##وزيع
جمع
##ائة
##ويا
##غيرة
المصرية
بطولة
البريط
إبراهيم
لذلك
البد
ادارة
##اتب
معت
##ارنة
النو
##علنت
##ريبا
اج
الاسلام
الجهات
رفع
شركات
معظم
##نيا
الوضع
تمت
##ائلة
##صلاح
لله
فتح
كلمة
##صبحت
الفني
أعضاء
ومت
##مويل
أثناء
وتت
الصنا
ضرورة
وفق
##روح
المجال
اشت
الحرمين
عليهم
أهمية
مز
##فتح
نشر
كانوا
عشرة
دخل
شب
لمدة
العالمي
المحكمة
##اسم
يعمل
##كب
سلطان
##سكري
لقاء
الرس
إحدى
##اضي
##ar
تنظيم
عز
مرا
الحم
سيكون
الفلسطينية
مكتب
وهم
سوف
البنك
الطريق
الحي
##ندي
##أل
لاف
امت
وو
##قتل
##ريمة
##وعة
اول
شك
دا
صباح
المجموعة
كثير
##عه
##ندية
مقر
وهنا
50
##فاوض
لهذه
##فيات
السوري
حكومة
##ناة
##ادرة
100
197
##راث
فعل
القائ
النفط
حجم
قتل
##وغ
منتخب
دم
##ذك
السنة
البرن
ايضا
المث
##افية
##ويلة
قسم
وتح
التر
جزء
وست
##عاد
المرت
##سلسل
بلغت
الحزب
وتأ
إل
والط
##حتى
والمت
##دى
##ائع
بهذه
البرنامج
النس
المعت
قيمة
##كيد
##وره
ظهر
يك
الفوز
##ائدة
الاتفاق
##هام
##خة
رجل
##ذهب
##فاض
##ورد
شمال
##جتماعي
##اند
بالق
الجانب
الرب
بب
هدف
##يح
التجارية
##راز
سالم
المياه
##الغ
##عرض
الحا
##مدينة
26
يعتبر
دينار
مارس
##ريل
الأسبوع
##خرا
##آت
##وروبا
بيروت
##طا
2010
##زين
بالف
##بيه
سا
جني
27
##لاك
##سانية
الحدود
الأمريكية
##فاظ
##امت
طال
##ضيف
واف
مصدر
مدى
المشاريع
سف
المسلمين
اتخ
الموضوع
الشريفين
محد
##بنى
الفن
##ندس
##حداث
البيان
الجل
بذلك
النق
وغ
كبيرا
##افع
مكت
##راتيجية
##امية
السلطة
المختلف
##رها
##ريات
للف
الشه
##عاب
شكل
##لائ
قامت
لعب
الكتاب
##وروبي
وحتى
مغ
##لفزي
##بيع
الرجل
يريد
##كال
##طات
البحث
28
التنمية
##شطة
##يدان
##بعة
##واع
فلسط
يناير
الهلال
##راطية
طل
العليا
##اطق
العراقي
دار
الجمهورية
محمود
196
##ناق
تز
##موال
##ميم
##ندا
الطاقة
الأب
وعدم
خاص
##ظيف
يل
##ابن
الرغم
خادم
بالش
وبال
عش
الكويتي
العملية
المدني
مختلفة
##جاج
الكرة
##ايد
الحوار
نفسها
me
##تهاء
قالت
السود
سبيل
الشرقية
##سون
ابراهيم
الاولى
المختلفة
أرض
إج
##ابه
حب
دائما
##امن
المقا
##وعية
أعلن
##راضي
##وحة
2008
خدمة
##بيب
شعب
عين
حوالي
التابعة
اتحاد
المف
السابقة
##ريدة
الوح
##يزة
والر
##يره
المطل
وغيرها
غزة
واق
مناطق
بنت
##فريقيا
للط
النظر
المل
فوز
القرن
##ولت
نتائج
قضية
##سرائيلية
نسمة
الكب
##ائه
الإد
فيصل
الجمعة
##واف
يوجد
المرك
##وش
درهم
##وانين
##ألة
##خصصة
الأف
أصبح
الأميركية
الني
##جع
##ابقة
الدع
الزرا
##اية
##صلة
البح
اف
##همية
والله
البشر
الثالثة
الجزائ
سين
واع
##رفض
ابت
وير
الجاري
##كانية
##راه
شأن
##وزارة
اخرى
##سيق
ولو
##يرات
##جلي
الوزير
##ذن
##منى
نوف
##قرر
##عو
الأطفال
##وبي
الفرنسي
سبت
بالس
##زيارة
أصحاب
الكويتية
ويم
النبي
##ريك
##ثبت
بلد
السيد
الاخت
وسائل
الصف
الاقتصادي
عهد
الإخ
الفنية
المرض
دوري
كلم
اما
##وبات
##عيم
يتعلق
##رسة
المؤسسات
حي
عقب
الكهرب
##ريس
المحلي
واض
##نائية
قول
والمن
##am
عرف
##تنا
جو
مناف
40
##ذل
رمضان
سير
الفلسطيني
ألم
اتفاق
مؤسسة
##ناه
##فادة
##مري
جهود
العزيز
أسعار
##ريع
الواقع
تعمل
الوسط
الجزائر
##ذار
تحدث
##هار
المستوى
##ماد
##واس
##أسيس
##انى
حفظ
الجهاز
##فى
##50
##اشد
##أي
المدرب
##رفين
مقارنة
ضع
المخت
يقدم
خل
##كره
المائة
إي
خلالها
وعند
يذكر
القط
دفع
##سمى
الياب
##ونا
الغربية
الأوسط
الأص
##رع
مؤتمر
تقرير
وات
فرصة
29
##غيل
2009
المؤسسة
يول
##om
##قطاع
##روب
مباشرة
نمو
المساعد
##ليفة
العسكرية
مات
سبتمبر
والتعليم
يأتي
##لكتر
##يبة
الأمنية
النساء
##جرة
##موع
مشت
سوى
##يده
وبالتالي
##قف
مهمة
موضوع
لكنه
##كاف
لعد
2006
الطبية
كي
أشهر
عباس
##ذة
##رين
حرب
##وها
إطار
علينا
الكبرى
وطن
وفقا
##ماهير
لف
توق
##روط
الهدف
تكن
أقل
##ملت
##اديم
كثيرة
الاستثم
الاستثمار
##شاط
31
الكريم
لمع
معا
##وين
##مرت
##بادل
##يلم
مدرب
توفير
مار
خير
سيتم
##لفت
##قوم
الحريري
القضية
##بادرة
صحيفة
##بارات
ويس
##دين
حس
تقول
2011
درجة
تصل
##in
الخميس
##مار
##صدار
البلدية
تقع
##غر
وصف
تحمل
نصف
##واجه
وتس
قوة
##شارة
##واقف
بدر
قائلا
##ضى
##فية
ديس
##ذين
رد
افتت
##طور
إليها
الدورة
الرياضية
##ياس
يصل
الفض
البيت
بمع
اختيار
مرحلة
المسؤولين
السيارات
##عامل
امر
التعامل
##ريعة
جمعية
يحدث
للر
الهند
آلاف
السب
##اتي
سلام
دراسة
ريا
موقف
الأخير
وظ
لتن
##ارقة
درا
##راءة
ملايين
##at
تطبيق
الطب
الإس
الحركة
بور
##واز
را
السبت
بالج
راشد
بالا
لات
شه
قائمة
##ظار
و1
##فيق
تتم
إعادة
##ساسي
##خدمة
المنظمة
##شا
السر
بيع
##غال
بحث
العمال
بث
الحصول
##داول
##قلت
خمسة
##بدال
مان
##هاجم
يونيو
##20
##ديثة
##ريض
بالك
نقاط
الرابع
##ومي
##يراني
نسب
##ريبة
##اصيل
##احية
يحي
تعتبر
طويلة
اجل
##ونس
##برة
تشكيل
صحيح
##فيذي
مايو
انته
##اطر
2007
##ارته
الدراسة
فرنسا
وهذه
التجارة
السنوات
يغ
إنها
##ويد
إيران
##كنية
##براير
نز
الشؤون
كار
والتن
المحا
وبد
فما
ليت
الأمور
صورة
بعدما
فهي
2012
الكبيرة
الحج
##كريم
المتهم
الساد
تعزيز
##ريت
تمكن
##خلص
##خفض
الرحمن
المبا
إيج
##سلة
العين
التنفيذ
الها
فضلا
التقرير
مط
fb
##ويس
ساعة
خدمات
الأج
##صاص
مشاريع
ونحن
##ونه
النمو
الدستور
فبراير
الاعلام
الحالية
كر
برامج
ديسمبر
##ثمان
##خدمات
تعت
##يمان
وانت
وحدة
سيد
الال
جدة
النواب
والغ
##رافق
المحافظة
منظمة
المدارس
نب
وفا
##ou
الأستاذ
يوما
وجاء
##ياجات
بريط
قلب
##الجة
##ينيين
وإذا
سعر
سمع
##باق
يمثل
##شراف
المهندس
##ادى
بغداد
##طراف
القرآن
خطة
##خيص
##شنطن
##سلوب
شارك
باعت
##فيد
##ندن
##ليلة
##ورج
بحيث
خص
الاجتماعي
التنفيذي
فاز
##سمح
بحسب
##ريج
الغذ
##حين
أبناء
النفس
##ديمة
الطرق
##وروبية
العلمية
بينهم
##حاول
##امه
الثقافة
الأميركي
السلطات
أكت
خس
اللغة
عددا
##طنين
يحمل
وهناك
تصريح
بنك
الموقع
##ريا
تماما
##شيد
الطلب
يبلغ
القضاء
الألم
يزيد
حياة
سبق
##ارف
الأمريكي
##خفاض
الانتخ
وراء
مؤخرا
مواجهة
الطلاب
##فعت
##يقة
وقع
عيد
##ورك
##بو
أهداف
مباريات
للمن
##ومية
المالي
كلية
جم
شرق
اق
ورئيس
##فيف
##فاج
##رجع
اقتصاد
حضر
العب
نشاط
وعدد
الرق
يعود
قط
أعلنت
المعا
ملك
##ابد
##حم
النار
السين
##وجة
تنت
نوفمبر
الأزمة
المسي
##قاعد
يوليو
صوت
تحديد
ألا
القضايا
رضي
المناسبة
##ساهم
##هادة
35
صور
الوحدة
فإ
##راحة
##ماعيل
الادارة
جون
جمال
الخامسة
##نيف
يجعل
##تيب
##فال
##ليب
ميل
جمه
الاتصالات
##روس
##خصوص
الجد
الفق
الأيام
مرض
##ناسبة
##ارض
معالي
##سد
المزيد
القوى
الخدمة
فيلم
تضم
194
##يسى
تغيير
أنهم
##شروع
ستكون
##غبة
حفل
التحقيق
حمل
إخ
شيئا
كيل
وبلغ
الإسلامي
أعلى
##وتر
عاد
##on
تجاه
الحب
معها
الإسرائيلي
##ناف
نظرا
مفت
##حرير
السورية
محت
الاثنين
ربما
##غان
##علقة
##حديد
مكة
##فد
كن
##اعي
للب
لديها
حقق
##ريحات
البنوك
الأغ
غال
المعارضة
##رباح
فإنه
الرسمية
##ساد
قلت
##ذج
للص
##ابا
ند
قيم
الثورة
الرئيسية
##تهي
الصحي
الدعم
عناصر
ته
##بلوما
##صدق
##ظل
##يلات
نعم
المكر
أربعة
الأمم
زيارة
والل
195
##كيم
المعرض
المواد
النهائي
##ائم
##خم
ورد
ومس
والمؤ
الثلاثاء
أصبحت
عا
##ولوجيا
طرح
أنت
البيئة
##رش
##ادق
لندن
##نتر
سيارة
زايد
##فاوضات
##حه
دخول
##قيقية
كامل
وجد
سبب
أمريكي
الاح
##حقق
موسم
##حقا
حرص
جنيه
مشكلة
##خطط
##ارا
##امنة
وإنما
بصورة
أداء
##حول
الشي
الأهلي
##شرات
حساب
علاقة
واشنطن
##كلفة
##كومة
ممن
مسلم
معهم
##واعد
مخت
مي
كلا
##عون
##وجودة
##شاف
تمثل
##وضاع
أى
المرا
منصور
مجتمع
أخذ
لتحقيق
أبد
##ددا
##وارع
المنش
جانبه
لط
معرض
2005
الري
ورب
الصين
##ارتفاع
الحمد
أصل
##ad
##وقات
عص
بدون
يعيش
##حاء
تجاوز
العراقية
حضور
##قلال
أكتوبر
وكالة
ترا
أه
الأمين
الأل
##ضاع
استمرار
استعداد
المك
##فعة
الرابعة
از
##ah
الأربع
الامر
##سه
##لبة
##قتها
الصلاة
جميعا
##وارد
المكان
المادة
##حمل
بدلا
موسى
الفرنسية
##سطس
##فيه
فرص
البلدين
محاولة
الفرق
2004
العلاج
فهم
##ولين
##زاب
هه
مهم
والعمل
##انس
##وافق
عالية
أوروبا
المهرجان
أفراد
##ديق
متر
##جري
الإلكتر
الامن
فمن
##جيع
##طلاع
بواس
بني
##as
المدرسة
فرض
##اليا
##يمين
الشوط
##خي
##منة
واله
والمس
الرك
##ليق
إنشاء
##اره
##طان
الرسمي
متن
وله
حدود
مشاركة
ويست
العهد
بدء
النت
آن
إح
الجزيرة
الور
المسرح
يحتاج
##ويض
##شفت
الدقيقة
المعد
الوصول
##حصاء
60
روس
الحض
مستشفى
نجاح
##ولية
والمست
النقد
##راقبة
##بين
##ثمرين
يستطيع
المسلحة
وصول
شباب
ومنها
وتد
مهما
اسرائيل
جاءت
##انوية
رج
الفع
غياب
قيام
##مني
العلاقة
محافظ
الشخصية
الأز
بهم
##افر
رسالة
فكرة
المشكلة
##صدر
برئاسة
القادمة
الجولة
بلاد
##رتها
##كذا
التو
##ناول
##ابلة
اللواء
فرق
ملعب
##ارير
ابو
##اتحاد
تشهد
الخير
##يمة
حص
اللازمة
الملا
##درات
##جازات
جائزة
ولاية
##قييم
صنع
##ضرورة
صلاح
يقع
##اتف
ومح
الموظف
##or
النص
يو
##زع
##رير
القول
##ندق
المض
كا
المصادر
##جهات
##يانة
القيادة
الصناعية
النصر
فعاليات
##حديث
الول
الفنان
أبرز
##ليه
نو
البرلمان
المرشح
##قاد
بعدها
##كاتب
الجهود
##كمال
##خير
خمس
ومحمد
واحت
##سبق
لافتا
عامة
##هلك
منح
بالمن
الرائ
البرامج
تا
الفيلم
مطل
حدثنا
بينها
حماس
العاملين
العلمي
اعتبار
المئة
ولن
موعد
اهتمام
باعتبار
مكاف
يبدو
صار
##انع
اض
معلومات
ومست
لموا
الاميركية
تعرف
##رجال
الخبر
##ظمات
بالل
القاعدة
الأعلى
بول
البناء
الأرد
العسكري
الأكثر
##نيات
كشف
##قيقي
القادم
##مرة
142
الأمة
##كير
وأنا
قطر
بمنطقة
الاحتلال
مدرسة
##ائها
الإمام
جهاز
الحفل
المفت
وكيل
غرب
المشترك
##عددة
يؤدي
حاجة
لأنها
##مم
##واد
الطفل
ويقول
الإج
بمو
32
وبر
تدخل
الكل
تعليم
عنوان
شخصية
45
ممثل
الشعبية
قرية
قوية
##حيانا
##ريبية
شبكة
بأس
البريطانية
الأوروبي
##وائز
وقف
##طفى
##لفزيون
خليفة
33
##رهاب
##en
##جنبية
الاش
قيادة
##ائرات
صدر
##شكل
##وسع
الإخوان
لماذا
الجنوبية
شار
تأتي
##عبير
##فو
الرياضي
منصب
لكي
فك
الفائ
تأثير
قرب
سكانها
سياسية
وأع
الاف
##قترح
للمر
والمد
سلمان
وصلت
##امين
والان
الرئيسي
بالتعاون
بالط
##يسي
يرت
##يسة
بحق
أدى
أمين
##ويه
لخ
إطلاق
قاد
البدا
تعداد
قائد
ومؤ
بأنها
هام
##طالبة
الشمالية
بواسطة
##براء
التاس
بلدية
##كاديم
##طباء
تجمع
موضحا
برو
##سك
مالك
بنفس
##ضب
السياسة
##مبي
استغ
الديموق
##ذية
الكلام
إنتاج
##عام
##يتي
الابت
##لاحظ
سلم
هن
##ونها
الثامنة
ها
##نتين
##ورى
يط
وبعض
##فن
الواحد
##لل
##ورها
com
بحضور
يوميا
الطائف
حماية
لعام
تبلغ
al
##صيد
الأسواق
المصدر
الاهتمام
##الث
للبن
الحديثة
توزيع
واشار
##ئت
دائرة
وتق
ولفت
جام
العنزي
المركزي
##حاق
##ئين
عمرو
##حف
##رفية
سيما
تقريبا
يحيى
##ره
##برت
الاميركي
المتعلقة
المصرى
دمشق
حملة
أربع
##مائة
الثلاثة
بقيمة
العنف
واكد
##صاب
##فرد
سؤال
##ناع
##احث
##هج
##جلة
القلب
المناف
الرجال
سابق
الوحيد
العتي
##باك
كام
بسي
تراجع
النقل
النتائج
قت
التدريب
جورج
تمر
الهجوم
##يفية
##قاطعة
00
##حدد
##ليون
36
بوش
يقدر
اضافة
##it
##مث
التعليمية
##نوان
##حظ
ار
البشرية
الالت
منع
لآ
##فهوم
##عاقد
##حاث
##قلة
##شى
حض
وفى
اكد
يلعب
زمن
نست
وأس
الأسر
زين
خلا
بري
للك
البحرين
الماء
الشعر
يملك
بالر
العقد
قضايا
الأسرة
تهد
لقب
المجالات
كبار
##عمل
دعا
رويت
##لاج
العالي
##حط
فلسطين
كنا
##بطة
اند
ومو
ثانية
أولا
##عمار
القديمة
الست
تض
2013
##وامل
##جين
انتخابات
متوسط
##طى
القائمة
##زه
للان
حر
##ثرة
##روة
##سباني
تشكل
الأساسية
الدنيا
##فعيل
##ويق
يمن
##طاق
الجمهور
الحقيقة
ستة
رك
اث
##الفة
العرض
الحال
##بهة
وتج
سهم
لديه
الصباح
بسر
##واية
##ملكة
##اخلي
آسيا
مصلحة
محكمة
الآسي
انف
قناة
المدن
##جير
للعمل
##خطيط
النظ
السكان
رويترز
##بال
فج
مراكز
##ورت
المحافظ
حالات
##طلبات
##جهود
##جح
##قوط
الاخيرة
##واه
فريقه
شرطة
الحملة
##مير
بكر
عائ
يز
الجنوب
المستشفى
بطريقة
##بيت
ملف
##ed
اجت
ساعات
34
الظروف
##وزير
المتوقع
الربع
امير
##جمة
##وراق
الجزائري
الآخرين
بعنوان
العودة
##بك
الاسلامية
الثقافية
أشار
##يدات
شهدت
والآ
ترج
خلق
كله
العض
الصغيرة
##واة
المهم
فكان
وتابع
مضيفا
قاعدة
افتتاح
أبريل
دقيقة
التجاري
المكرمة
الاشت
##ائن
##قليمية
دورة
قض
الأق
ويل
لين
تسجيل
بشر
##عاء
التقلي
النوع
المهمة
التخ
##ويورك
والمو
الاسبوع
مهرجان
الدراسات
إجراء
##رمى
ناحية
اتخاذ
الأقل
البداية
##لمات
##ئلة
##يتين
##نافس
اليه
##سح
ماذا
جيدة
و2
##نام
ولل
صفر
ففي
عبارة
طوال
##وائد
مرات
##راطي
##شفيات
##ودية
##قوله
والسيا
فق
وشدد
مستويات
الفرصة
الثقة
للمع
أنواع
بعضهم
انظر
جابر
القوة
صناعة
##ناس
فإذا
بلاده
##نون
سط
وكأن
ده
التنظيم
70
##قاذ
##بعد
رحمه
الشارقة
صع
ذا
للأس
##جهيز
193
##اضافة
النشاط
يرى
أغسطس
ايج
##وطن
##es
##ساعدة
زم
##ائلات
الشارع
سياسي
##راجعة
وأنه
كلام
أساس
مسرح
توجيه
ينب
##امر
وابن
##رائم
الديمق
القبس
الوظ
مون
تقل
أننا
باك
فس
كلها
سلسلة
الصورة
##حسن
توجه
عبيد
يحصل
مالية
مناق
##رافي
العقارية
##شهد
تي
الطلبة
الجوية
المعنية
##قين
الرش
نم
##نب
لكنها
المدنية
بعيدا
##oo
ثقة
الخامس
##هاء
##يفه
السينما
##كتر
النب
الزمن
الإسرائيلية
المنافسة
##el
##ترا
##فسهم
القيام
يشكل
العمليات
##بطولة
##فاعل
يزال
شاء
ذاته
##طلقت
مجرد
الجمع
فئة
علما
##خرجه
تأسيس
لفت
80
الشب
برا
##اربة
عادة
##ودي
##وسطة
##ينات
عادل
##قطع
الإنتاج
##ناية
##أنت
ويد
للخ
ايران
ترت
معدل
المسجد
يمت
رواية
يجد
اكبر
الذه
وخاصة
الأصل
ضرب
37
##ابط
##وخ
لإن
الاسرائيلي
##اله
السفير
ترى
مستقبل
يقل
##بيض
واضحة
المطيري
##طرة
روسيا
البحرية
الثقافي
قطع
المستشار
يجوز
الغاز
الشمري
صندوق
ممكن
المقد
##بداع
إنما
ممار
اه
الأراضي
عيسى
##جموعة
ويعت
القدس
نجد
##سس
الشاعر
العدل
الهد
##بقى
لدينا
الطالب
##نترنت
عما
##قيقات
بتن
السبب
الأحد
##الا
##كلف
عس
وعندما
النووي
المتحدث
تغير
جلسة
تحتاج
38
##زايد
مواقع
أسبوع
القت
التغيير
##بيان
البرا
التواصل
جي
انتهاء
##وصول
الليل
مين
السيارة
##اضر
##جمات
تواجه
بمناسبة
##هران
إقامة
عديدة
##ولد
##انيين
##فذ
تعود
نظر
الرأي
العلوم
طول
أجهزة
النهائية
متابعة
##اقات
##واجد
الواق
غدا
باريس
عليك
المناسب
##صلت
كويت
الساح
الجلسة
البخ
طريقة
اليد
بالاضافة
##عتها
وتطوير
##نوات
الإنسانية
الغرب
صفوف
بالص
مصطفى
##هرة
##حسب
##يزانية
الفكر
غرفة
والز
المباريات
العلماء
نور
نفسي
المبارك
##جاب
عصر
نيويورك
اثر
روح
##شط
القاضي
##علوم
ولكنه
عودة
##ضمان
##ريبات
الصندوق
توجد
يؤكد
مأ
شؤون
##أتي
يجري
التحرير
جماعة
تقدير
الأحداث
شخصا
حقيقة
داع
بقيادة
##زت
تحقق
تناول
مثلا
##موعات
بينهما
##دريب
اذ
طيب
محل
نهيان
##سيم
##يرانية
يشت
مشاكل
التعد
##غاية
الترب
صغيرة
عربية
##ليس
الحرية
طرف
تركيا
الكهرباء
##حوال
كو
التقدم
اسمه
المنورة
الفلسطينيين
الحالة
وفر
العتيبي
وتوفي
##نائي
لغ
للتن
سيف
خبر
ليب
وأش
سابقا
##قرأ
مواطن
النهاية
زيد
قرر
إع
##عتقد
كأ
شيخ
اعمال
سنويا
خلاف
وأخ
##ضيع
مسل
##جتماعية
ويمكن
##قيات
العقاري
أسباب
وأي
الوفد
رعاية
الدرجة
العصر
ونسبة
وذكرت
مساحة
الموقف
##وائل
مؤسسات
النيابة
الفرد
##موية
##يطالي
الخليجي
أسهم
##لمي
المكت
##خطاء
والمر
فرع
بمست
حظ
##تام
البلدي
##متع
النجاح
اللبنانيين
##دخل
##ثي
والمح
البا
90
الخليجية
تزال
سياسة
السفر
##ذيب
النز
ألمانيا
يقال
الحربي
##زيلي
وطالب
شراء
##ساط
##ؤكد
##ولاية
القانونية
##يله
بعدم
فلم
الزوج
الرئاسة
التض
القبض
##روي
الوك
وليد
المغرب
##غوط
##اليد
##غاء
بمدينة
الأسهم
##الك
جيدا
الإجراءات
إعداد
##حته
تصريحات
للمست
##ايير
##رسال
تعلم
رواه
##كرر
اننا
مطار
مدة
المتن
شرح
##سع
الانتخابية
وتر
##جون
منزل
القطاعات
تضمن
نايف
عمان
الحادث
أمل
الحسن
مسلسل
##تهما
ترب
الصحف
##وفا
الأندية
اليهود
مصالح
لذا
التون
اليون
##حايا
افضل
##وادث
صعيد
##وانب
##10
تشمل
لوك
منتصف
500
الاب
الجو
وبن
البار
مسألة
للمرة
##قاش
##تك
مسيرة
##فاءة
اعتبر
استقبال
واعتبر
المطلوب
المشاركين
تجربة
ضبط
يعلم
##موت
مجالات
بطل
ورغم
المكتب
الأجهزة
انخفاض
وربما
يدخل
##خرة
##هدي
##رر
العدد
##أى
الجامعات
الفي
##بيعات
صلاة
مسؤولية
##فاف
ميد
##روفة
تخص
ودعا
بيد
الدينية
فاط
##ادا
##الله
المقرر
##زق
الباب
أفريقيا
##اهدة
وقعت
علاقات
##ؤية
الاج
##ونغ
##سبانيا
الاتصال
##باه
انتخ
مزيد
السكنية
شا
السياحة
تمن
##هلة
واوضح
مقد
الطبيعي
الدخول
ووضع
##ريقي
معينة
الخيرية
##قوق
الرياضة
##تان
ذوي
جا
إجمالي
48
صحفي
الحالات
وسجل
المسؤولية
##حلة
داود
سيع
الخلاف
ساهم
الأحمر
أث
##بادئ
استطاع
##قائق
لتس
لبعض
##30
الملف
عثمان
##نيين
##ملية
##ترنت
الصغير
قصر
##عيش
الانسان
لجميع
وهل
##جمع
##دون
التزام
للموا
الجنسية
الأربعاء
مرور
##رقام
##صرف
وزراء
أقيم
السم
##قيب
لشركة
راب
##حرك
##لاعب
##ماح
معنى
##فز
يلت
إب
##لول
2003
صحة
مؤشر
انع
الفساد
##ضرب
بمد
##سته
واخت
##سف
قرارات
نصر
مياه
نظم
##كمل
##طم
المشتركة
جرى
حز
لصالح
##امات
الموت
##هلية
بالغ
as
لديهم
##غانستان
للمشاركة
أين
تونس
##طاليا
محطة
المؤلف
تحويل
##خيل
المقدمة
##يتش
الداخلي
##ماه
أزمة
جيد
##نه
##ورين
مقتل
##صري
الأوروبية
عمله
القض
الزواج
المسلم
الوج
المقابل
المجا
تبدأ
##ياز
الاص
بلدة
مرو
انتشار
سأ
رؤية
مادة
التمويل
كف
اعضاء
التقنية
بمحافظة
العاملة
75
##عان
المستثمرين
الباحث
قدمت
##ياط
فصل
شاهد
وأما
دليل
لابد
##زو
رو
مدريد
ومر
إعلان
القمة
امرأة
شري
الجزء
الحاجة
##ميزة
شبه
البرت
##زمات
المقاومة
البلدان
تريد
ري
استقبل
وتط
الجماعة
ويش
أنحاء
توفر
##يلية
طف
واضح
التوالي
بالب
يظهر
التشري
##لتقى
65
السودان
حصول
بريطانيا
##كلم
##رويج
##رط
##تع
39
التراث
الحضور
تهدف
تعيش
الشهيد
هما
##وقوف
##موز
الامارات
ناج
##حتها
النات
خطوة
الصحيح
شهادة
300
الفصل
##عودة
رائ
ولذلك
غيره
مبلغ
تجد
##انه
42
وأف
##مون
##تيش
الالكتر
الأسعار
##ينه
حاج
بتس
أوضح
الملعب
المذك
عبدالم
بحاجة
الساحة
قمة
مقدم
##اريا
حدوث
منس
لعدم
##لالة
الاع
الحسين
جزءا
المراكز
اعتماد
الرئا
ودعم
ينبغي
##is
للمو
##عدة
رق
##اليب
##زوج
المقر
ميش
بالفعل
##راس
ثاني
لأي
توقع
قوى
##كلي
مالي
الوث
الزيارة
آخرين
جمهورية
خرج
أسرة
##قيام
تدريب
سيارات
الإعلان
فاع
الغذائية
سان
ناس
تعيين
##باع
ذكرت
مليارات
وأم
##تيال
الإنترنت
واسعة
الامري
ديوان
حفظه
كري
جميل
##الفات
وفد
##درس
##زيمة
##زز
المنزل
##عدل
متأ
البريطاني
لأول
المشاكل
والتأ
يقت
يستخدم
التنفيذية
بقوة
الشرعية
مسب
##عرف
الدعوة
السادس
القسم
الفعل
ايام
##راكة
لدعم
##ذات
نجم
الشمال
طن
##داخل
الإرهاب
الدائرة
عاش
المواقع
الحاكم
وحول
##يتهم
لكم
الجائزة
الشاب
الممت
##كنولوجيا
يضم
##كندر
قصة
التحد
وتست
القحط
##غرب
##وته
##12
واحدا
بفضل
الشمس
بالمنطقة
##شك
مكافحة
البتر
العيد
وتف
تصوير
علاج
##ab
جع
استثم
العقل
تحرير
الحقوق
الند
للفريق
انهم
##خال
حياته
##غلاق
لشؤون
##بعاد
الأكبر
##رجات
شعار
##ديه
الكتب
##ic
شعر
كاملة
ظهور
أوب
الكن
##غت
اعلن
الطائرة
##وائية
الخطة
لمجلس
##وضحت
جهته
##غار
كأن
متى
يعتقد
##ربين
توقيع
الخض
الرم
44
##هولة
واد
سبأنت
ماي
الحكومي
أعد
البع
الرعاية
أحداث
##وارئ
معرفة
النه
##وائر
##ذكرة
المفاوضات
وأضافت
اليابان
تبقى
اللهم
الاستقرار
الموظفين
##شاريع
رأي
الإنجلي
##ساني
المثال
وتقديم
الكلية
اللح
شديد
لسنة
البيانات
ورفع
الأداء
القرارات
شرف
##ابين
يبقى
الحص
تظهر
حمود
##ابيع
شارع
##نادي
الحفاظ
الوس
الجسم
التك
الأعضاء
##ليلا
جراء
##قيه
192
##كافحة
عوض
##لاغ
الاسم
ظروف
المسلسل
الاخرى
تستخدم
إجراءات
أكدت
وترك
جاز
القوانين
مطالب
واقع
يحقق
يخت
يبدأ
عط
اللعب
الفئة
المسابقة
قريبا
الدكت
الطيران
بأي
الانترنت
ذه
##فسير
سقط
الجماهير
##سيما
والتج
انق
##كلات
بعضها
اطار
##بلة
الاربع
##زالة
ايه
يفت
حصلت
الغام
كيفية
##مالك
القحطاني
تسم
الحدث
أثر
الدار
علام
أست
##علم
الأشخاص
##لاع
خلاله
##لابس
##طبق
اللقب
##صفات
احدى
للتأ
الحديد
أطفال
##كتاب
المرة
##رابل
أط
اخر
##درجة
بسرعة
##لمانية
يعاني
##فريقية
ثقافة
لتقديم
الثانوية
##راوح
الاعمال
يشارك
الشعبي
باستخدام
الصحافة
##كاني
تنمية
بقية
أطلق
المعروف
##ناها
حبيب
مقاطعة
##ارضة
التابع
##شرطة
ذي
الصحفي
الحقيقي
تسعى
للمؤ
##هلا
وجل
تفاصيل
العص
نن
##قافية
مدار
ضم
تحول
تشير
حام
بالرياض
بالخ
مسابقة
الصحيفة
متعددة
مطلع
عقود
##اريو
الموجودة
الطبيعية
##خصصات
والتق
عسكرية
ورو
حوار
القدرة
البق
السياحية
تعديل
منز
أسماء
الاستفادة
##حام
عود
الأموال
##ضعف
ثابت
ووف
راف
اتخذ
##ضمام
لمس
أمريكا
##كور
رئاسة
##حدات
عي
##لو
الواقعة
العائلات
##وانات
الشأن
صرف
إقليم
##مثل
##شري
الصد
حاول
ظاهرة
القيمة
اليمنية
هول
##عله
النووية
##ناطق
صبا
السلاح
##كوين
قررت
فار
##فيض
جاه
##11
55
الإدارية
##اجر
##خمة
رسميا
الخس
لاعبي
والمش
وفاة
خطط
##ناديق
##كى
النوم
الفرص
46
السؤال
##ياته
##لون
مجلة
طرق
##مول
##غو
رئيسا
تتعلق
المصريين
ثالث
الموسي
لغة
##لس
2014
عشان
43
##ونات
دعوة
مجمع
منهما
##حتاج
التالي
##صيب
عائلة
مواد
الدي
وعلي
أخبر
##كك
الدوس
إعلام
بالمع
سقوط
تعاون
ليلة
##وزع
البخاري
##ديقة
وآخر
مبنى
##اول
موجود
الاستراتيجية
المركزية
هجوم
المبادرة
بمشاركة
##وعي
نطاق
##وبا
فرح
العمومية
البرازيلي
خليل
جاسم
المعارض
وقبل
مقت
مناسبة
موظ
##شرق
ضعف
##وحيد
##الج
##انم
المتط
ومش
قدرة
الاستثمارات
يحاول
والاقتصاد
مجددا
لتش
بوت
##صدقاء
كونا
مراحل
##هلاك
##وقيع
##شية
لمواجهة
وانا
يلي
##ثال
والموا
ونت
بالله
المأ
##فات
تطور
جهد
47
تلقى
قيل
وام
وكذا
مقا
رفيق
##يدر
المرضى
الهي
سعاد
مسير
لتطوير
التاريخية
العشرين
إسماعيل
هى
نقول
الخلا
آذار
صاح
غد
توفي
##خلق
والسلام
##ئيات
الزراعة
جبل
##ؤل
ماجد
وطنية
واب
لتح
##عيين
بتاريخ
معهد
تسبب
نقص
مدن
ثورة
المستهلك
##الحة
##يمي
##واريخ
وتص
##هادات
الضوء
ونقل
##لاقات
الاستثمارية
الإيراني
رسمية
دورا
##صات
التأمين
##راغ
صحي
##راسات
ممث
أشخاص
حائل
سبحان
الممكن
##عوة
فص
##سلامية
لرئيس
فرد
للاستثمار
##رعة
المرور
##خراج
##رافية
الجهة
##منت
##راعة
الصيف
2002
الموارد
مواليد
الحاج
##يطرة
المخدرات
العا
وإلى
##ماعات
يسمح
استراتيجية
##ؤه
تملك
عسكري
المحد
التحت
الأبيض
والرياض
الذهب
مرشح
السيطرة
##جابة
مني
##ئيا
دست
مدارس
ولكنها
##جازة
الأهداف
الامت
فهل
هش
##حوث
الامة
##موح
والاجتماعية
رحل
##رابلس
يشهد
##جزاء
المسألة
##ظهرت
استد
للحصول
وارت
##ندات
سلامة
المتوسط
##يرو
وخصوص
وبا
اللجان
##اضرة
يتحدث
هر
أحيانا
##املات
فهذا
الألعاب
الضغط
العاز
الخروج
فري
ولما
##خطر
الدستورية
النتيجة
وقام
الارت
##مته
عنهم
كوريا
طر
##لاط
##شلونة
مجه
##كاديمية
الرد
توقف
انتهت
ديم
##واط
وقوع
41
الكث
بيانات
يسعى
إش
الوكالة
نجح
الشيء
##ينت
سام
الغرفة
السفارة
بدور
سيل
الطريقة
عالمية
عرب
هات
نهائي
##وذ
كول
فلما
##ناح
ناق
وسيت
والعشرين
##تمام
جديدا
للث
##بوط
فعلا
تسلم
فخ
يدفع
خال
الرواية
##فور
الجزائرية
التغ
اتصال
الميد
السادسة
مرك
##واح
##قيم
القرية
أولى
والي
آثار
نخ
اتجاه
لخدمة
غض
##شين
السابع
يواجه
تحسين
##ذاك
التحتية
والأس
ينتظر
ارض
##خصة
رحلة
يشعر
##مبية
##ضافية
خدم
##قش
الخطاب
##هان
نجوم
العدالة
أوباما
##هة
تزيد
هكذا
##ويم
أموال
النصف
تركي
أصدر
الدوسري
##وسيع
الزراعية
تؤكد
##ظى
تصبح
للغاية
والمؤسسات
عشرات
ذهب
##تيح
وقدم
لتأ
نريد
أراد
##ارها
طهران
بضرورة
الرقم
##ارى
سوء
##بيا
والات
اليها
الدمام
وجهة
قالوا
يسمى
القديم
الشديد
طلاب
ممارسة
قيا
التركيز
يورو
تتضمن
الملكية
التيار
وأيضا
السير
مواقف
ليكون
بنحو
فاطمة
الميل
##ولو
معين
يخرج
المرتبة
الحمل
تستطيع
##حيان
##صي
الإيج
بتقديم
دولية
مول
##ودا
التطوير
تعب
الحس
##طالبات
التركي
مآ
العمالة
كيلوم
##عاة
شن
##قالة
وسب
الكاتب
##صدرت
##ؤاد
الذات
قليلة
##صى
الشوارع
شروط
##ادثات
##يوخ
الانتق
تبين
المرج
مقب
خطأ
صدور
الوعي
ليف
فور
بالاست
##اناة
##كندرية
طارق
##ساوي
والعد
التجربة
دولارا
المعهد
دفاع
##صم
الروم
49
الحقيقية
قادر
البالغ
الأه
مفهوم
إثر
احتمال
نائ
##ادين
2001
ليبيا
القادسية
الأصول
اليس
إصدار
الأساسي
سبع
أحب
أبدا
يصبح
وكيف
ربع
بجامعة
بض
اعادة
أسواق
المنتجات
المتخصصة
##رهابية
وجدت
معالجة
اليومية
##وفيق
##بح
##مائ
الالتزام
توص
##راط
##هداء
##هات
اتفاقية
الطعام
زال
##بيين
##اعية
سبعة
تلا
وخصوصا
وسمو
أضاف
وبه
وأب
الأسد
##ؤولة
طويل
##قصى
حذ
احتياجات
ضوء
الإف
السياق
##شيح
##ناسب
لمش
فكر
##رقية
حتي
تمويل
##نيع
البيع
منافسات
فشل
بز
للشباب
##اشة
##بلوماسية
##لفظ
المرشحين
fm
والعالم
52
##شارات
##ذى
حاكم
انك
الكشف
للسكان
ليل
المطلوبة
منش
##فاهم
الصوت
##لاقة
تكر
تسليم
##عدام
بوجود
الصعيد
البراز
الصور
أض
##صرية
أغلب
أحدث
اثنين
ونادي
طرابلس
الرقابة
##تابعة
##ناقشة
غا
وحده
يمر
مشيرة
والتح
##وتي
جيل
نفذ
الجريمة
يعتمد
وأحمد
اثناء
عال
##ديال
##دائية
حرم
التحقيقات
##ربا
##سحاب
حادث
امن
للاتحاد
rt
يضع
للشركة
رياض
مكون
##ركان
حقيقية
##صيل
شكر
سجلت
انطلا
صنعاء
تواجد
تقلي
زاد
سيس
إما
##قدام
##et
افت
##رال
تصدر
تعتمد
مير
##فير
وموا
##زوق
الوجه
##ضاة
##أمل
##ددت
عامل
مناقشة
آلية
وأكدت
سفير
اهم
الطال
الأوضاع
الغامدي
العميد
بمر
##os
العملاء
الاسرائيلية
زوجها
##رخ
فيت
أبا
السجن
أقول
حلول
##بادرات
##يطان
الاكت
54
وأل
##ch
##ظاهرات
التسجيل
##il
التاسع
حرية
الإصلاح
موظف
أنفسهم
الذكر
والإن
الطرفين
سفر
ضمان
استمر
قادة
تؤدي
ask
الاتجاه
##مكان
الأطراف
بمعنى
كشفت
قلوب
أرباح
الآية
رغبة
الروسي
بآ
استخدم
سباق
##بيات
##كرا
ذكره
والسل
سلاح
بنا
الانتهاء
لمد
الاخير
التوجه
صرح
المختصة
الإصابة
تذكر
##رابة
المريض
##19
جذ
مشترك
للعام
##ادن
ختام
وسوف
##وكب
فضل
باع
والض
السابعة
وأشارت
نسخة
##ساطة
##قلب
استن
وتحقيق
الإلكترونية
رأى
الصالح
تصرف
##زلة
الته
طبيعة
تصميم
ولعل
يستحق
والده
##بلوماسي
##زاء
##خاذ
هدفا
##عن
للمس
##ربت
حققت
##ارئ
الاغ
ومدير
باقي
ضغط
بالقرب
زوجته
الأفضل
الروسية
##واخر
فرانس
موق
##برنامج
##ستون
الطف
برشلونة
تعاني
##ادته
الاربعاء
##ستاني
المغربية
فالم
جنب
عربي
منظ
القذ
معتبرا
الصي
ولدت
راج
أبى
يتوقع
الصراع
أرد
ينظر
##ويتر
مساعدة
تابعة
##راها
##كنت
##مح
العالية
جدول
سمير
ديف
المعرفة
العناصر
##14
##بس
للجميع
و6
انتهى
الفعاليات
56
يقود
##وائح
تفعيل
الألمانية
الغربي
وعرض
وكشف
##em
الآسيوية
##صت
##فتاء
الشت
الانف
استع
رصد
##ضير
إنجاز
##نائب
المرافق
خطاب
اللعبة
المدى
التالية
غر
ويف
لاسيما
هامش
ويح
القائم
نجا
##ضوع
العائلة
مبر
الاض
الشخصيات
الأر
التدخل
الباك
وعم
المتظاهر
الموافقة
لمو
حميد
وفيه
أمنية
والإعلام
##ol
##فعال
التصويت
السالم
الرسالة
##هرباء
للصح
التلفزيون
##ويلا
وأد
معدلات
كبرى
القاسم
ممثلة
##ختيار
انتقل
الامم
وقيل
وار
##ماك
وعبدال
خي
النقاط
يدل
ورفض
المسل
الايراني
##جرد
كذا
##جران
للمد
شرك
ويجب
الناخب
عائشة
غالبا
حصة
يساعد
التخطيط
السلم
للدولة
الالم
الارد
سياق
##داب
نواب
أز
وتعزيز
بالان
الطرف
تأكيد
المتهمين
الاسلامي
##ئناف
تساعد
جب
إمكانية
أعلم
تبادل
يتطلب
العجم
فندق
##ؤها
يقف
##جية
بقوله
السويس
طائرة
الاحد
##تيات
400
بإن
الفا
الخصوص
تقارير
##جنبي
##اوية
العدو
66
الكامل
وتوفير
النم
موافقة
خليج
##ياتها
يطلق
##سوم
صغير
الصناعة
الدائ
باتجاه
##صرة
الخال
كاف
التطور
العلي
السعوديين
##جو
يومين
السباق
وتعد
##زاز
ويتم
محددة
بمث
فؤاد
ارتفع
فنية
##ادلة
##يميا
تقنية
##زان
الامور
الصادر
والخدمات
القل
للرئيس
##وجب
##منين
تجعل
نواف
مهاجم
الإعلامية
جزيرة
إث
مباشر
رضا
##ئك
##وضيح
اهمية
القومي
##بيعة
تتبع
مبينا
الطبيب
قدره
التقليدية
##بيئة
##الغة
أخرجه
67
تواصل
جوائز
مفاج
اني
سيتي
للي
لحظة
##مى
##ستها
تخرج
استغلال
الديموقراطية
وزيادة
ناد
مسجد
##ئذ
معسكر
عامر
الشام
اتصالات
85
ساحة
وبناء
53
150
الخطوة
حف
المنظمات
احترام
##كرم
الأمراض
يحب
الضفة
##حويل
السلع
الإعلامي
خطر
##وتا
باكستان
تداول
الطوارئ
ميشال
ونقلت
جرت
الجمعيات
المستشفيات
متك
الاتفاقية
للسي
تكت
الأثر
اكتشاف
عليكم
تول
##اتم
الاوروبي
##يير
هند
##خلا
الكر
الألماني
قواعد
تقييم
ونصف
الهواء
والثاني
عضوا
##حوا
يأخذ
الحلول
الزهر
بشار
قبول
تبر
##قليمي
57
التنسيق
##صين
##ويك
والأن
الأنشطة
##قلين
##غالي
رام
##ومه
##افيين
##يرادات
تشغيل
بفوز
##بلاد
بموجب
أعداد
يتضمن
صاد
معي
##يها
سو
الحارس
الخطوط
مجموع
##وبين
التعبير
##ائز
الأرج
##ديات
القصيم
خروج
بالتن
مستح
143
##15
القضائية
ثنا
##وابط
بزيادة
##ag
للشؤون
##ائيات
لمست
الدراسي
الوحدات
يتجاوز
99
فات
58
عون
وصاحب
الأردن
مناز
الاحتياجات
ستت
##مور
وبم
الحار
يهدف
ويعتبر
الفقر
وفيما
اعتمد
##قيمة
يخص
تعا
ذاتها
سطح
##ليك
كوم
ثمن
التركية
صل
بتش
لاحقا
##وضى
الشورى
ناف
رص
المشروعات
أبنائ
الراحل
بالعمل
حينما
64
##لندا
عسير
عمره
##غيرات
لافت
الملتقى
التهد
وخلال
مبادرة
ستي
##قاب
البور
زالت
لعم
يتعرض
برس
المستمر
وشهد
##وقاف
وضعت
تقدر
يتأ
##ليين
تأمين
حمدان
كات
##اتنا
##وسائل
درجات
طفل
ينتمي
##قوب
كونه
روى
##روري
اطلاق
جر
أمور
خطوات
وادي
##هو
##شستر
للسيا
2000
##ذاعة
الدوحة
سمعت
##فرج
جيش
الترج
##ناك
جماهير
ولأن
##ىء
مستشار
اقتصادية
قيمتها
##كوك
فش
استقرار
##دمير
والبر
ومص
أنني
الزي
سري
الأمانة
المسيحي
##دل
##حاديث
شقيق
الشريعة
كاب
الرج
##ويين
##ارتها
القائد
مئات
لتنفيذ
##اوف
وحسب
دقائق
ثمانية
النور
خارجية
بذ
مشتركة
عالميا
وتقدم
##وقت
أخيرا
سك
الخبراء
التوصل
الطويل
##وأ
الندوة
طا
##ائهم
ألفا
والاع
الامنية
صباحا
لائ
بالمائة
##ثق
بمبلغ
التشغيل
##اضرات
المقدم
##صدير
الجودة
مريم
62
أرج
##دب
يشير
لوكالة
الكلمة
القا
##ورط
كويتي
طلال
ووزير
بصفة
النفسية
بدعم
##فرقة
بزيارة
الأجنبية
سرعة
أصول
##16
مطر
##لاس
وأبو
التفكير
المهاجم
السريع
ولهذا
##شرت
ياسر
الاوسط
صي
فين
نح
##id
##صابات
##13
للز
مشارك
##فتاح
##صام
غيرها
سنت
الثامن
لاعبين
بكثير
وأكثر
برصيد
نوعية
اللى
##جاهل
##فيز
ويق
وتخ
التعادل
الأنباء
عمال
رئيسة
السعيد
##موما
الصيد
خر
ابد
صعوبة
دوار
بدل
لنفس
الدر
السنوي
ونا
اهداف
البنية
للجنة
هشام
##جواب
الجغ
أبطال
##ay
الأطباء
العظيم
نقد
اته
مربع
##ادها
الاهلي
المحي
موجودة
فارس
وتحدث
صفقة
وسل
##ثور
جملة
سار
رؤساء
و3
اعداد
علمية
حج
يبحث
أسا
عنده
جريدة
قراءة
صدام
بدوره
تقد
خفض
##طرا
##ul
سابقة
##ائح
للمت
حجر
الحرارة
وتقدير
190
بالذكر
الشعوب
##اطئ
حكومية
القليلة
##وعا
##يشة
البرلمانية
المباشر
قوي
الجنة
مناسب
##يور
ودي
الموافق
الاعتداء
كمية
##ناث
قلبي
بذل
كلما
السد
لمؤ
##شير
الصوم
الجميل
##ئون
سلوك
الشكل
77
والذين
المجاورة
البترول
الهول
علماء
جعفر
برميل
يتمكن
صعبة
الممار
قريب
##وكي
المخرج
راح
بوزارة
##ايت
##18
##باراة
محسن
ميت
الواحدة
باله
##زون
أمريكية
##قيادة
الديمقراطية
يكت
واذا
بيئة
العاش
واج
أرسل
##برات
تميز
المطار
سورة
لتكون
لفترة
هريرة
فم
##بنان
##ذاب
تخصيص
##فوق
رف
##ئتم
تقام
كرم
بفارق
##he
##وازن
المساعدات
##وفة
قيد
الممثل
حامد
##ضحك
الإلكتروني
لمصلحة
##كاة
يرد
##ولوجية
##يمون
مبدأ
قرى
تجري
##شرون
72
قصيرة
##ائفة
تخت
اغتيال
والمه
والتنمية
ماد
الوظائف
التونسي
لأب
المصالح
بانت
و4
وانه
68
لسان
نعرف
ثمة
الاتهام
الارض
##im
مشددا
المحيط
بمثابة
المساعدة
فيهم
ظهرت
قاعة
الزيادة
السكانية
ميدان
##هدد
##درج
اختلاف
ارتفعت
##طبيق
المواقف
مراجعة
وأوضحت
المعنى
الهاتف
المطر
انتظار
قادرة
الربيع
القناة
جمعة
إنسان
ووصف
##بول
بحلول
##نها
وسيا
بطاقة
يقولون
إف
##نق
الأحزاب
ليش
ومحا
##مام
النبات
البرازيل
تقت
المنشآت
##يجاد
الأساس
أسس
القطري
##جأ
تتجاوز
وخط
تشرين
تسي
العبد
تبوك
انشاء
##ابقات
ذو
هال
بالمر
63
يتبع
موت
للمجلس
عكس
فالح
أثبت
حاف
##روك
##رادة
##رائب
##فاة
القيم
للغ
الاز
تعني
الناش
الزمالك
خسائر
المالكي
لمر
وعض
حري
شرط
##ادثة
السلطان
ورأى
السبع
القرى
وهما
نهر
قليلا
##ليمة
الخل
يجمع
لضمان
ببعض
كتلة
دخلت
##كف
59
بالرغم
معايير
وأح
ترتيب
للاعب
##us
##سبانية
##فاقيات
مشعل
الفور
داعيا
الفريقين
##ثى
سحب
تصنيف
معركة
##يرون
##زيه
للقوات
متط
ويأتي
الاجراءات
تحتوي
مترا
الشبكة
بقدر
كتابه
سع
وذ
##شرح
شأنه
##فرت
جريمة
##ايا
##واحي
ورح
العقيد
الصينية
##بلد
##يروس
كش
الخمس
##كرت
تلق
##همين
متنوعة
البرو
##ماكن
يقبل
##شأ
##خبارات
بعده
الانتاج
نرى
عقده
التحديات
قطاعات
صديق
##17
##ئل
برج
وزيرة
الخارجي
الرئاسية
يمنع
وافق
المؤشر
كانون
بجانب
مرف
موسي
##سو
##فاهيم
الطائرات
##كانات
اللغ
محاولات
فاض
الرسول
إست
74
مسعود
الأسلحة
وطلب
لدول
الخبرة
البيضاء
الكف
ابناء
أقرب
صفحة
ليه
##سيات
73
##جوز
للوصول
الثنائية
والاقتصادية
استمرت
##ورن
اسعار
الترا
مواصلة
السيدة
لحماية
الايام
##خين
عندي
الفكرة
انطلاق
وعبد
بندر
##هاية
##عاف
الناحية
يعطي
المشاهد
##نازل
المنافس
يكتب
انتقال
اعتبارا
الإحصاء
اوب
بإذن
##جيب
##ينغ
يرغب
ميز
اصبح
الأسباب
##يريا
مقدمة
الحين
شاب
##كاب
هار
الميدان
لابن
المرورية
الذهاب
مستمرة
##عبي
ممت
ساح
##نات
الأمني
اقل
تكريم
إيجاد
التاسعة
للحكومة
##ظاهرة
السلامة
والمسا
يفعل
نشرت
المتقدمة
##ذان
القاب
##اوي
المجمع
##هنة
##وده
##وائي
مهام
المري
لز
ولقد
جازان
العقار
وغيره
شكره
الجب
مرسى
عملها
المحيطة
76
الرؤية
بعمل
الوحيدة
لحل
اجراء
##يطالية
الشروق
سكنية
مكتوم
فلي
للات
الثم
الحرة
التطورات
خري
أستر
الإست
جهات
استكمال
لفريق
السلة
##ظن
أعرف
الأفراد
هز
الهم
مرمى
لمكافحة
فيل
مند
التحالف
العازمي
##وقعة
والتس
نجران
السج
تشت
الزهراني
حو
الصرف
وبح
المبلغ
المخاطر
الفج
تعرضت
غاية
إمارة
الأولية
فإنها
##ساءل
خاض
##جها
انتاج
فوزه
عامين
الأحمد
الشهري
وأنت
يض
##قطاب
##نم
ساعد
الدخل
وهكذا
وعلم
95
تفوق
لاي
ريت
##تش
صدي
##يء
الصادرة
##tu
المشرف
المنازل
متطلبات
وغيرهم
##ؤدي
الشمالي
أور
يطلب
الكهربائية
قليل
فجر
##فالات
مميز
واي
ليع
##ناعات
المعلمين
##وصل
الاعتبار
الليلة
البطولات
##ir
##ربط
بعث
التعا
موضع
##تاب
الموجود
بحر
الديموقراطي
نظيره
الدائم
##جارة
يدرك
النجوم
##ريبي
ثانيا
والتعاون
ويكون
وكما
##ئن
الشكر
حارس
النهار
##وسي
والبن
##طنة
لكون
وعمل
بغير
##جئين
الإشارة
##ماعا
##اتل
الكبار
وتقول
تحرك
العقوبات
روم
الحرس
##زالت
الفاع
تشجيع
أسر
العش
والاحت
اضاف
لوزارة
مبيعات
مؤلف
##مثيل
عقل
اصحاب
مراقبة
الكتابة
مستقب
حلم
البنات
دو
واجه
الجنود
بجروح
واقت
##اصرة
استثمار
الفار
اعلنت
الجنوبي
وبما
تخصص
ورقة
قوانين
ومنذ
##ويع
##لفية
أماكن
الآثار
عنا
يعرض
##زنة
بالمئة
حافظ
خلفية
السني
بالكامل
النجم
أقدم
الروح
ضح
وأعلن
العثم
بوضع
##كيلة
المصرفية
خسر
الجيل
مشرو
##لقي
سامي
شأنها
##روات
منى
العجمي
##99
##كه
برعاية
رشيد
وإلا
78
الناتج
المجتمعات
حديثه
اقامة
وعبر
سد
الوسطى
صب
##ستي
كريم
النفسي
اعتقد
تسمح
عدا
الشروط
جواز
مخالفة
بخصوص
يتمتع
الانق
الهاد
والمق
الأجانب
صحية
وظيفة
الشرقي
معروف
بالتأ
الاحتفال
بخط
النسائية
موظفي
وجعل
صيدا
جميلة
ربط
عوا
أبواب
يؤثر
كتابة
الأنظمة
تعريف
منازل
الصعب
قرارا
دراسات
هت
أدت
مشاعر
اختبار
واسع
عاصمة
القيا
##ييد
الاستقلال
ميلان
مائة
للتنمية
موسكو
نصيب
##شع
التأثير
اسبوع
التعاقد
وأول
وجميع
لأس
##وقيت
تستمر
للبر
أعتقد
أحسن
لعبة
##ينيا
##طلح
وسيلة
##سيد
العقود
لعدد
فوج
تث
ورجال
الحجاج
اعترف
بجد
يرح
ذاك
الفائدة
جولة
##باكات
وقر
إنت
بيل
##وند
إصابة
##اقم
مانشستر
افريقيا
المصابين
وليست
اللذين
##فين
ورا
المشهد
والأمن
الدكتورة
وحين
المناخ
جزاء
السلوك
كاتب
عقدت
خطورة
المستويات
دل
الوسائل
عائل
الجبل
الخيمة
انتخاب
تراج
لجان
أشكال
اشهر
الدوائر
انجاز
مها
##زر
##يما
قضاء
##فيفة
الأهلية
النهضة
يونايت
##كما
خسارة
الاستعداد
المستقبلية
يستمر
تأخر
شاركت
الأربعة
ونظ
أفلام
والفر
الوقود
فران
##ابق
وأت
##ياج
باد
يارب
تهم
الحوادث
##ia
2015
لأحد
انخفض
وهى
بمس
##اغ
وطني
مقعد
الكنيسة
الجوي
##ماغ
وأصبح
##ha
التصوير
يونايتد
عروض
عموما
أنس
وبت
القروض
غضون
الصاد
مستمر
وسيتم
والتش
يشمل
##طيل
لتلك
يهم
يختلف
سلطة
##واني
جس
خبراء
88
والام
تابع
وبلغت
التداول
الإداري
هلال
الناطق
التجمع
لانه
##ثيل
الامريكية
فو
الخطأ
كمال
شعبية
زيارته
يومي
اللائ
الافتت
الامين
السماء
ووجه
الظاهرة
##ريحة
وخارج
المحافظات
##ذاكر
سبحانه
دب
يمتلك
الثق
الاتحادية
منطق
##ونيا
ناش
بتص
يشار
1998
هيل
بالمملكة
وتحد
مبد
لسمو
إشارة
##براز
لحقوق
القنوات
ترح
الإيرانية
العاشرة
غريب
ربي
الصدر
المبنى
سعودي
##وائم
متخصصة
التقى
الأدب
##ردد
##نيه
هاش
للجم
##ؤساء
خطوط
##ذاكرة
المتأ
##زيا
المرمى
وشارك
##سيط
بمقر
الطيب
حبي
مسار
بفتح
كلمات
الضر
69
يحفظ
والى
الايج
##ريان
آي
التحكيم
المقت
استعمال
مبت
منك
النفطية
الخص
##باحث
##طاعم
البقاء
رسمي
##لفزيونية
وتعتبر
الكون
##قتين
تعامل
##رقم
التدريبية
والاد
قلق
##وظ
قاسم
تختلف
##جنب
والتص
والمجتمع
مكاتب
##ot
أصيب
الكريمة
الازمة
لتص
منتجات
للطاقة
الفلك
التدريس
النيابية
##ديان
الجامعية
المعايير
والدكتور
##امرة
لرعاية
المواجهة
ووا
##ابرات
يريدون
العروض
الاطفال
والصناعة
شف
##لله
خيار
you
يرجع
##وقراطية
الأمل
خش
إسلام
التقارير
انش
أسامة
تشارك
##مكن
البيئية
ترجمة
ابرز
السائق
العقارات
##يسر
إني
بالمست
اتهم
محطات
تأخذ
قن
مصري
##ئتلاف
تتمتع
الارهاب
الأخضر
وبذلك
الشهداء
أحكام
العظم
بواقع
واش
مطلق
يعقوب
##راتيجي
كونها
أوراق
مسيرته
##كبة
##طلعات
المتع
##ماذج
جلسات
الارتفاع
فهناك
موج
إلغاء
##لث
السعد
وأعرب
الجهد
باراك
عوامل
الأمريكيين
##غلب
إننا
صدرت
رجلا
اربعة
المطب
وبدأ
أوضاع
تحصل
زعيم
للتعليم
لتعزيز
82
فرقة
لائحة
العيش
الأسود
مؤكدة
فحسب
الأفلام
##صير
تضع
##وفى
استر
متوا
لبناء
السكن
##ريش
واضحا
الشرف
##يراد
##لطيف
بعدد
المباني
ثقاف
##عكس
خميس
يخدم
##غلال
يمارس
المقدسة
##صا
امتداد
جرائم
العبدال
أفغانستان
السنوية
وعل
قطعة
ملحو
المستح
تمكنت
##حرص
##عاش
يقارب
يكفي
الأفكار
##جلات
وسن
النسبة
السلبية
##تو
##يسان
وعليه
التشريعية
باتت
تؤثر
##بعث
تأجيل
##لاحقة
##قدة
حاز
الذهبي
عشرين
##لقى
تقبل
الاستاذ
الأحيان
##لائه
##فيين
مثلما
مؤقت
##عها
أميركا
مجموعات
الجانبين
شديدة
مشرف
فنحن
كور
اجتماعية
وأعضاء
##جاجات
ثق
كده
الحكام
##بيقات
##براط
فريد
تلعب
زميل
مرتين
نيابة
##عدد
##جام
يصدر
الاشترا
عجز
in
قدرها
أبيه
الود
شوارع
الشامل
##طول
المساهمة
رش
البول
##مارسة
رون
تتراوح
##ربون
لث
الاسباني
للمواطنين
دورها
شملت
المعل
اللون
أية
المعلم
القتل
##خرين
فكل
المتاحة
##ورغ
اوروبا
##زى
##فترة
الخوف
أسلوب
لض
##يتا
الاعتماد
الماضى
طالما
أفكار
إذن
الممتاز
96
الشاف
##قدار
##فيان
المتظاهرين
الظهر
عاص
وجاءت
عندنا
محلية
رفي
تخل
##قار
التب
سبل
##لفا
لوضع
##ياغة
##مييز
الحيوية
الأحوال
##ولون
الأوراق
اليمني
أعرب
ومل
##اليف
جيم
##حكم
84
##لاحظات
##زايا
فد
بلدان
بدءا
مرش
##رائح
##حرز
تيار
##فايات
تلت
##ولف
الآلي
الجمهوري
كريست
فروع
منف
باللغة
الصناعي
للأن
المبد
ولت
الصهي
لمح
بالمحافظة
عبدالمحسن
نسبته
الاحمد
رغ
سجن
القريب
بتأ
إله
إحصاء
##فاد
تمه
مطال
قلة
##ديو
##ماعية
##قاهرة
الميزانية
طبية
الاستع
تكلفة
والاستقرار
وشركة
الخي
للآ
غرف
الموس
التوفيق
تويتر
##صرار
##افات
بجميع
نبيل
الدفع
الاستمرار
تبدو
المار
حلقة
القوي
خطيرة
##يوف
يعملون
روما
تسمية
##طفاء
##نسا
اعتقال
أميركي
اهتم
##aa
للمنتخب
الترم
بعين
أستاذ
ضربة
حن
المعروفة
هاج
انتق
##رمي
الشم
المصلحة
##قرة
والبحث
بشدة
السماح
الفيصل
المساجد
97
كتبت
واجب
##نتها
الدراسية
بلادنا
86
مقابلة
لإدارة
تأهيل
شاه
القابضة
مره
##مديد
##يرن
##وايا
إسحاق
ثبت
87
النسائي
الناخبين
مشاهد
صدق
جنود
كيلو
طيبة
و5
عهده
##طرابات
كميات
##واي
##سنان
شاملة
تنظم
##حصل
أحدهما
إيطاليا
عاج
بوك
79
يصح
98
والتع
##دامة
##جوء
120
نموذج
زمان
التجارب
القذافي
أواخر
إصلاح
بعيدة
بالض
##عديد
كلي
بريطاني
خان
ابي
المتميزة
اللحظة
##تهى
##سيك
##وعات
القوم
هادي
المحتلة
طويلا
جول
##ضيق
آخرون
أنك
تجارية
شريك
##امى
##عاقة
##ينيات
متمن
مسؤولي
العوامل
الرائد
##قاطع
##تماد
سانت
ابتداء
انضم
##روية
التفاصيل
العادية
العامل
زار
طبيعي
تفسير
83
لمحافظة
##ثرت
جودة
استثمارات
حسابات
##ئمة
لمعرفة
الترتيب
للأمم
ربيع
بمعدل
وإعادة
السياحي
يونس
القريبة
بلفظ
##ياح
حديثة
الابتدائية
والعم
انفجار
##غرق
##حون
مرسي
مفاوضات
الإمارة
وإد
تمتلك
اجتماعا
حفر
##يعاب
بعم
القن
الكام
يترك
تلقي
مصير
بالمد
تقف
##منا
قاله
لهما
الإيطالي
وصولا
لمنع
أريد
##ئه
التوجيه
المصنف
كس
##بق
الخبرات
الراهن
المهنية
ألب
درو
القراءة
تجديد
دام
ذكرى
سأل
عددها
##حدى
##زامن
حامل
##ظلم
تنفي
أهالي
سبا
أمرا
##مسك
وتحت
بقا
والتدريب
مهارات
##نتيني
المذكور
يه
تنفيذها
الفضاء
تتطلب
الملي
الفضائية
ماء
##راحات
طائرات
المكلف
عادي
سيدي
تأس
النيل
##فرة
المتميز
المباشرة
لست
أدنى
خار
التأهل
##شات
انني
اداء
قبيل
يرفع
وكم
##ليفزي
##ter
البلدة
##فيهية
التربوية
الأولمبية
روبر
ابنه
##صورة
نفسك
تنتهي
أجواء
الأشهر
لفظ
كافية
المنتخ
##صلين
الرشيدي
القوية
بنظام
وتأتي
أنظمة
الائتم
مديرية
##ناعية
رأيت
خاط
##حلات
مشوار
أساسية
وحل
اجراءات
شخصيا
المباحث
أجمل
امل
الشراكة
مسافة
##اردة
الهجمات
المخيم
شهرا
الكويتيين
وسيكون
قرابة
المنتدى
##ويكبات
مجا
عدنان
الفتح
##حانات
##رشاد
طالبان
منزله
طرد
وكيفية
##الته
التكنولوجيا
##وفد
وحيد
تجارب
نيك
استعدادا
يقصد
حت
للشعب
250
##موحات
لتع
القصة
##ريه
##وقة
يعكس
الصيني
رصيد
دير
الفرع
اليابانية
آنذاك
السليم
قيادات
لاب
واكت
##كيك
لأنهم
عماد
##كاسب
مخاطر
اجتماعات
لام
الساحل
وحدات
الآسيوي
الحيوانات
النخ
الإح
أقام
##رياء
وامت
حرف
##عوا
##طت
##ربه
القصر
##re
والدولية
منتخ
الأدوية
##قرية
##قود
أقر
الجميلة
تسير
مبالغ
لنقل
##حقاق
حدة
والإد
للاحت
أند
أساسي
حلف
السياسات
رابطة
وحسن
لأكثر
يوفر
الألب
موز
طلبة
إخراج
المحترفين
إيجابية
والرياضة
تجارة
الاصلاح
ميزانية
قس
علمت
اليومي
##80
##لكم
##طح
سورية
##غى
##روحة
التل
معارض
الجنائية
##90
المستخدم
المخصصة
الانكلي
القبول
الأحياء
الحاضر
أراضي
المرح
وتك
##ستير
مكث
عصام
التنموية
السكر
ونشر
600
واح
مسي
المتقدم
الأماكن
يحتوي
##شان
التنافس
المنتج
المغربي
##صرح
دعت
لولا
ودول
المحاكم
وتب
عبده
ملم
##ro
##فعاليات
البطالة
فب
نكون
المراد
يرفض
##فلون
يحدد
خبرة
الإماراتي
تستهدف
الالكترونية
مقات
بموا
##لامي
المادية
الديوان
94
والثقافة
قدمه
أولاد
##قان
لويس
أخبار
البورصة
البريد
بنفسه
الشيوخ
تتأ
تتمثل
##جزائر
أقيمت
للدفاع
والانت
ميناء
الزعيم
##مثلة
الهوية
##هرا
رت
يدعو
##واهر
الجوانب
الفئات
نساء
سعادته
##جتها
للمرأة
منتج
والتر
الرأس
الالكتروني
طلبت
المراحل
فني
رفضت
جوانب
عملت
إيه
زع
ملام
##ra
إسبانيا
اعلان
الأض
92
##طون
##فتها
السنيورة
ضيفه
التمر
##راعات
عبداللطيف
1990
بتنفيذ
مستقبلا
النقطة
عرفت
ومركز
وحرص
دوا
الإبداع
رصيده
وفاز
##اجه
المصارف
شو
##ائلا
طبيعية
كندا
الصديق
##يديو
الجوائز
مضم
داف
##جليزية
المبت
لعل
الأسماء
ويعد
ربنا
حاس
وأج
الشقيق
يعانون
##ريضة
متع
القمر
الزمان
مور
##داولات
التصرف
صعب
الجاه
51
وفتح
الجبهة
##بدء
##بلدية
وتمت
يفترض
##ذف
سعادة
##سلامة
طبعا
بالقول
هاشم
الصعبة
الطالبات
جير
العلام
رعا
استقلال
##مارة
الجنرال
حوادث
الكاملة
حسني
والاعت
يضمن
مذكرة
الحمراء
تكاليف
ديفيد
تسا
النسخة
##زف
بتر
فكيف
القبائل
والنصف
للسل
أقصى
يطالب
الإماراتية
تعليق
الحماية
ومتابعة
انتها
أسابيع
##طلبة
140
##وهم
##يرين
تقدمها
فئات
هاتف
لمناقشة
ارتفاعا
نار
ضحايا
بحكم
قانونية
##وارث
لاحت
الوطنى
تدفع
ويعرف
شق
##بها
اليورو
##ماج
الاقل
وثيقة
##70
والثانية
ردا
الكمبي
جوز
الشهير
السرعة
بنتيجة
العسكر
الباطن
يشبه
النقاش
مستقلة
زياد
الجدد
أود
يثبت
##نابل
الحرام
وجن
المسيحية
غالبية
القضاة
##ويج
الانتقال
متمنيا
دورات
جار
والاتحاد
باس
##هيلات
وبعدها
مكانة
شمس
اختلف
عددهم
تربط
الفتاة
تلقت
##كتابة
اجمالي
##ظروف
##لاه
كثر
##جعل
93
##ظيمة
للتص
قاموا
صن
سيست
تردد
##ليها
تحاول
مخيم
##راجات
فسي
الصحراء
جده
أيدي
أنصار
أعوام
##عتين
##جرين
am
رأسه
قصد
سح
لإعادة
متعب
تساهم
##هى
عامي
##وقعات
باستثناء
السو
الخطر
##داقة
الكلمات
الايطالي
التدريبات
حيال
صفة
##ائط
لاحق
طبيب
فليس
##فهم
الطيور
شغل
##ظهار
لتحديد
تحليل
##تهن
حدد
محيط
بمختلف
للانتخابات
اتفق
الصع
tw
##ركي
##رجم
##ئر
##افل
دائم
الصدد
لتق
البدء
##احي
sh
الوص
التخصص
إليهم
##جمان
أجد
مهدي
بدي
الحكومات
يذهب
##ستانية
تايم
شعور
لوس
اليمين
وبحسب
##خطوط
الكو
تكوين
الزوار
النحو
ومخ
##قاليد
المفاج
سياسيا
ضعيف
الدولار
##بان
الفائز
الضمان
بتع
تأليف
تسعة
استاد
الفنون
ياب
الأكاديمية
باستمرار
التوص
##بيح
متخصص
الاستخبارات
وكالات
تيم
مفتوحة
وظائف
احب
الإقليمية
##شيط
تغطية
الطويلة
واشت
وبشكل
يسمع
##اعيات
أمانة
الدورات
المنز
##طيات
جامع
##ناز
الرشيد
الصناعات
المسرحية
والمص
الغذاء
والشباب
##شه
بانه
العراقيين
للمح
للحد
فعلى
##يخة
المثل
##كنى
رائعة
كفر
##يلول
بحد
حاتم
لازم
##وضي
النقدية
ليصل
##22
أبلغ
##راوي
تولى
للعم
الطلاق
##ثارة
الرابطة
باعتبارها
الزب
المعركة
عيون
سرا
##راد
للأطفال
##ائص
ستن
المشكلات
##عديل
صقر
مرج
والقر
الاحساء
عزيز
الأشياء
يكونوا
حذر
قوم
لدرجة
2016
الصيفية
المقررة
##حاكم
أغنية
##هري
بسيطة
##be
والدي
الدوا
##اتين
الجرائم
وقتها
الجامعي
بنات
##ومين
##ذاء
وتشجيع
والسي
ملت
000
##ليد
الشعراء
##املين
المكون
مرح
اختصاص
##افرين
89
مضاع
والشركات
كسب
المقام
##فف
##حها
st
رحمة
الوقوف
المبر
التأكيد
المتوسطة
البو
يفهم
تري
##كاية
##ايل
بينه
ويبدو
اسماعيل
وقتل
شهرين
حسم
##روز
لتوفير
مميزة
وأخرى
الضحايا
للسياحة
الشرعي
فلسطينية
ابريل
##آل
يعبر
انطلقت
توسيع
فالأ
تموز
انطلاقا
بيننا
وأنها
أهمها
##سلم
الجوف
المجموعات
##ياع
وصح
واخ
##فان
طلبات
شريف
الهر
راس
بوس
فائ
التبر
الوليد
نعيش
مهد
الزيت
والشعب
درس
##روه
السويد
بولاية
أصوات
##جدات
##يتان
والمخ
تجهيز
تزايد
##فاءات
يعقد
المتعددة
الهندسة
يده
##واتف
حقا
الديني
##ستور
الانسانية
التربوي
حقه
##لان
أيها
آب
##اعه
##بره
الفنانين
ويحت
بتح
المدرسية
##ion
المراقب
وأق
عضوية
أجزاء
إرسال
للشركات
قدرات
غاز
##هالي
معنا
أمراض
اشار
مراد
أحدا
سياسات
1996
تدعم
الإنجليزية
سراح
برلين
الذكور
التأسيس
الشك
تخفيض
##قدرة
##سناد
وحضر
تمهيدا
البعيد
وأخذ
فاست
ضخمة
بالدم
##صارات
الواضح
##راءات
سنتين
مشروعات
الاعتراف
مازال
اربع
##لفة
اهل
النادى
البحوث
واص
##بى
الاراضي
##وكا
اكتشف
كارل
بالث
ألقى
باخت
العائد
وبدأت
شم
تبني
جبهة
أصلا
وتحديد
##aw
ضباط
##غبين
القادة
زادت
الناصر
البحري
واصل
أندية
الخرج
معن
##رمان
##وتها
خرجت
الخلايا
##قاها
الخمسة
تركز
عملا
لاعبا
بأعمال
الياباني
علامة
##ساة
سج
ملحوظ
والاه
ألعاب
باعتباره
الخطوات
الحاسب
##تجات
لرفع
طالبا
بلقب
الضغوط
برنام
الخسارة
حديثا
أقوى
أثار
يؤمن
حرة
المنتخبات
ووفقا
##ضار
الرشيدة
الإسكندرية
اجتمع
##غاثة
نموا
يعادل
كلمته
إقرار
هجمات
توضيح
مرزوق
نقابة
التقدير
رؤوس
##بنية
تكري
متميزة
للنساء
ومصر
مديرة
المهني
الكمبيوتر
غازي
##كانيات
##تت
188
##وطين
يعنى
تعادل
استث
رئيسية
##عدى
##داة
بالمس
حينها
ريالا
##تج
ومسؤول
لزيادة
نستطيع
الطبيعة
##هورية
بتهمة
مملكة
اللازم
الوكيل
##صلات
رغب
متت
لقطاع
##عدت
##قها
لاحظ
الاستشار
##فافية
كثرة
نجحت
الأخبار
##ac
منصبه
المقترح
اخذ
الفكرية
تتميز
المخالفات
بالمدينة
حدثت
وتاريخ
##25
إضافية
محادثات
القارة
بدورها
توظيف
الشاملة
الاسواق
##هوة
186
youtu
وبالن
الليبي
##سنوات
##دو
وقوله
القادر
وتكون
للام
يقضي
تدور
##زار
وأخيرا
##واها
بمستوى
الواجب
التعرف
نوعا
وحصل
##دهار
##ندسين
بطول
ندوة
شخصيات
الحلقة
الكلي
السهم
العط
تاريخية
اللاجئين
حما
بالمركز
والثقافية
التضامن
##ونت
تدريبات
بالتنسيق
الخش
الأرباح
الفنى
اصبحت
تبد
طيلة
نسي
##sh
عرضا
وول
و200
يطرح
القيادات
رفعت
طيران
##وفيت
تفت
باحت
الايرانية
1997
##يمه
##ونديال
تعكس
الذهبية
مارت
وجهات
أعماله
قتلوا
العضو
عبدالكريم
##يفي
المدنيين
مضى
الجهاد
##أخذ
السيولة
رأسها
للقيام
الزل
##حاس
سكن
والتطوير
الكوم
##اندة
سهل
يوف
بعثة
توفيق
##فاضة
واضافت
ضابط
##يرت
##ناقش
##بكة
an
شتى
يتقدم
طراز
سويس
ادى
يلتقي
يلزم
الأخطاء
مماثلة
##صاف
المفترض
ورشة
التضخم
الخطط
الممارسات
أخبرنا
بيوت
يحل
طبقا
نك
مارك
الهولندي
سارة
الحظ
أوائل
اللائحة
تخط
البرتغالي
أنشطة
الوزن
مساهمة
الموسيقى
لقي
تعطي
النقابة
##ليط
أكاديم
قدما
معروفة
قويا
شكرا
جندي
اسمها
##قناع
لتنظيم
الصفقة
##فاوت
1994
كفاءة
##وظيف
الإطار
الإيمان
تحدد
البت
مبادئ
المصرفي
ثان
##عقد
تنقل
جال
البري
لأسباب
##فلونزا
##كاء
##مراض
عارف
##فار
يساهم
وأربع
##حادي
##عاث
فاس
فلن
آليات
الثابت
اقول
البرية
أطلقت
##ستين
المها
##جلترا
##يميائية
المذكورة
بفعل
للرجال
البشري
امين
القانوني
لغير
هوية
سيناء
والخارج
189
ممثلا
معاناة
ووزارة
البيض
##اهل
##كز
يحضر
المتخصص
الموضوعات
المؤقت
لون
##كريات
الحافظ
##سمه
صناديق
##الها
##اعا
الأحكام
السا
الحريق
الده
منتخبنا
##يرها
سائق
##40
ورس
الفرقة
تقر
جمهور
##ing
الأبحاث
##غطية
فورا
الجهراء
العناية
وجهه
يتوقف
أني
ومنهم
##ابهة
المتح
إنهم
هاد
##غن
ساهمت
ويضيف
الديمقراطي
##موي
وحدها
فرج
التوعية
وتنفيذ
الاختلاف
##يقاف
ماري
سود
##وافر
وجمع
بمديرية
شمل
جلال
يحق
التقنيات
وبط
زوجة
آمن
العطاء
البعثة
##بارك
جعلت
الأزهر
صلة
النعيم
##يتنا
إغلاق
##قاق
هان
ومؤسسات
السح
##ساءة
قصيدة
المسار
صحافي
التوقيع
تنطلق
حياتهم
##st
##غاف
عمرها
أظهرت
القلق
المميز
دوره
علوم
تسب
الإنساني
العثور
##نج
غرار
##جميل
السريعة
تسمى
اوباما
##امح
الراهنة
##وقي
لأننا
الصبر
مظ
عت
أشرف
السجون
اللجوء
التصفيات
71
##ركية
و7
القس
الهندية
الطا
الخز
لتف
ليون
نيوز
لوحة
##مرات
##روضة
العدوان
عدن
تمام
عمار
المحامي
سما
وإدارة
للعلوم
ويرى
نجيب
الحجم
جاك
روبرت
بمركز
الراشد
تخدم
تصف
بأهمية
تتخذ
##قتهم
الاعلان
العشر
الفنانة
ونحو
غل
وأشاد
أطراف
موجة
للبطولة
##افلة
الهجرة
المفوض
الفارق
رجب
##مارات
##الثة
##فلت
بأنهم
ارتباط
التعديلات
رسائل
عني
##نعة
الآلاف
##حى
بالتأكيد
##فلسط
##سابقة
تدريبية
المساهمين
قنوات
سلبية
مدا
1992
أرى
##بيعي
أولئك
للفوز
##وضوح
المحمد
##ظمه
حزيران
حوله
تحب
مباحث
تنتظر
ظاهر
##فاه
الجرح
شرعية
بالي
فحص
عثر
##براطورية
مطالبا
##لاقي
المستخدمة
وجوه
##le
شت
وتنمية
غز
التعريف
الجيد
حسام
التوتر
نفوس
الأصوات
##سيخ
الأو
##جنوب
الاعضاء
اك
سفيان
التاريخي
المستثمر
وثلاث
عيني
الفقه
المسؤولة
قلنا
التمييز
اصط
المميزة
صالة
بمح
عرق
وتنظيم
معاليه
نصب
المواضيع
جبر
بالتع
متكاملة
##ساحة
وحماية
للأسف
لتصل
نظرة
استهلاك
لمتابعة
##كريا
فتاة
ومثل
يسأل
نيسان
1991
أجر
أشد
##فرغ
الشعور
يقومون
الميلاد
التصميم
حزام
العمري
الكونغ
عائد
حياتي
الوالد
800
الملائ
تكرار
وحمل
الخلافات
لمشروع
دوما
الفل
فول
الرحلة
##نافسة
مشاركت
الاقتراع
طاقة
ويبلغ
##طاف
محدودة
واعل
##راقية
مناص
يهود
لتت
الأمطار
نسبيا
واستقرار
الخسائر
الودية
##سق
العاشر
وتحديدا
حقيق
المرتبطة
##ققت
اقتراح
جنبلاط
وحقق
الفضل
##بيبة
المرف
الرسائل
شدد
##فسنا
##خطار
##ئوية
وتتم
دولي
الاساسية
والمسؤول
لاعبيه
بريدة
##رضا
يسير
يدور
المسابقات
الدوار
##يلد
##وحات
احتفال
يتحمل
##af
أحدهم
ينظم
##نائه
الخليفة
منافسة
المسئ
لحضور
للض
##عال
يان
تلبية
بقرار
لانت
ولبنان
بسهولة
إنهاء
فائدة
الادارية
فير
والأخ
للجيش
حقيقي
التشكيل
منظومة
##وعب
سيدة
وسوريا
ليصبح
##ذير
هير
التوسع
يسجل
الشيع
حدا
يدعى
بنجاح
الزوجة
##فساد
##ضت
لمجموعة
##يناء
##وراه
المعسكر
السعر
القتال
الوثائق
لحد
يقام
اقيم
الشخصي
الكم
الشا
السرطان
تسع
الامريكي
الماج
الخطيب
الاختيار
##لندي
الشرك
آدم
وزوج
واليوم
لوجود
المتب
##فسر
##عودية
##جلوس
تحسن
اضط
غادر
##شو
##رتب
وطال
##وكس
الرسوم
المحطة
##كاليف
بمت
الشهيرة
البلا
تقرر
قيمته
##يتس
التركيب
الهندي
##ياف
والحديث
تحولت
##يسيا
افتتح
افراد
القطع
ناه
القدر
##باعة
الذاتية
كسر
مدر
فكانت
صادق
الواردة
اسهم
الهيئات
بالقاهرة
بمش
عر
الفهد
ولأ
الهاجري
التخصصات
##امع
قاط
تقدمت
##ربول
رسوم
والولايات
المخابرات
العمرية
وسم
وها
يتناول
سريعا
الستة
التحكم
اضطر
بإمكان
لعمل
للمشروع
بقى
##تهر
الفطر
##باحة
الطلا
المانيا
يفكر
##ضحى
الفجر
##ساتذة
تبع
أسلحة
الإطلاق
الشتاء
بخلاف
ومنع
اقام
مشاركته
المشاعر
اللقاءات
أكل
الضرائب
61
لشراء
المؤمنين
##غني
##ويكب
بقاء
هج
ويا
بتلك
التصنيف
تولي
سكانه
العكس
##فيا
ترد
الرغبة
##قبول
التسويق
##خفضة
بكين
سيم
الحقائق
##هبة
##وحدة
التشي
المحل
استعادة
قاب
جين
سريعة
السياسيين
القيامة
للإن
وقامت
والقانون
##ضعاف
وشع
وبي
وشمال
##تيبة
التوافق
العر
الوفاء
توافق
##ليت
وتعالى
عادت
تعبر
المدافع
اختار
الأسئلة
1995
the
مسرحية
جوهر
بنادي
##خصيص
روت
فيك
والحد
الزكاة
الجمال
تراث
##يبه
مروان
الأجواء
لقاءات
##بث
اين
المدة
توصل
تتعرض
##لغاء
الأرقام
الأحساء
والصح
الاختصاص
صافي
قريبة
##قون
الملابس
بصف
شهود
للبحث
البالغة
الفيديو
حث
متف
والعدالة
1967
اللاعبون
المفتوحة
يفيد
تقسيم
العوا
الفوضى
وزن
##صلا
التقليدي
غضب
الكثافة
وتشمل
##قراطية
##امعات
##بوب
الحادي
للتس
##يرك
الارج
ورق
الصار
بابا
حماد
وتحسين
وانما
##بارية
mo
النزاع
##رارا
##ديب
عميد
تفقد
##ارين
##يتو
جدد
فح
##هله
##كررة
عاط
انتخب
أصدرت
نائبا
فترات
الكويكبات
الفص
الضع
##ودها
بند
مصرف
إلكتر
يتعين
تتحدث
##55
عليا
الأور
إت
##فاؤل
للهيئة
الإرهابية
مؤشرات
حمزة
بالطبع
نجاد
ووك
##اشات
انعقاد
إفريقيا
والرئيس
المستمرة
##لتين
##حكام
##رنا
الاوروبية
محليا
يال
وارتفاع
تستحق
الجارية
أقسام
الأفريقية
الولاية
اساس
انح
عقوبة
عات
الجزاء
تاريخه
تجرب
التحول
السفن
المبكر
يعلن
والشيخ
أشاد
الكوري
الخضراء
والسكنى
المتمر
##ييس
وأهم
##دام
الإسباني
وشهدت
المؤس
##قبة
بطلب
##وانه
##نس
تركيز
لاد
يدي
تذ
ومساعد
للرياض
صراع
رحب
المعيش
الاق
المستقلة
والخط
الجابر
السويدي
##ملا
زواج
الحصار
مخرج
الانفجار
الفتيات
##غلق
شعبة
##ائعة
##حار
##مانة
والكويت
بحرية
استخدامها
المنتظر
##ak
بريد
المعم
الانباء
##قابل
مجمل
فازت
مقاومة
مركزا
رونالد
أدرك
متس
المركبات
##زاع
##كاوى
ستست
##واجز
##ضائع
ليرة
##لاحظة
الفرح
البيوت
واستخدام
بنهاية
##التزام
الاسهم
العاب
يقرأ
تلفزيون
دخ
##شيا
تايمز
الفتنة
الإرها
كاملا
نظرية
نخبة
حاولت
واقعة
التونسية
لكننا
مكتبة
السك
النموذج
##روسية
##قيقا
بالمو
عمد
عجمان
##دران
نض
عندها
وضعها
الخرافي
يفضل
##وحا
لأجل
مئة
للمملكة
##ولوجي
##يدية
نهائيا
مقاعد
بجماعة
داخلية
الأقصى
لحظ
المثقف
##زيم
المطالب
نورة
الارها
مليونا
ميون
بحثا
المكاتب
إعطاء
##آء
الالماني
العيون
فالت
كفا
الكأس
والأد
تفيد
المبالغ
187
التمثيل
##ابير
##ريغ
متميز
تحظى
خام
الباحثين
التفتيش
ترشيح
##رقى
و20
مقترح
ضيف
تمارس
القواعد
مراقب
عنهما
يسبب
الثانى
الصحفيين
خوفا
##فون
الخيري
الجدير
يحكم
توافر
يعيد
##لاقية
ايجاد
المائية
قا
ليلى
مصل
##مليون
بأكثر
1993
المسب
##همال
ثالثا
اقتصادي
العي
حولها
خوض
المستفيد
##طلسي
نهائيات
الصل
التدخين
انما
تعهد
##ريال
روات
وتوزيع
##ابعت
##ئها
الراحة
المجالس
البغ
التحرك
وأصحاب
والمل
##تمت
الجماعات
الزراعي
قياس
مرتفعة
غانم
أجريت
والجم
##ضراب
أبرزها
القاطنين
##59
أجمع
للاعبين
الديون
وبل
وبرامج
مصنع
الوصل
سببا
السنين
##جاوب
الغرف
ab
الباكستانية
عظيم
بمقدار
الشهادة
الصادرات
##قلق
يآ
ومه
مستخدم
فأنا
##رافيا
لتخ
سرية
تفرض
##راحية
الاسعار
تسوية
##غيب
الأسبق
الصحيحة
##حمة
##تار
جنس
لبحث
للقطاع
تعويض
الذكرى
ثلاثين
ضغوط
سريع
عنصر
اسباب
##عيان
وعشرين
المسيحيين
##وطة
الشراء
الإنجليزي
الفنادق
وينت
مازالت
للخدمات
للسيارات
لمساعدة
التراجع
لتر
أنش
الهام
السعادة
81
##زايدة
لمعالجة
الواف
يرا
ويعمل
عج
المؤهلة
##قذ
##شاب
تصور
الإع
بحي
الكوكب
والاقت
##صنة
اشخاص
تمتد
قديمة
للحزب
شباط
المنصب
ونوه
أخري
استراتيج
اسماء
الشافعي
حرارة
حيا
بحجة
أدوات
جيمس
توج
رئيسي
المسيرة
حرام
مايكل
لصاحب
القومية
بتق
وتبين
القصيرة
ودور
للدول
##ثث
مسؤولون
مشكل
النفايات
يتحقق
ومدى
النسب
قرأ
شامل
تقدمه
طه
الطيبة
رود
للطيران
##تيبات
##وشي
نفى
##فعول
##نايات
##قض
اعتداء
مكتبه
##غياب
فلسطيني
معك
الوزاري
##وسعة
##ورز
المبيعات
موري
##ينو
##ثمارات
##وزراء
سرقة
التوازن
##ثله
المحادثات
الحكمة
أستراليا
أمني
##تيك
ورف
الباحة
كه
المتابعة
وتبادل
أعط
خاصا
##متها
حديد
وتضم
خيرا
##عث
باشا
العظمى
محافظات
ليلا
الكرد
ثانوية
وجرى
للحفاظ
##جاجا
يدعم
المصالحة
للثقافة
الاستخدام
الجنس
##ثيف
لحركة
حقي
##ودع
##ri
سلبا
الفيفا
جنيف
##ياطي
المحددة
##az
بهدفين
والهند
انتصار
##رتهم
بارك
وأصبحت
##وفيتش
مشهد
للناس
فلاح
##ركيز
وور
القلوب
يأت
ويقوم
إمام
##زاق
##نز
لنادي
نعلم
##لها
نزل
توت
الصلة
##ليو
المخطط
استح
بكم
مسؤولين
يسم
##ستا
الداع
توحيد
السوداء
التميز
عاز
##ائيا
يقيم
الماضيين
الضباط
غاب
##الين
وأفاد
##فوا
البنت
نعمة
فهذه
وقل
القارئ
التم
الاجتماعات
صعود
شبكات
السوريين
علاء
اتباع
الفائزين
الجلد
صحيحة
الافتتاح
##جيد
وعي
لبطولة
وتز
##وهاب
ايجابية
الدبلوماسية
الاعلى
نبيه
أخذت
وصرح
لاستقبال
استقال
##يثاق
##صاري
والسياسية
فيقول
كوك
الاندية
##60
##بته
الإت
النارية
النج
مخطط
تدري
رض
##ثبات
الملفات
##لالات
وكنت
##قن
والعراق
##هدفت
##خلاص
تطلب
النشر
الخضر
مستعد
التفاوض
يتخذ
وأبد
الأولي
طاهر
إزالة
فاضل
##تون
شاعر
لدولة
##ham
عودته
الاتحادي
الكوادر
الأسنان
التام
الملاعب
##وفرة
يخوض
##ندري
##واكب
تبحث
وتوقع
فيديو
##ظيفية
المعتمدة
الفجيرة
180
الصلاح
متصل
##غام
حظر
بارت
##ضل
استثمارية
##جاعة
العاص
##ينتون
الهاش
الكاث
المنتجة
##hm
##عمة
الثمانية
##قوا
وعضو
تسل
##ee
##قيد
نوم
عار
وتوجه
بالز
والتف
خلاص
يصعب
والاستفادة
لدراسة
يعيشون
تحكم
الأهمية
يتيح
البابا
والأربعة
نعمل
اللفظ
السبيعي
مسائل
يعرفون
##فاقات
الأنصار
المعتقلين
الولادة
تكنولوجيا
الدوام
أتمنى
البحريني
المتوا
عقوبات
الحملات
آر
تحديدا
##غلقة
تعقد
يرض
والتط
متقدمة
متوق
##ارتي
خمسين
سعي
كرد
والعربية
ومشروع
لعدة
اصدار
وافقت
بتف
وشر
والستون
مسئ
السما
السوداني
##قس
وند
والمعلومات
حلا
##ياها
لحزب
فقدان
جناح
وممثل
مدخل
الشعرية
##يتام
##ساندة
انس
بالات
شعبان
التوقعات
الدليل
تشعر
أوقات
##قاومة
اليونان
علاوة
##يرلندا
اعلام
##شرا
الحميد
المتنوعة
معمر
##وايات
دورية
ثقافية
##روعة
##ثيرا
الركن
أظهر
البطر
الانسحاب
الناج
##ضاعف
أشياء
التطبي
شارون
لإقامة
##ريطانيا
وفاته
700
بجائزة
العجز
ياسين
صياغة
##كنا
يحظى
التجار
آية
الرياح
الوجود
القدرات
##قاه
ونس
عمران
شهاب
الأمان
2017
قدمها
فإننا
الاتهامات
##هنئة
اولا
الساعات
##دعي
البعد
استشار
الجنسي
هاني
قصير
##سنال
لمنطقة
##قارنة
الاطلاع
علمي
##حاسب
أشارت
عمق
##رفت
ينتهي
حجة
##24
رحم
شعوب
نقلت
فاروق
ظلت
شهادات
تزويد
التلفزيونية
الأهم
انهيار
والابت
سال
المشاركون
ويؤكد
##صية
تكمن
الخت
ويقال
استضاف
يتميز
المطالبة
للبنان
برفع
يتابع
بارتفاع
ومجلس
تشار
دارفور
صيف
المخل
170
قضى
تمثيل
المادي
##ناقض
لمصر
المستع
وشعب
بطاقات
ويخ
للقضاء
##طارات
عراقي
الحكيم
العماد
المحدد
برقم
ابطال
مضيفه
عليهما
##اليه
بتشكيل
اطلع
##ادتها
أذ
سينما
للمجتمع
الدائمة
يخل
وللم
##نتظر
تنافس
الطبقة
##اخرة
الاستقبال
ويك
##جيرات
##ريجين
الرائدة
بمجرد
الصحابة
وجوده
الوزارات
تضر
فايز
شكلت
##باري
الذاكرة
المستهلكين
محاكمة
##بوت
##يرى
السابقين
جزر
تصب
روي
تنفذ
للمش
قاعد
ارتكب
تمنح
يثير
الميز
المراقبة
الغد
##ut
أحلام
رياضية
البعث
الغرض
دستور
مجالس
بالشكل
دى
المرء
الخرط
##كسون
القطرية
الخمسين
##عدات
##ساوية
للجمعية
الصيانة
المديرية
والشع
الصدارة
أسرع
##التها
الاختبارات
##لع
تبا
المساحة
##ائنا
ممثلي
وترت
الخلف
مساهم
بجوار
رزق
للتع
تام
تجاوزت
الأسط
فلان
الفقيد
والخاصة
الغالب
شهور
الرحلات
##كنة
لعملية
##ران
الإقليمي
لتد
الإشراف
بتوفير
##هه
المدرجة
##مات
بتنظيم
لمشيخة
ويشارك
وجهت
أعقاب
سقف
المحر
للنادي
السفينة
جرح
الجس
الثمان
وبالنسبة
والحكومة
##خرية
الزميل
الخيار
##لكات
الاصابة
##ضن
##88
مقبل
وني
بشير
كثافة
فوائد
الاكثر
أصاب
الراج
الزع
قرن
للبلاد
بالموا
الغير
نجاحا
واتهم
##نياه
استعراض
الجار
##قاض
انتقد
صاحبة
عباد
يسي
الحروب
##صود
اللات
فلو
فقر
تدعو
والنا
##اهة
##لفزيوني
تراجعت
القاسمي
زل
التأكد
سيطرة
بالعاصمة
والعلوم
الأردنية
حرك
والمشاركة
احتجاجا
فنان
الاجهزة
الجغرافي
والار
المحلات
##سكي
##كوزي
الجزائريين
##جزء
والغاز
رئا
الاستفتاء
آيت
جري
يمكنه
##ركم
مراعاة
استطاعت
##وعوية
##دال
كين
محور
للاستفادة
ثابتة
والدول
عالمي
نظير
##وريوس
##44
##ليفزيون
بالأس
جانبها
للعالم
وستكون
ستقام
مرتبط
التز
وجوب
متح
متحدث
بالسجن
المحاسبة
يفتح
ياس
طريقه
الهواتف
ودفع
##هادي
الليبية
##يسكو
نوعها
##ظرة
عرفات
متوسطة
##بادلة
##صبية
##اطب
##واتي
ركلة
للتعاون
##فسي
الجيدة
العادة
اوضح
الفراغ
النعم
يسهم
الإناث
والتقدير
الصغار
##اصلة
الترمذي
وضم
بام
لذ
والاستثمار
حلب
لتج
تهديد
اكتوبر
الدماغ
الاوضاع
الحرص
الاستراتيجي
وخم
لتصبح
##بز
##يسير
صيد
طبقات
قائلة
نظمت
نية
المنصر
ودخل
##قتنا
بوا
عملي
المعن
نات
كيلومترا
##برية
##سفة
المهام
المصاب
الإعداد
يبد
مونديال
جسم
##جهيزات
مطلقا
##ختم
البصري
##قبات
جند
##يدين
اليمنى
مايك
يشغل
يقتل
دفعت
المحامين
والوطن
كلينتون
باف
وتقوم
محدد
أصدق
##رتين
الغضب
وزيرا
لبل
المجموع
##خططات
هنري
سند
المهنة
الطائفية
مخل
##23
##فرع
بهما
##يلان
استثناء
الكتلة
##شال
عبدالوهاب
وحدث
فانه
مواطني
أرقام
معربا
##صدى
##احنات
##يوانية
وعبدالله
هدية
##اهم
والبحر
الائتلاف
الذكية
بجدة
##ابيا
وصفه
تعلي
يفرض
داني
##لفات
##وقين
كلهم
##يتك
إيمان
تصحيح
بوصف
مطالبة
الحاس
وكأنه
المسلمون
بخير
الأجنبي
الظاهر
تحدثت
##اريين
##كرين
ar
والبرامج
وارد
كانا
##وفت
الأهالي
##رمز
والكل
وعمر
لنفسه
وكتب
خد
تستضيف
الذرية
##ائمة
أرب
##wa
الاهداف
للانت
تثبت
شباك
بعرض
مثله
كرا
بكلية
منكم
اغت
للعب
دينية
##وفين
بالإن
آراء
وطب
غي
جسد
##خا
ولماذا
التصريحات
##سها
الزم
العادي
لمركز
صارت
علامات
اللام
التحليل
تدل
تفعل
الفردية
الصبا
مخاوف
محاضرة
الثروة
ملامح
##ددة
##ونج
الفلس
فبلغ
91
للتخ
أتى
لحين
الضحية
والدفاع
الثمن
وبخ
الغريب
##وسة
النجمة
ميس
الفندق
##غفر
النطاق
##ياتهم
##لكية
البطل
المجلة
فجأة
رواتب
وفيها
الأدبية
##لائها
مرد
وبحث
وتمنى
للكويت
##كيما
##يلاء
عندهم
لإجراء
مدافع
المتد
المحور
بثلاثة
تجار
1999
فريقا
الركاب
توقعات
قضائية
##حيط
الحرم
##مبياد
يقرب
##فيظ
ويلي
##أسم
وعاد
الاردن
فتحت
يكشف
جذب
##قاة
تغلب
وهد
والمقيمين
الما
مثال
الموعد
##قسم
##ورنيا
##ؤوس
الجامع
##حصائيات
إشراف
حط
تحفظ
بقيت
والآخر
بغض
##بتهم
الكروي
المتضر
##كاديمي
والتنسيق
استئناف
المسؤولون
الإجماع
إيقاف
المناسبات
والدراسات
وتشير
ينتج
##مأن
شرائح
##عارض
الانكليزي
لوقف
النش
بسيط
إقبال
برد
وسا
مهنة
النجا
الاشخاص
لكنهم
كريمة
وهن
لانها
بالذات
ويضم
بالغة
سلة
مرب
مقدمتها
مبكرا
للقانون
وعقد
المنظ
ردود
عطاء
غذ
جميعها
عرضه
التقاعد
كيلومتر
لمدينة
ناقش
وأصيب
ضخ
تشهدها
الخرطوم
##وزن
مسؤولة
هيكل
نسمع
النصوص
بحوالي
الإنفاق
والمتوسطة
##رائها
تسهيل
##صالح
الحادية
المعاهد
##ثرا
ووق
1989
أمثال
بوجه
درويش
الأث
بنى
نفسية
ودعت
بلوغ
المطروحة
حديقة
الصواريخ
الواس
يمثلون
##رائية
الحارثي
لحود
مشكلات
أكون
للنف
جدوى
الغز
خوف
وردت
شح
والاس
إدخال
تركيب
نبات
##لمه
آمال
وخالد
الكيان
سهلة
يصب
وثائق
##ئاب
شرع
أساليب
##تهية
وحث
للبرميل
الحلم
السيدات
والأح
السلمي
وإح
سعودية
أفاد
الموجهة
تور
##طنه
تطبي
بنقل
ومراكز
صادر
##33
أهله
##جلا
تدمير
اصابة
الحسابات
1988
تجاهل
والاتصالات
##نك
##موه
التحدي
المبادرات
منظمات
خض
ماك
احتلال
الإذاعة
المؤشرات
##لز
الآونة
##ياتي
العضوية
الأي
بوابة
أيا
اهتماما
الشقيقة
شريحة
وحقوق
ولعب
##ائري
##تازة
##ؤمن
اصل
يخضع
لنظام
اثنان
أيد
موارد
المهارات
##وفية
##عيب
الشفافية
عذ
التخلص
جسر
مسؤ
قابلة
وحذر
هبوط
##شارد
##خصيات
مؤكد
##انيات
وصوله
##زول
قبيلة
سوري
للنظام
سوا
##روبة
##خاء
الأغنية
راحة
المسائل
##if
الجماعي
أيمن
أبعد
أبدى
وزاد
الدعوى
أسبوعين
اعلى
الفرعية
رياضة
اليم
رأسم
موقعه
سول
لى
البديل
المحطات
##راش
المقال
لاس
العت
والمالية
##جددة
الكليات
بصدد
الأزمات
##داقية
##نيان
باحث
ماج
الآراء
شوي
يواصل
والتى
اطلق
twit
اجهزة
السكري
للجامعة
الناشئة
##معت
بتحقيق
لاعبو
##سرع
مطب
يصف
معرف
##عداء
##نيفة
تطالب
##لاميذ
##حواذ
##افظات
1982
لعلاج
الصحافيين
قبر
أحياء
هولندا
بعملية
القتلى
والجهات
كليات
##انيه
##طنا
وبهذا
الصناديق
##نتائج
##اليين
##ابيض
وتوجيه
##نائها
بإعادة
تدريج
والاجتماعي
سلطات
ويتوقع
الاحداث
ورش
بيانا
وتل
أخط
معالم
كد
##انين
أخرج
رحلات
للوطن
هدفين
الملايين
واز
سويسرا
تسهم
##نياهو
البطاقة
##ارتقاء
##وائف
المخالف
##ur
جبال
##فاقم
للمنطقة
التوقف
تعلن
##سيان
مصد
الأردني
الإش
##ئنا
القائمين
##يصال
عملهم
نقاش
متفرقة
##اقبة
1980
الضروري
المقابلة
ناديه
أنباء
علق
##رجمة
طلعت
لكافة
للاتصالات
##طرح
واهتمام
اعرف
مشروعا
والتخ
تحس
ينص
مناخ
النباتات
صحفية
الضرورية
وعا
أعظم
##ثنى
بمجلس
استش
ودون
رواد
انقطاع
شام
##شون
بضم
الجناح
العاج
يتولى
##رائق
ونائب
المذهب
انسحاب
تتحول
أسئلة
الحديدية
الوثيقة
وكن
110
اخيرا
الآباء
الخلق
عرضت
##رفي
والاط
##سبا
##ساهمة
وضعه
كنيسة
المعاملات
البدر
مصطلح
المخالفة
صواريخ
130
##رسل
توري
##وكة
##ؤهم
الشيخة
ولدي
المرشد
##ايض
للطلاب
تأثر
وشركات
##اسر
الانتخابي
##26
##فقت
##ذجا
وتطبيق
تمنع
محاكم
المكتبة
حكما
تمسك
ذهبت
التوظيف
بإنشاء
المحتمل
##وكالة
المول
الكورية
##رقابة
حلقات
زراعة
سمي
تطرح
الأدنى
##بادر
مفر
ويب
سنين
نيل
بتكلفة
##21
وفرنسا
والطالبات
للتعامل
##يكاني
##سيل
لعرض
سائر
بالسي
##شخاص
تقنيات
تحالف
النك
الشيطان
المصانع
كهرب
بالدولة
##يافة
وأعلنت
تنص
شرا
فعله
##اها
شرب
الميت
الاطراف
حياتها
##27
يهتم
##كرانيا
##غافورة
##وغان
##97
أسوأ
كارثة
الورشة
الغانم
صوتا
الكهربائي
النظافة
حلو
عملاء
أعمالها
بشيء
تبذل
أثبتت
##ماط
نوعه
##هرات
##سيمة
الراغبين
الربح
حدثني
ساركوزي
##على
أبها
أدخل
##وهات
اصلا
قاضي
معان
بعضا
##طنبول
بطولات
التسعين
فيني
##ياض
هامة
##رامكو
##فلح
إقام
ومحاولة
تضمنت
يهدد
يتعامل
متحف
##شدد
كيان
شهداء
سداد
الانتظار
المفروض
تتيح
واستمر
الجواب
أمه
الكائن
##سمة
بالآ
الذاتي
##فري
تأهل
ملابس
مفتوح
المي
افغانستان
##عباء
##ارئة
مزيدا
للمدينة
بمثل
برف
أخر
التأهيل
##ساسة
الانتخاب
السياسى
صغ
ونجح
تطورات
واحترام
##اصد
هنالك
مؤسس
والآن
محر
##وهة
نعيم
##لسي
وتقديره
منط
المنص
محاور
بسم
مظاهر
ولله
##الون
وبات
أخطاء
بلال
مرتبطة
النيران
وتوزع
المصرف
سمح
الانتقالية
##جميد
##بري
إعلامية
##يزا
واقتصاد
مصرية
##45
بنية
تفتيش
el
الدبلوماسي
العملة
المعيشية
الثنائي
امري
الاشتراكي
عزم
التنظيمية
الإنجاز
الاند
يظل
##شفي
موبا
الخيل
الهامة
دعما
الحش
##حتهم
مجل
يبت
والاهتمام
تتوقف
أشبه
قبله
ملفات
وتعمل
قدموا
السينمائي
مرافق
##48
تجنب
العسكرى
معناه
وردا
بغية
زينب
الإسكان
والهي
حجز
كاليف
الإيجابية
1986
اميركي
الصعود
اتخذت
##بون
المؤمن
الدستوري
فعال
يتمثل
الحبيب
منسوبي
youtube
سيناريو
يمنح
ترفع
منتدى
المنهج
الفحص
##96
التفاهم
##سارة
##يبا
##زلت
##un
##وكيو
واللاعب
لمنظمة
##لاسي
للقاء
معاملة
##98
الاث
##يسية
المطلق
صاروخ
ودية
المنزلية
الجرم
منوها
يستفيد
فالن
حيدر
##ذكارية
الحريات
سلمة
##وبيا
السيف
الصحفية
الارتقاء
شيع
انتح
شهدتها
يمكنها
##خان
ظن
هيا
التشكيلة
امكانية
الفيروس
ومنه
##قولة
يعزز
البيئي
تأخير
فقلت
لقائه
الاستر
الاعلامية
ارد
##رميم
##فظة
##od
موقعها
سيب
إثبات
الكات
يرون
مشاهدة
##95
##غاني
يسكن
##حصائية
##توك
المؤتمرات
لتحسين
التقني
مبروك
##رول
صيغة
نيكولا
آله
##ma
##قاسم
وكشفت
استهدفت
والمياه
##صرا
بلي
##احنة
السرية
الهندسية
##بيانات
تخفيف
يتكون
للسلام
ستقوم
اعتراف
ككل
##صلية
عايض
وتضمن
حملات
دقيق
راي
##يفاء
هدى
إسلامية
و8
الخاط
حياتنا
لافتة
البصرة
الدواء
sa
##28
تأسست
##لعاب
##حميد
##لمس
ماع
الأبناء
هذين
المؤرخ
مرضى
##بعوث
يتحول
القيادي
بمل
الإيطالية
العلامة
2018
طموح
الحلف
كاليفورنيا
##سمية
لاستخدام
إجازة
الصهيوني
دفعة
موف
الرزاق
##قلا
العبدالله
تخضع
ينبع
##ow
الابيض
بدرجة
حصر
##آآ
ويذكر
##خصية
جوان
ترفض
للحوار
ملتقى
ترخيص
شاهين
سماع
العشاء
رمز
الحزن
##عاملين
لكأس
طالبت
استعرض
ووصل
##ئنان
1948
أساسا
الكفاءة
تحديث
ناب
والمسلمين
الاسرة
يتع
##لماني
##شيء
البرد
رايس
##داولة
خلي
بداخل
المقب
المحقق
ريم
الحضاري
رائع
##ائى
تفتح
والخاص
جثة
ممد
الفلكي
مبكر
##ec
##ؤلات
غيرهم
مود
ومسلم
ويوجد
تعاقد
يقتصر
##واجبات
عزلة
مقبول
الجوار
مانع
تايل
صيانة
نسخ
##عوبة
لبنانية
الميدانية
العس
مدني
الإدارات
##فوظ
يسبق
والفنون
نتنياهو
##ضاح
##يفان
تصفيات
ويعود
وتبلغ
البلاغ
برك
السياح
لإنشاء
##ختار
##روى
لصح
وتطور
احداث
البدنية
المكسيك
نشط
الكندري
المواطنة
##وراني
قلبه
سقطت
بوم
والمنطقة
##قالات
مدين
والذ
الاقليمية
معارضة
الاحمر
بقول
##ظفين
تتمكن
إر
ومكان
قابل
نقله
البند
ويقدم
رأيه
قائم
خز
##دمان
يموت
الاموال
بحجم
حولي
مكانه
ذهبية
ضده
قار
تتكون
وقي
تقيم
اشتباكات
دائمة
راد
الجريدة
تشبه
والثلاث
الرصاص
جنسية
ونظام
ابنة
العشرات
والسب
عزي
كلنا
المطاف
نظيف
ومما
السع
تنتج
##اقية
##صدارات
##وبه
النعيمي
العقوبة
صر
الحضارة
##ملي
ربه
الظلم
زوار
وبالم
عبدالحميد
##ليني
بتج
بفوزه
##سرعة
وته
استضافة
سيارته
طاب
للمؤتمر
##طعمة
وأمن
##رون
تدرس
بمكة
الانتشار
##عومة
##لبس
ومجموعة
المتحف
سفينة
##وزان
##يبي
الصمت
##صاح
المقيمين
تنظر
وكر
##وانئ
##خار
لبرنامج
قف
التحض
مساحتها
اكتشفت
وتمكن
التقييم
نادر
حبان
الضخمة
ارباح
استجابة
اقترح
أعمار
بالنادي
##لمانيا
عنك
والتد
يزور
##قطة
##روبات
لجهة
بتوزيع
والحفاظ
##سيين
##وست
راك
الحجر
القراء
##اشية
كاس
ومج
##35
##ليقة
##أسه
شهريا
wat
##ودين
الأزرق
##خوان
ووسائل
والتاريخ
أبر
##حاولة
تفجير
وتلك
بأحد
##صادرة
للتأكد
هجر
بيتر
الجبال
الموازنة
التكلفة
مسند
##راجعين
##معيات
التعليمي
مسفر
احنا
يسقط
للتح
يقدمها
الخالدي
بروح
اميركا
الأعوام
المقات
هائلة
آفاق
الكار
أنثى
نماذج
##يلو
طاولة
##سنة
الفقراء
والتجارة
##ent
##sa
الشابة
الرحيم
ولذا
##ig
الريف
انسان
بوضوح
لمثل
زملائه
الابن
مناه
##وران
غسل
الأند
الامام
الوظيفي
الكبد
الترجمة
مسلحين
التكريم
إزاء
الحادثة
ينجح
ووج
ولها
حسبما
الهبوط
بجهود
ميلي
انواع
##ضباط
الإجمالي
الممثلة
القياسي
بورصة
حكام
المستدامة
السودانية
أجن
المنح
كح
المزارع
التوزيع
اسبانيا
نبي
##ارتين
جمعت
سيئة
تكليف
منير
الدعاء
##ودان
##وامر
وضرورة
الملت
المهد
وخدمات
للسهم
الغالي
##اعتين
المساء
الفكري
وتفعيل
الاعلامي
ليفربول
اتهام
للنفط
تعبير
##وضة
طريقها
يطلع
##لوا
##باني
##اتا
تقليص
تربية
ناجحة
الأغذية
عايز
##وعين
الجر
الوض
سرطان
للخروج
##نآ
البرج
##رامات
فيليب
والأربع
توجيهات
اليهودية
النوعية
تكشف
البقاع
النوادي
فساد
التعويض
الوفاة
الأميرة
نصوص
بأكمل
التسا
مطلوب
##قيف
##مولة
زكي
شغ
تهتم
فأن
للبنات
العصور
رحيل
##جمعة
الرضا
أمة
الفشل
فقدت
واللي
الرئاسي
إلخ
الفائت
بون
نافع
والصحة
البلديات
فوزا
فلماذا
مجتمعنا
يديه
المعاصر
التعاونية
##حيين
فيهما
الانضمام
المسافرين
for
##ابتن
زيت
أمي
رموز
الأرضية
كويكب
شعبي
##77
##انها
بيته
البقرة
تداعيات
سألت
ومعالي
1979
حصد
##جرت
##غانية
تصاعد
والتقنية
باج
الوظيفة
الدب
المراه
تدريجيا
الجندي
نفط
##تيبه
ورؤساء
الممن
##لفه
شاشة
بالجامعة
قديم
والياب
خرو
توماس
غريبة
##كيلي
التطبيق
للتحقيق
وابت
الرامية
بكافة
##شوف
الصعوبات
تقديرا
السنية
بأسعار
والعلم
##بيوتر
وطل
أوجه
وأخرجه
نفذت
وكبار
##قاتي
والنساء
بإطلاق
الكثيرين
بسعر
##غراض
الشيعة
ازد
الإنجازات
الجوال
إلقاء
ثلث
المنع
مواطنين
##رائه
مذهب
العامين
فراغ
أكمل
وبق
لاستكمال
للبت
أشعر
الكيميائية
##رقب
رائد
لبناني
إضاف
سيقوم
بالاعت
التكن
##خات
ايطاليا
1981
مستشفيات
الجماه
المتواصل
الاستغ
شفت
الخبير
الاختبار
مندوب
للتدريب
تهدد
للنا
وتغ
##شرع
انتقلت
##اعب
حنان
واشارت
وائل
العماني
السامية
بحقوق
الأت
مكاسب
وقطاع
أفادت
##حوذ
خطرا
وغال
تورط
##رجو
أركان
بتوجيه
##شاد
##رحيل
أعت
بديل
تجاري
فيكون
وحي
##um
للعلاج
يربط
وحضور
الغزو
إليك
وعب
##بطت
بثلاث
حرس
1984
توقيف
إنجلترا
المعاقين
مطلعة
بالدمام
عرضة
##ويش
الزاوية
##بطية
تما
الفات
السحب
لاختيار
الاستعانة
ليد
##سيه
إسرائيلي
الروضة
##روقة
الغالية
لاح
إنقاذ
للولايات
نال
الأصلي
والسلامة
مقال
للسوق
وطرق
##ليص
أقوال
أجرى
ظلم
##ذيع
والصين
الأدلة
أولويات
العميل
امتلاك
##وطنات
بالمح
الأوقاف
والثالث
##اريف
##شيات
لزيارة
الجماعية
رآ
التصدي
أهلها
يدرس
الإقامة
إمارات
اقرار
طوكيو
استقطاب
مسمى
سياحية
##احف
بغرض
الفلاح
وسبق
العاط
##فاح
لجامعة
اللغات
##ساك
المتطورة
##رغم
الحساب
السعي
نيو
##طوان
##طلاقا
نتمنى
لدوري
المونديال
نحت
يمتد
الخالد
الجمل
قذ
فخر
المصنع
الموحد
أبحاث
الضعف
إنسانية
نأمل
الصفحة
الرفاع
الأجيال
حملت
يبر
ناهيك
المنطق
##عراض
الجذ
مزارع
لحم
لكان
زكريا
##رتبة
زميله
اغسطس
##هز
##راوية
الاحتراف
أكاديمية
##هلها
الموج
النظرية
ضيق
سيادة
المفوضية
البضائع
كوس
بالفوز
##سيطة
فواز
##جرات
الإبل
مذكر
المناهج
عينه
##eb
الاولمبية
راض
##جلب
العظام
دينارا
سائ
عادية
##عياد
يسلم
وكت
##سامة
نيج
متد
مسبقا
الباحثون
الأهلى
##عاما
نقدية
##93
كيم
تحديات
##سيوية
الافت
الاساسي
جعله
البرتغال
وقرر
النيابي
ماجه
بايرن
التفاعل
##46
تطلق
كتابا
فنيا
مديرا
الدولى
قصص
لعقد
مخر
بكرة
بتطوير
حققه
##واري
المنتدب
البراك
##رابطة
##غرة
##باقي
الحيوي
المتك
مهندس
المنصرم
شوط
الياس
والخليج
شجرة
طبع
##ألف
فعالية
##قنا
ببر
السلبي
شاكر
##نائس
ولاعب
المواهب
دان
##فقات
ريتشارد
لكنني
استطلاع
يتردد
##رامية
عنف
##طرق
القصيدة
المتبقية
##تكم
كع
الثان
الأغلبية
##وتو
أطول
المحليين
##راعي
##يلين
نشرته
وعالم
القرني
العفو
يتكلم
إنا
يتفق
للموسم
الغذائي
تدهور
حينئذ
##متاع
الغناء
ربك
نعت
استنادا
سنن
وارتفع
وتأهيل
يتغير
الأصلية
مسح
بيتك
وجهها
نووية
جادة
بطرس
التراثية
##صون
المنتشرة
المسافة
ارتكاب
النيج
فوزي
تترك
المتف
##ass
واعلن
التعرض
العثمانية
التسل
##بحاث
بأسلوب
لسي
الشيب
مسقط
للبنك
التغذية
اعتراض
إسقاط
تتولى
وفاء
استخدمت
تغطي
إسرائيلية
المطوع
##ثيق
##منح
البراد
شوف
هزيمة
##كوا
المهندسين
لهيئة
نفت
بتسجيل
تنفيذه
بإجراء
لرو
والديم
اقليم
يتناسب
العشرة
الدوليين
وفرض
آيات
قانوني
والمراكز
منتخبات
العربى
ضيوف
عجلة
1500
تشكيلة
بالتالي
وقتا
النظامية
الجملة
##كشاف
##نيابة
سيطر
ويليام
زمنية
watch
كوب
##اربعة
توم
الشرط
مواسم
الليبر
ماف
النهر
الثوار
الأدبي
إدارات
جغ
اليسرى
كالم
الباكستاني
بالمشاركة
منصة
ازمة
##تيلا
الثدي
##امو
##ارن
صفحات
الممل
##جتهد
رين
الصداقة
تدفق
متوقعا
وخارجها
بتطبيق
السوفي
الطلبات
الأزواج
##فكار
تسويق
تنسيق
##ئى
##اجرة
خطف
يمكننا
برب
يرتبط
نحتاج
رجع
كلامه
دعوى
جلب
الهزيمة
للدراسات
حاض
المند
انخفضت
ألي
##جاجية
وسام
والجن
أجنبية
##iv
##ولان
160
تذهب
قنا
تقريرا
##36
تحل
##تس
الوادي
الآلية
##ثا
المؤكد
المناصب
##راهية
التوصيات
التعديل
حوالى
النقص
##وقفت
بشرط
بالقوة
##قرارات
خلافا
يوضح
الأشغال
الحز
لدور
العموم
قم
بهد
بإدارة
لهن
تظل
مخالفات
وإس
محذ
المتحد
الحاصل
لبيع
##كيمة
المبادئ
نهار
الكثيرة
اغلب
دلال
بالتص
مخاط
لوحات
مباراته
تسببت
الدراما
تأييد
ينقل
ماله
اسط
الاستهلاك
مشا
شريط
عندك
الإجابة
للكتاب
عاب
المحاكمة
كليا
حقل
مقام
##سيب
الخريجين
انتي
سلب
فبعد
##يسون
فاعل
العوضي
ويؤ
##رافقه
باي
تفس
##سعيد
كأنه
دنيا
المان
انضمام
الأنواع
أرجاء
##ولمة
مساعدات
مشيدا
الأميركيين
لاتحاد
ليا
للبيئة
التبادل
##ائفي
الأسلوب
والمواطن
طاقم
الكتر
الشحن
1987
مستقل
مريض
والاج
وروى
بعل
الاخوان
العمراني
الأبطال
الاشتراك
التهديد
الحية
بالضرورة
براون
التجديد
الضرر
أمامه
الأنا
القصير
التمه
##سابق
1985
بسب
الإغ
ينفذ
##بني
للحياة
شىء
##عطاء
##يقاع
خلايا
##فذة
الكونغرس
رونالدو
##تاحة
والاز
خيارات
تزو
##حتي
مصن
يفوق
يحرص
للدور
وتعرض
ميسي
والمنا
##ارعين
نموذجا
##رزاق
الحسيني
##ik
##اربين
شدة
شفيق
##لزمات
السجناء
##آة
الوارد
##كشف
##جهز
##هيار
##صابته
العباس
المشاركات
re
##دياد
تأكد
مؤس
دوليا
التكاليف
تمي
ترتبط
##47
الإب
قيس
##56
والطيران
المعنيين
##قيها
مديري
المجد
وقالوا
لإنتاج
أخت
اصيب
##كاس
تسمع
بالمخ
المدربين
لادن
الأستر
نارية
للتأمين
طموحات
تزوج
بحوز
of
يغير
وبحضور
وماذا
##ويف
أساسيا
ليتم
اتفاقيات
محلات
والعلاقات
والاخت
استهدف
جيب
اجتماعه
غالب
الأسماك
عواد
المطاعم
وفت
##زعة
حصيلة
السادات
وسبل
وجودها
المحاضرات
تقي
##قاعدة
أعراض
جامعات
فرا
##آم
الفاس
متتالية
ووقف
زاوية
##حرر
السلمية
والنس
عبدالمجيد
##فالية
##ورانيوم
وتراجع
لأصحاب
والفنية
ميزان
المشا
الجراح
إنني
للمركز
القليل
بمرض
استراليا
فعند
مغادرة
هذي
أعض
معامل
محدود
الحارث
الشهادات
##ضاءة
لير
مدنية
الوقاية
##وابت
ريف
##نيش
وايضا
الترويج
والبل
تبعد
صدارة
##37
يسر
الدموية
المعدل
قنبلة
الشرع
القرض
اكدت
وبإ
الإله
والخب
النفوس
واستطاع
ترتفع
المعتمد
الجدل
##فاقا
الجدار
لمت
ممل
##يداع
الالعاب
كولوم
وانته
العبارة
##كراد
باللقب
##افى
##حرار
كبد
##فلة
##سمت
بالنظر
المخاوف
يخط
##رائط
يشرف
أسفر
المبذ
وأحد
كتبه
الترفيهية
توعية
لاعت
##جاوزات
##تخاب
صغار
عقيل
لخوض
لتأمين
##la
الوظيفية
كير
ساحل
##شم
##موض
ره
الامتحانات
##اندي
التت
جواب
وفض
الشباك
ثماني
وبخاصة
المعارك
جهدا
مكونات
لإطلاق
والشر
الخليل
نظيفة
مفاجأة
عطية
توازن
##كله
الدماء
1973
وقطع
والماء
##زيج
شقيقه
وإصابة
تفاعل
والرا
حادثة
الحيوان
لمؤسسة
ودع
طعم
##كاك
##راثية
طور
بيس
المركبة
##وافز
ركن
إنجازات
فرحان
##فاجأ
الأهل
شكوى
وحاول
شراكة
##اديا
بنود
منهج
المعاصرة
الطفولة
##ازن
##شآت
الاستجابة
الناتجة
دراسته
تصدير
ماليزيا
عرضها
الاداء
خارطة
النض
الرياضيات
يميز
##لاص
##اوى
يعط
جدية
##32
أوت
والعق
##قصاء
قصف
منازلهم
المواصفات
الافضل
أميركية
البرم
النسخ
تألق
التركيبة
##قطاعات
يصر
التهاني
النشاطات
الاخر
علاق
الملحق
أعطى
النظم
للصحافيين
تطلعات
للمحافظة
##سلامي
معاذ
وقدمت
للوقوف
كالت
نادى
##انات
موقفه
تتوقع
وإنشاء
إرهابية
تتغير
##قته
الاسد
للأوراق
أعلام
المساواة
حازم
يبذل
للأسر
البطريرك
بتخ
لأداء
الطابع
مونت
برنامجا
لزم
##انو
فشلت
المسجل
رخصة
الناجحة
أحوال
بدقة
بفر
أيوب
##درك
طعام
شل
ولكننا
التعليق
الاستهلا
##زئة
##تقي
تعنى
تصنيع
تشري
التهم
عنيزة
المليون
قادمة
برون
الصومال
والثقاف
اندلاع
1975
تهريب
كرك
فولو
جنا
لآخر
اللاتينية
محق
للمباراة
كلف
##كلية
وتطرق
تفاهم
المرزوق
##ضحت
المشرفة
بروك
##مائهم
سرق
زب
انحاء
##تمكن
المعدة
يستطع
لبر
##أنف
تزداد
ومعرفة
ألوان
الجيزة
ولابد
وبأ
##فقه
مستحقات
##قدرات
تضاف
سجله
مستواه
حاجز
جوزيه
الخلل
إنك
الحربية
1970
اللط
بمساعدة
أولياء
##رافة
المرتفعة
الحركات
المظ
يجلس
##يحة
والإسلامية
##ومان
##رحة
البوس
والمقا
إصابات
بمتابعة
فاج
الأحاديث
##رائهم
##وافرة
##طوي
الألوان
##غلقت
الشمر
##جليزي
وصناعة
الرمض
##وقا
تعال
تتناول
##دائي
الحن
بنشر
البكال
وعشرون
الفلب
المحبة
معاوية
الألف
والمناطق
##يزال
مبرر
حزن
إرادة
التعلم
##وفه
وتساءل
أبوال
يستضيف
جوه
أسفرت
مواجهات
##38
تعطيل
ابدا
القمح
ليسوا
تشخيص
السنن
تشهده
##ربات
المرحوم
زرع
غام
النفطي
##اديو
التفسير
الموسيقية
##حوصات
ستان
آمنة
تنس
أفر
be
بمستشفى
##57
الصليب
الواسعة
التعب
الزائر
يصنع
الفيز
محرم
أصغر
##واطئ
##وقية
مرورا
لاتخاذ
رفيع
##رقاء
خلافات
شد
الدكتوراه
والعشرون
اسواق
توصيات
عزل
##راعية
##يديا
هيكلة
ساد
أدوار
جوار
المرش
ستار
الجي
عقبة
يستهدف
بالدور
تتحمل
الزيارات
تتجه
##مدادات
اصلاح
مخصصة
ومنطقة
الزوجية
لاخت
عبوة
يحملون
مادية
التلف
للشرطة
لعبت
السويسري
شج
مقومات
بعقد
نشاطات
الإنتاجية
أنور
المقصود
أصدقاء
##ويته
انطلق
تناولت
استجواب
عطا
اعتقل
##سبان
##تية
درب
مساحات
بتد
ايمان
twitter
##كيا
سيط
##قبض
مجهول
للتربية
طابع
نقلة
المواصلات
الغال
##وردة
المنافسات
مذه
##روسة
قراء
##ضامن
##رجح
##لقاء
اليا
بتسليم
للعديد
##رفا
اتصل
تعلق
وضمان
الحمدلله
الفعلية
والمتم
المفر
أجاب
المعالجة
المجتمعية
مكثفة
وأحيانا
يفقد
للبيع
تميم
طلبا
تحركات
وخل
تعليمات
النخيل
بيك
الكلاسي
المنتهية
##ددها
والبيئة
الثلث
##66
نشأ
يضرب
المصن
##لاند
##ردن
مصانع
سئل
أرضية
الاسلحة
##اقين
وخرج
استبدال
ألق
ونفى
ريد
نفي
المحسن
والكهرباء
تجن
والاعلام
مواضيع
حكومي
العبيد
الأنصاري
حضره
ووجود
##94
##وود
الريح
##34
ضعيفة
##وريات
وجنوب
داخلي
وتهدف
أليس
قوائم
الآداب
الفارس
فرنسي
##اتذة
البلجي
عربيا
##شعر
الجمارك
لأنني
##ib
سنوي
بيده
السري
الإنت
صاحبه
##ريفة
ينس
##فيري
الصق
الصفقات
بالفر
##هديد
##واحد
بالانت
ويسعى
يحتمل
##اميم
الاستجواب
خذ
الشمسية
المخصص
##جبه
##بدا
عاشور
الصلي
للإعلام
مسلحة
نداء
يضيف
الفوائد
استيعاب
##رائد
سفارة
وقطر
##هية
والدها
والسعودية
مشددة
كارلوس
توليه
النقيب
##هورة
##سيقى
الآخرة
حادة
واث
والوفد
ترجمته
شيبة
الهدوء
اصدر
كرو
ورعاية
فريدة
كهرباء
ويشير
الرجوع
تعليمية
القطاعين
بمصر
موضحة
ومسا
والبط
##شتراك
##oc
##يي
اجتماعها
للامم
والمث
المرسوم
الاكتتاب
وترتيبه
حنا
حريق
والعب
لخط
##منع
وتحمل
خالص
##اتور
أنفسنا
##هوض
##بدل
المفق
المطلب
الأدوار
هدم
أوسع
##اقه
منص
##بياء
##رجاع
##92
طرحت
والهيئات
بدليل
التهاب
تطرق
1978
ذاكرة
معاهدة
الاداري
##جبت
والشرق
##حيى
نهج
السالمية
##ديما
1983
إثارة
مبادرات
والفن
حضرت
متطورة
اللحوم
دش
الموحدة
##يرمو
عموم
محاربة
تقليل
ومنا
متكامل
شئ
عدل
##بلوم
التفوق
##لمة
والمحافظة
وكأنها
##برام
مناصب
الرئيسة
سعيدة
اط
وتناول
بيش
وبهذه
يتراوح
دوريات
ممثلين
تعتزم
ارتك
الشاشة
أيلول
محامي
محفوظ
مقرا
مواعيد
بوقف
##شاركت
الأسرى
بكلمة
الفاعل
وأفادت
محلة
ملكية
عايش
350
##ؤولية
##ائعات
وسأ
الفاض
المنكر
وعلا
لجهود
يأمل
اليومين
سلا
##91
الكفاءات
ينفع
ووز
##احبة
الإعاقة
ويبقى
والحي
##غات
أيار
للسنة
##صن
بود
##ضرار
المنظم
مجمو
ورعا
روز
بتحديد
انطلاقة
وتأثير
حش
تأمل
يخالف
لحمد
خدماتها
فينا
شاف
##بيك
تمديد
معظمها
##كاسات
الخدم
للمناطق
##زمه
pr
##راقب
المعاناة
النهوض
اجتماعي
##فعا
المواجهات
القطيف
##حادث
بحل
أخيه
##ائلين
داخ
الكربون
المسح
أنهما
##اهية
##رجاء
ناجي
الأخذ
تفهم
ترغب
##عيا
القادمين
الاستثماري
بالعديد
إغ
الحدودية
وتستمر
##أسها
الانح
الموصل
أحاديث
يحتل
أطباء
ذمة
الاحتجاجات
السيئة
##برع
##هضة
##يلها
##ينها
##ينز
الزبير
والعالمية
يصيب
خلل
تهمة
##بيرة
معلم
الثوري
النامية
العزاء
المربع
##قطت
نمط
خصص
المتس
##روا
المؤهل
بطريق
نوري
##ارعة
المضم
ويج
والحمد
##رمون
مري
باسمه
مزد
إحياء
قاض
المفاهيم
وقفة
وخدمة
يختار
السبيل
للاعت
إيم
زيدان
والجد
##اذبة
الصحافي
بإشراف
ويص
قدرته
الطلابية
بامت
##روكيما
أوساط
المراقبين
##جيكا
المستجدات
ووص
الملاحظات
حظي
حكاية
##ليح
##جماع
تاريخها
صعوبات
##كنه
والأم
##خور
بالتح
الدورية
سليمة
موبايلي
تار
العيسى
بالتعادل
العالمين
والبي
الميناء
الدا
نقوم
اعتقلت
وختم
الفعلي
##ماش
ممدوح
المفتوح
مصاب
صادرات
##شارع
يرتفع
##عيون
بدراسة
المكاف
##ادتنا
الوجوه
دبليو
الإسبانية
ahm
خطير
علشان
اتهامات
نزع
الحمود
جاي
طيار
##كرتير
##خذة
الانتباه
الأرز
##يانا
ينطلق
##يلا
وجرح
الثقيلة
المالك
ويعتقد
تحصيل
سرعان
المقدس
ضحية
صناعية
##نتوس
وليام
الظهور
مطعم
##وسا
الأجل
##ظهور
بعدة
مضاعفة
##رابي
##راخ
##اور
##ذنب
دن
##شيرة
اختبارات
احيانا
استفاد
خليجي
##أه
لصحيفة
وبالرغم
عاملا
##وجي
فون
السلف
##يقا
##كتل
واختتم
وروسيا
ويستمر
تخطيط
الاجنبية
بصوت
1976
وسلامة
يقر
مفاهيم
سنغافورة
آخرها
قياسية
حمص
جيت
فقالت
بالمعروف
الالمانية
مكافأة
المتعلق
1974
ساعتين
المسلحين
نجل
الأمثل
القياس
قائما
المئات
##ذهان
توقفت
المحدودة
كريستيان
مخالف
موزعة
العون
الأبواب
العنصر
ازداد
##راحل
التغييرات
والاح
مؤهل
##فلات
اثبت
ويهدف
فست
ومعه
لأبي
العقبات
الادعاء
للاقتصاد
##اعم
وانتقد
فعلت
أحزاب
ودم
امنية
سنتيم
##فليقة
العنا
قروض
النظرة
الورقة
أحرز
الاستشارية
ly
##وليد
بوست
الفتوى
الانشطة
الجدول
لسنوات
##ابها
واوضحت
للمطالبة
ياخي
وتصل
المتقاعد
عظيمة
ملاعب
منطلق
للمخ
الاحتياط
المنصور
فاطمه
##حرس
والنقل
اليورانيوم
عائلته
##54
ووقع
الهادفة
الوف
ومنح
##ينى
باهتمام
الانجاز
يومية
لرئاسة
تعديلات
ونص
يشترط
بدبي
الأدوات
##فردات
شين
التسهيلات
##واك
العملاقة
قري
##مرض
مجد
منحت
دعمه
رياضي
صالحة
تحقيقا
##فتتح
القضائي
عقول
##يسور
وحفظ
##وازات
وتحويل
بعمليات
أسفل
الدوريات
اقتصاديا
عمري
والاقتصادي
##سيج
نوره
الكثيرون
يتسبب
واستمرار
بكامل
جهودها
القياسية
##جتهاد
بالمؤ
واحمد
المستفيدين
بأمر
نادرة
دورته
الماجستير
##op
الانجازات
لدخول
محضر
ظهرا
استقباله
المتوقعة
يشاهد
خريطة
جوال
حسان
الجبيل
هدفه
دمج
##نيم
يقدمه
##58
القيادية
الكس
المزارعين
فارق
الفرج
مبكرة
والمف
لسل
أحس
هندسة
عنيفة
##عضو
##فلسطينيين
حددت
بوف
ببط
المهتم
تهذيب
كمان
يتطلع
تعيد
العقلية
لحظات
المقامة
##لائل
كبر
نسعى
##th
الفروع
جواد
جهتها
استشهد
النخبة
رأسهم
الطاولة
سيرة
تاب
الجسر
##روانية
ارسال
راتب
ومستقبل
حجاج
البشير
رفح
حمادة
نظري
مداخل
سباقات
تركت
محلي
وجامعة
ونتيجة
واتخاذ
قادرا
الحالى
##قلية
المهن
##سنى
هدا
خبير
التحريات
اشارة
ومقر
التغيرات
بديلا
السوقية
الطيار
المتداولة
استدعاء
موحد
##عته
عكا
يسعد
عيش
##ادو
المحمول
والمفت
##وسيا
حاجه
الحرف
##وثيق
معم
الانتماء
منخفضة
البلوي
##ذاهب
غلط
##ائلية
ذها
تصنع
المختصين
##فيش
##مريكا
الختام
الظن
##طمئنان
وترتفع
عطلة
قرأت
يملكون
مظلة
الرواتب
السبل
ترجع
السيناريو
التا
يتخ
التشغيلية
شعرية
سكر
الكافي
المتمثلة
عبدالسلام
مؤكدين
داي
سمعة
طرحها
بوع
تون
التقويم
وحض
سرور
بكسر
توضح
معاني
التعاملات
نقط
استقالة
التوقيت
وشكل
ليبر
اللسان
لفر
يهد
المتمردين
بوب
صمت
##ولته
والمشاريع
جونز
##كول
##جزة
النرويج
وجب
اير
الحجة
للنظر
القدير
دبلوماسي
الجوهر
كوت
الوسطي
الانقسام
##اهما
مواجه
##ov
بضعة
تعتقد
##هانة
لتطبيق
##قادر
المواطنون
والحض
دماء
الكرام
تنشر
وإعداد
السط
##ادمة
لتم
جراح
المفهوم
وفدا
دوائر
الشديدة
الفضائيات
الدقيق
المتزايد
ينطبق
مارتن
نتج
زعم
##ئته
ولكل
أمره
ضمت
وقوة
السيادة
وأعمال
بتوقيت
اكتسب
##غنية
الامتحان
دلالة
يمين
حركات
المباركة
صفير
والاص
المما
كاد
التنوع
بلاغا
نصرالله
الأولمبي
مكانا
فعليا
مجانا
الاحتفاظ
التمو
##ئتين
رفضه
الابد
##نسية
##bc
بدفع
دوام
والتواصل
تطبيقها
الإفراج
بوتفليقة
الترشيح
##ضحة
طالبة
العثماني
##ذكير
تفا
رده
الترشح
قبلها
شحن
##زما
##زيل
الأرجنتين
جوزيف
الجسد
##مثلا
التلوث
القاعة
استبعاد
الاقتراح
والعودة
الإمبراطورية
ساخ
is
الأخلاق
تحرص
مازن
الإيجابي
تكتب
المحترف
احتفالات
وفريق
##يدون
واستعرض
##ولها
قدرت
كثيرون
##ناط
بالمقارنة
الوفاق
انقلاب
##داس
الطقس
ضمنها
يأكل
اكتمال
العرقي
فقام
يركز
##ساع
وزوجته
قلعة
##هيد
لسب
المضي
الربط
والسياحة
الأثرية
النهج
بدولة
أخي
##ؤى
تشي
ووجد
سيدات
شاركوا
أسود
صعبا
ونظرا
فعالة
أراض
##ديف
وطالبت
لتمويل
1962
فيجب
الضمير
وغالبا
تراكم
تكلم
يزداد
والقوانين
قياسي
الموقوف
اعد
والرس
##يجان
موجهة
فط
وإما
ديون
قمت
تتوفر
العسكريين
قتيلا
##صارى
##بور
##دري
والدته
كمن
اسا
وشكر
البسيطة
فتحي
سلطنة
##ماعيلي
ملاحظة
والطاقة
المسرحي
يعا
تتعامل
تمييز
##ولار
امني
الايجابية
فصول
لخادم
الجوه
فيس
بلادهم
والإس
بالاتحاد
زر
غري
معارك
##يثم
تثير
السند
الثل
سنه
بيضاء
جنيها
##التهم
##روسوفت
##ضعة
يجتمع
ينتقل
##قلات
الامني
الاستطلاع
##هض
تفض
دوم
تسجل
للسلطة
فرحة
مشغ
وغيرهما
جراحة
بإح
سلبي
القصص
للفترة
والمج
الجهني
المتجددة
الاشراف
الفرنسيين
والتخطيط
الاكبر
الخيارات
اللحظ
أدلة
بشرية
صام
الكندي
مرارا
عظم
القم
اموال
حشد
الارتباط
##روفات
الحمام
الموه
للتق
##تني
الكاثولي
ثالثة
للدكتور
لتسهيل
والمواد
العبا
الدفاعية
المولى
إحداث
الاتفاقيات
الرقمية
ويشت
والآثار
##and
أهد
بالحق
ذن
وأمام
والأعمال
اعتبرت
##قرآن
##وانا
بعب
السهل
بوتين
عايد
##ابته
اللاتي
##روضا
##قطب
الطرح
الأوقات
الدفعة
تشلسي
يوجه
تحقيقات
الأك
القصف
يلا
القلعة
ممكنة
الجالية
ونب
وجمال
يرحم
المعدات
الناشئين
ملاك
رقابة
لصناعة
العذ
المتكررة
سيؤدي
والالتزام
والسنة
أسلم
يتصل
عبدالح
تمكين
الاشتباكات
يصير
يناقش
وصفها
##ضيحة
وقررت
##طفي
والتعامل
الصيفي
التميم
##راي
ممارسات
المتخصصين
وتدريب
عالي
المبكرة
زهير
##ثف
الوهاب
##كايات
أنتم
##وازنة
##اضرين
الكيما
حاد
أدري
نتائجها
لأبناء
##87
##31
لاقت
المنس
حار
##سمي
العنوان
##كييف
الخيال
الخطيرة
تطبق
للجمهور
وكانوا
##يقظ
مسؤولو
يقطع
تشرف
فنادق
العملات
المعدنية
وتعليم
الروماني
محام
الشرب
الفقيه
مركبة
##فها
اليونانية
الخر
##لزم
##og
تحريك
والطرق
الإي
وأعتقد
ماهر
الامانة
بأول
##حقاقات
1960
وتيرة
المرجح
أسعد
بقتل
##ظفي
جماعات
مشواره
##3ه
رغبته
فضاء
عيان
عسيري
القهوة
##29
والشرطة
وحكم
الجلسات
المجه
أنجز
امتحان
##ضه
حفاظ
والشؤون
الجري
تحط
يسهل
المبذولة
لواء
الأصدقاء
للمؤسسة
##دوا
تقتصر
المجمعة
الاحتفالات
باقت
المسجلة
مفتاح
أصحابها
المعارف
يضاف
الضابط
تداولات
وتو
التواجد
وأسر
التيارات
تلف
والبناء
الهادي
السائدة
باح
##شغال
##ry
مسابقات
النواحي
برنامجها
تتقدم
مشاركتها
اعطاء
##هاي
##تيه
الصبح
ننسى
##يسا
الأديان
تحققت
تؤمن
آلام
خلفا
التشريعي
مثيرة
حرصا
ألقت
الهدايا
##ائبة
وإقامة
##ii
شيكا
ببناء
الرائعة
التشريعات
يكمن
والسبب
استهداف
ضمير
يستعد
##جور
##روجين
الرحم
تعزز
طوله
حداد
التحضير
لتنمية
الشبابية
تشيل
##طراب
التراب
الأقسام
للمواطن
نتحدث
##قاوي
الليث
اقيمت
يدعي
العال
وزارات
بارز
مكعب
القبل
ترسيخ
بالدرجة
ترض
900
جمعان
لهؤلاء
يوافق
التوحيد
المنصوري
اولى
تامة
نغ
تقضي
ويتضمن
وينتظر
صلاحيات
##سبه
لمنتخب
والتكنولوجيا
جعلها
والدعم
بالام
يستقبل
حرا
##ماسك
الاتحادات
شاطئ
التنفس
خالية
بلديات
صراحة
النبى
الطرقات
منسق
للجد
سابك
اضافية
فاش
ببطولة
وأمر
قند
قضت
الثابتة
الأطلسي
سافر
الولد
تحقيقه
##واكه
الخبز
حقوقهم
المتعاملين
لإنهاء
##روفا
المتبعة
الشقيقين
الاشارة
انخفاضا
البث
المساندة
##خراط
وعقب
حبيبي
المساكن
نوبل
المحال
##قاطعات
##ونى
##براطور
معبر
ألقاها
##يدز
تنته
##طرد
الاستعدادات
##حضر
1977
واليابان
الكافية
للمساعدة
يصلح
البنزين
موحدة
1972
##86
وأبدى
الزور
يقرر
وظل
##عهم
ملاب
##4ه
إلينا
##ربيا
اعتمدت
##ائفية
الولاء
المهاجرين
ويقع
العظيمة
لوي
تجرى
استخدامه
##دلة
أمله
كذ
الانخفاض
وانتهت
##لازمة
##ئم
حكومته
قدمتها
الاستحقاق
الملح
ليم
بدخول
بمؤ
العري
أبنائه
إنش
الثلاثي
اختي
مطلب
ورحمة
الأرجنتيني
##نازير
##براني
كفاية
وفقد
كإ
##ضيوف
##يجي
##فعات
يلجأ
يدر
المهرجانات
الاحتياطي
وسأل
الحذر
الفلسفة
لتلبية
لأعمال
##سياسة
متخ
بمتوسط
يتحرك
يجيب
الحاكمة
ناسفة
لشركات
القاض
ومشاريع
والفكر
##تمرا
عاصم
والقطاع
تقود
النمسا
ولدى
لشرطة
##وون
حكمه
##غذية
مخال
الثلاثين
##200
وبريطانيا
يكاد
آلة
أوبك
أسط
مضيفة
أعمالهم
أربعين
يصدق
المعاملة
برم
الضح
الشيعي
الاطار
##كاتف
الأمام
إمكان
واصفا
والبعض
وصار
المدعي
رائدة
##عاج
مدي
البير
يتن
الاستئناف
عكار
للتعرف
رأت
##روفيسور
مناحي
فله
الآتي
والدعوة
تنتشر
الدقائق
الطفلة
الجنسيات
##فزاز
##ارتهم
##ونيات
##ترات
وبالف
الملكة
للدخول
مسجلا
وثلاثة
بنوك
##كتيريا
##فورد
القصوى
##ula
اقتحام
1971
نائبه
الفصائل
البارد
للعراق
زيارات
والفض
اللوحات
الأعراض
شقة
سكا
نيجيريا
طائفة
##هدفة
القبر
حزبيا
راجع
زعماء
الثانوي
منظم
شركاء
أداة
ترشح
للعودة
يحد
تفكير
أرضه
إبداع
النية
ستس
ينعكس
الاضطرابات
الفيل
حالته
نشأت
النجار
حاسمة
لتلقي
سيخ
يعتقدون
الرائع
مسؤولا
يضر
##وارب
برفقة
ديك
مكن
بقانون
خضر
رائحة
المثقفين
ويز
تاج
لإح
مديريات
الفقرة
تصاد
##ud
ww
اختراق
سوس
شديدا
وبقي
والمملكة
##توكول
بمكان
قباني
محرك
المشارك
##75
العمارة
الترجيح
حزم
الطائفة
يتواجد
قديما
##شعة
اليسار
بانها
يار
تتابع
بصحة
بكأس
1968
ولكنهم
المطلقة
الصواب
اللطيف
08
وخلق
وحب
##ثه
بمنزلة
دعوات
سبأ
اسلوب
قراره
الأشجار
ومق
صفقات
شعرت
سيعقد
ينشر
الاحترام
ماهو
المرصد
خفيفة
##وائق
مورين
الختامي
##وازي
بدعوة
والجيش
تبت
##ملأ
رابعا
التنا
تتحقق
امتدت
مخط
125
محس
امور
تسيطر
استلام
لمسافة
وبرنامج
ايف
##خامة
الاقليمي
احتياج
تتناسب
بالخير
المجيد
##زاي
لإسرائيل
##اهري
اثار
تكلف
توصلت
الفاعلة
النقاد
للجمهورية
مرسوم
##قراض
##hal
المعني
تتحرك
وجبة
mar
رئيسيا
هداف
تطلع
##بعاث
والتقدم
جاهزة
05
فجاء
تعاد
##أسف
أحر
أنهى
خصصت
يسيطر
يستعمل
مهمته
##رته
الإقليم
يعين
بذكر
سميث
للمستثمرين
بانتظار
بقطاع
##يناقش
ضوابط
##76
ماسة
الأفريقي
##خخة
المعطيات
مقط
##معة
الأصليين
بطرق
طبقة
فخامة
##بورغ
احدث
أسرته
البص
الحضارات
لنشر
كندي
##المات
الأط
تلاه
الدمار
##ابعين
##رحم
تطورا
##دادي
للأندية
والعرب
بشراء
محاضرات
##خلة
بالسل
معجم
حصوله
بشركة
احتياط
والتجارية
##طاحة
المتوفى
معظمهم
إيجابي
وحيث
مضي
الخلفية
وضبط
الائتمان
باتخاذ
لشخص
وعرف
التنافسية
باص
وسيع
ابنها
مستع
هموم
اعتذار
الدروس
وتشغيل
الدقة
بمشروع
بحب
أهدافها
##همات
الروايات
بالخط
محظ
الزمنية
ينزل
بوق
واستن
الرفي
##هت
وبيع
وساهم
##وتوغ
فيينا
لقيادة
الفريقان
بجولة
المصد
وطرح
الطالبة
##ثمرة
أستطيع
التهديدات
السمع
إيرادات
المقاعد
لتحرير
##يوش
وقفت
غذائية
وعلينا
الغاء
الافريقي
المحلل
نقدم
وبسبب
والناس
وتتضمن
محط
الرفاعي
التخلي
يترتب
وألا
بقايا
الحوث
انتشرت
وسر
وطالبة
##دأ
ملكة
ناز
ربح
01
اللوحة
الدولتين
بمج
والقضاء
افاد
يغادر
الرأسم
##طيط
جاد
قصائد
صناع
بلده
وأثناء
بدول
الوقف
الإسعاف
بلات
صحيحا
##ربوا
##طعام
التعاطي
للمرحلة
السوبر
أطل
##راما
التجزئة
##سيو
##na
المقترحة
وانظر
كتابات
تكثيف
##بيحة
لعمليات
للتجارة
موسيقى
متش
الغش
وانها
اللافت
##سانة
غربي
الجلوس
المدرسي
الزيتون
##كلترا
مختار
تنظمه
المهدي
انجازات
كتير
##يتال
واصلت
هاجم
فريقي
##رضه
بلير
كعب
استثنائية
هذ
للكرة
##مالة
خروجه
محترف
المقبلين
##راتيجيات
فلك
والتك
ولفتت
تكل
إذاعة
والأق
مبارياته
اور
##فاصل
##سابقات
طري
ابلغ
جمعيات
الأجر
أوضحت
الإنقاذ
لسنا
وتركيا
شعبه
تكاد
مهلة
وتأمين
ارسل
التليفزيون
##فاقية
الشبكات
والنظام
منافسه
شهرة
الأساتذة
ويوم
وحركة
واعتبرت
##قدا
الورق
بدت
مئوية
قولهم
##41
إير
نتوقع
مرشد
المولد
المزايا
جهودا
الفهم
خليجية
ركب
لتغطية
الفروانية
المسيح
تمس
##ماشى
جهاد
##أر
ونظم
ننتظر
الترخيص
##زمت
لتشكيل
وحديث
الايطالية
المراجعين
صاحبها
العباد
راعي
للحكم
بصح
ونائ
وضمن
##آب
##باطؤ
عشية
احسن
وثقاف
أون
المجر
عميق
ينقص
دستورية
حاصل
لوزير
نعتقد
##مائية
1964
##يلون
مدري
الجغرافية
مزا
مفتي
مقيمة
صم
ميونيخ
مشاركا
##لاحق
ودراسة
الجان
##ناعي
1426
جوية
قدرتها
واكدت
السباحة
مشاري
##وريد
والحقيقة
السائقين
بصفته
عاليا
موقعا
التميمي
105
ستيفن
سخ
##مارسات
اقرب
##عميم
##باكستان
للأمن
خلفه
الحكيمة
واعترف
آلي
المزد
عف
##افت
الأسابيع
المساحات
الإقبال
الإستراتيجية
الوزارية
يراه
بركات
السكاني
إدراك
مرشحا
##كوف
ch
الصيام
##سيوي
والبالغ
والرعاية
بسل
التفاؤل
ناح
##دود
فادي
وظيف
لحساب
الأركان
بالشكر
##كتشف
انتخابية
لاين
##بيها
حيوية
والعديد
والدولي
وتمثل
##ميص
الثقافات
##صفة
منشآت
##اعرة
سفن
يصلي
يبيع
الفردي
وبنسبة
استقالته
تحتل
المحاضرة
الرباط
تعثر
بولندا
الشريط
المحاولات
حنيفة
رأينا
الكمال
جدار
لرجال
الاعتصام
عيب
التسوية
يعترف
دخيل
يحرم
ميدانية
لدفع
حقها
##تتاح
مخصص
الاستماع
##صفية
والوق
الحزم
##ew
##85
##ركب
مؤتمرا
الأكل
مشابهة
الاحترافية
##اتيح
##مرين
الزمني
##وعه
تفضل
وتعادل
##رافات
ساف
يليق
وتقع
تحميل
##راضية
وخمس
أصعب
المشتري
والمغرب
##فهام
عسكريا
العلاجية
##قاع
الأفعال
الصادق
حيز
##صوات
##يشي
للسيدات
بالوزارة
والإبداع
والمدير
بدم
المشهور
والجز
##راكات
الراجحي
سهولة
التصريح
اطفال
محب
المخالفين
ريب
وكي
سيقام
طبق
اللتين
جنبا
اللبنانيون
الكه
إخوان
##قع
وإخراج
العصبية
قبائل
تحقيقها
الازد
تقرأ
الانتصار
ثقته
جزئيا
##نر
##كرار
عمليا
بيوم
الرومانية
التحو
1963
##جهل
سمحت
##ويقية
الخري
##سندر
##اين
بالتف
النبوي
انهاء
##سخ
مكر
##ثافة
المخلص
للمياه
حافلة
تسديد
مشج
قلبك
المرو
والمعرفة
مساندة
جنرال
عك
متاب
والثلاثين
الفيدر
طاقات
وأفضل
##خرجت
الاستث
وحسين
اللوائح
ومف
الفرحة
والحصول
أبيض
بورسعيد
ملاحظات
##man
استف
ونش
##لاحم
المقاطعة
التطرف
عبدالرزاق
المتقدمين
يتهم
توقيت
ايد
##هرام
هجوما
توك
الميم
الغالبية
ابنته
الميداني
بصرف
الصهيونية
والوقوف
##شاركين
للشيخ
للطلبة
الفم
لحفظ
الإسرائيليين
##عمق
##داخلية
الطوائف
المضادة
المبدأ
الضيوف
الصفر
بحالة
المتر
إدارية
جبران
صوته
المدعو
حققته
والعطاء
##فوف
السبعة
##وليك
المعالم
ولاة
ومعالجة
##ويتها
العثمان
وبكل
دقة
كاز
اللواتي
نشاطها
خريجي
سنوية
وبس
##وئية
##قوبة
وتشكيل
سرد
يطبق
والوصول
حقيقيا
وأبي
##افيا
معتمد
الرحمة
##سناده
مدنيين
##شرية
انفسهم
الحدا
1969
الافريقية
المعلومة
##حاكمة
والبحرين
##فاس
##وسين
ماريا
حمدي
حتما
الألمان
الكارثة
الشهراني
ازالة
المخيمات
الرحيل
الرومي
أحق
عقدا
للفنون
##يعة
الجنا
##سمين
التكامل
حان
المرات
يناهز
موث
القطار
ولادة
شعارات
يستطيعون
وأبرز
##ash
وأجهزة
المشروعة
وبالفعل
بزي
بإقامة
##عط
بالاح
وفلسط
##روت
المشتبه
الكمية
و10
##كسب
##اليل
الاطباء
لسوق
##قصات
الغاية
قطار
القاتل
انتصارات
عمارة
تغيرت
المحرك
استغل
والمتابعة
حوض
التنازل
والبد
##الجتها
المجاز
الخطورة
اسطنبول
للرياضة
##فسارات
بالمت
واختيار
ومات
إرها
##دمت
##هدين
يلتزم
لمجرد
وحا
منهن
الأكاديمي
المغفور
##فاذ
العلوي
واسعا
نتاج
يحاولون
##ضاعة
والحوار
اسرائيلي
جرير
الكوارث
ديب
الانفاق
وقائع
خبرات
والأطفال
ابوظبي
لمواصلة
للوزارة
نقلا
والتنظيم
مقالات
كاظمة
الكوفي
الحفر
ناص
اغلاق
ذهاب
خصائص
الهات
المذه
وأهداف
الظفيري
##42
##حديات
تعاملات
تقدما
##39
بصراحة
مهن
##اجي
##كيين
الفط
أقامت
bit
تاي
متأخرة
التمري
برن
بريطانية
التغير
أضرار
والزراعة
أعمارهم
##وديو
حرق
##يلى
الخصم
الجنسين
أوف
البترولية
استمع
يدا
والإمارات
تسأل
##واهم
المكلفة
المعمول
##all
بتك
احس
##سيوم
لممارسة
ميقاتي
الالتحاق
الجع
##جزات
والتقى
وتؤكد
جود
جاهز
##علت
بالجزائر
يكره
والو
تأسيسها
##مارين
للعاملين
رابع
بدع
المؤقتة
تعز
أتباع
نفوذ
##بض
##89
وتعت
تحية
وألقى
تبعا
الإجمالية
1945
العولمة
1956
المحافل
وقوات
يتر
قدمته
بالأح
بتغيير
لسموه
القى
فوجئ
الصقر
يث
##خن
2020
ومز
وقانون
يجعلها
والمواطنين
لتدريب
دعمها
الطاقم
الرقابية
المهتمين
تعميم
عبرت
الاميركيين
بأداء
والخروج
##ائجه
الاعتداءات
ومعظم
تثبيت
ويمثل
##اريس
العادات
المحتاج
جانبا
جماعية
والمجلس
وطلبت
أعين
##مله
وعلمت
شيوخ
وهب
1429
لتعليم
##اهن
عبادة
للعد
فاد
اليهودي
صلب
الاحتمال
وسجلت
##سوبي
واستمرت
الحبوب
ولمدة
##خيرة
##هاج
والعاملين
الفدر
تنازل
أنجلوس
وحزب
وقيم
##خصائي
قصور
مغا
الجزر
ببساطة
النقاب
روب
وتسهيل
موقفا
متفق
##قاده
##اردو
توليد
الناجمة
أمم
1952
بيب
درع
مقعدا
إياه
مقل
زه
##جيج
وهيئة
روبن
عزيزي
كوادر
##صان
التمسك
تدرك
اليوسف
الزهري
أهلية
الصاعد
ذهابا
وعادة
طفلا
##ضانات
توب
115
وكاتب
أردت
تنجح
##انغ
طالت
قناعة
##باريات
صانع
##روان
يمد
عبدالقادر
يبق
ديل
##جيات
وتقنية
الأغاني
استخراج
عبدالناصر
مؤقتا
شرقي
واعرب
شرعي
الاستهلاكية
وجا
جاب
حاله
##طين
##طلحات
##سيوط
العائلية
##ائك
طنطا
##قيل
المصلين
##حاور
تعدد
106
للمساهمة
استيراد
يتضح
فلسا
نوال
التأسيسية
مستقرة
سيقدم
جولات
العميق
اجواء
عبدالرحيم
ابتدائية
الظلام
حراسة
عراقية
ثوب
الفقيرة
ومحمود
ملحوظا
الشكوى
##جلد
ضخم
الحراك
نمت
##شارقة
قلوبنا
الشغب
ستشهد
يبعد
والفعاليات
##قلها
سوداء
والإدارة
##وروث
##يمياء
صنف
المشرق
والذى
المغني
##مرا
والمنظمات
المعروض
السائد
شهري
الموسيقي
المتظاهرون
##ماق
بروكسل
جوا
انتقادات
##حيم
دفن
المحاور
قتلت
واجتماعية
الرياضيين
السليمة
الاربعة
وخسر
أغاني
وذهب
وواصل
كرسي
أمان
وبدون
##يفر
وعز
القومى
للحديث
##فيل
##فارة
نقلها
##موقة
الكا
وأربعون
سور
العرش
##mula
زوجي
الكول
إقناع
المعيشة
قرض
الآخرون
المنط
الحديقة
السرقة
##قاليم
الحواجز
##طلة
والإدارية
اختتمت
غسان
لنها
البوابة
##شيرات
ثنائي
ووعد
تزوير
عبير
فنون
شعراء
يغيب
الإنشاء
مايكروسوفت
سوي
العصيمي
تستعد
بوح
وطريقة
الصاروخ
الجليد
لمختلف
خدي
الحصة
##ليان
كردستان
لكونه
الرمضانية
تجميع
العاجل
فاب
لفتح
السينمائية
مجانية
الأيمن
أعاد
المتغيرات
الأسرية
الزبائن
##أجر
ماليا
الدولارات
تقديمه
العملي
عارض
##49
وتجهيز
مفتوحا
اليوناني
هاتين
الرومان
حققها
والنجاح
التدريبي
اللحظات
واعضاء
الشركاء
##آر
كتائب
##ابيات
ستتم
اسلحة
للمهرجان
وصفت
لوف
الإصابات
ومدينة
حرصت
موجودا
والعربي
استئ
##ثرين
##نغ
##جرى
##خري
للمحت
التث
والمغ
فرانك
جوي
##قدما
اسبوعين
اعوام
القصور
اعتاد
التوي
بارزة
الاخضر
التشخيص
جراحية
ومشاركة
يقودها
##ip
الدراجات
##ربها
##زرة
للمشاريع
مهند
##لعت
فسوف
ريك
الكندية
عبدالمن
سماء
فذكر
كمد
قمنا
تاريخي
مجريات
ايلول
تفكر
قتلى
##سامح
نصل
##ندقية
##تخذ
التبرعات
##يفيل
الاشهر
كجزء
النكاح
مفيدة
صال
والتراث
التبرع
تقديمها
النع
الإيرادات
##مولا
تلم
واستقبل
القيود
##gc
الظواهر
الطراز
الناشط
وبعيد
الصغ
والنسائي
##ؤنا
غربية
السلفية
إعمار
بوج
##اهير
##طه
##وتين
درعا
رات
العنق
التربة
ميلاد
قاتل
بئر
وبقية
والدولة
غنى
تغييرات
ينتمون
بأننا
مولا
المتصدر
الوافدين
ووسط
##المة
الاستقالة
توس
##لوان
مراسم
اتصالا
لليوم
الإجراء
محلل
الحروف
الفيس
##سوا
##زح
السيرة
وطنه
ملعبه
اختياره
والخارجية
نشرها
حفاظا
##ts
والعلاج
تدعى
##ation
##بتك
راق
##ظيما
حبا
مشر
بتعيين
الممارسة
عطل
ذكرها
بعودة
خات
الساخ
التسوق
##43
تبي
الاردني
الاطلاق
##ينس
التصدير
##فاعلية
الاولمبي
والمال
يتح
##جرامية
سميت
خوري
لطلب
##يصا
شهيد
بطن
الاعداد
ربحية
كوبا
للأعمال
ألماني
الصيغة
كوكب
واطلع
بحياة
تهنئة
استقر
الهيكل
الاماراتي
التطبيقية
وإيران
والحياة
صيام
بالعودة
إكس
القطان
الأولوية
أغلبية
لجمعية
##كاثر
1958
فرضت
وبينما
##امرات
الفقهاء
اللحم
##هيب
الحاد
للاس
معتبرة
الرويلي
##واحل
عرضية
هدفها
الشاطئ
يتعدى
مثالا
تلبي
لتوجيه
دكتور
##78
ألبوم
وتابعت
الحليب
##ميلا
عجل
##سبات
والدم
ويحمل
##جدد
المرجوة
متمر
en
كيس
تاريخيا
##ya
باول
توي
احياء
##يتم
لوحد
اجمل
غرين
تعطل
للجهات
اتجه
##مدت
وكون
والنائب
المسلمة
والحرية
مجاهد
المفض
إصابته
الكلى
الحجاب
أرواح
واعتقد
مكونة
##ob
يدع
مؤقتة
والمساواة
برق
الانتفاضة
مستخدمي
كويتية
والأربعون
حلت
شوقي
قات
##ذبح
##راص
المدخل
الانقلاب
رغبات
de
06
كونغ
لقوى
تهيئة
##زات
اسابيع
تحذ
الآليات
ركز
استق
تتوافر
الإمكانات
ووفق
تقويم
الحمر
بمخ
##وصيات
##ريحا
الاستد
##بهات
السطح
تقليد
لول
احتساب
وإسرائيل
البلي
ذنب
##ابون
يحسن
رتبة
تدريس
##يامين
##يرز
يتغ
مثيل
الأمس
##قطني
أبعاد
يقتضي
##فران
##ؤثر
##راهيم
وكتاب
تناسب
الخنازير
بلغة
الصلح
التمور
##طلعت
طالبات
فهيد
تريليون
##وثة
فضيلة
والمسؤولين
وري
اللم
لار
فمثلا
تحضير
وارتفعت
##أله
السوف
المتحركة
##ap
المكتبات
وذات
فيلا
##ركاته
##صص
اتمنى
##ائما
البسيط
1965
##ركين
بإعداد
يستغل
الاسباب
والتركيز
ميثاق
للحركة
مشهور
مواهب
نهضة
كق
جثث
الشيوعي
دليلا
لقانون
الكتل
يجعله
الشبان
البطاقات
الساحلية
التأخير
الاسبانية
##بعه
المسلسلات
##افلات
حياتك
الغني
وكنا
يتوجه
المحافظين
واقعية
احتل
مضت
##لفاظ
مقبولة
1961
ويفت
##جعية
عبدالهادي
والدليل
باختيار
الانتقادات
بقاعة
المستوطنات
بالضبط
الوفود
##حاب
وتسعى
الأفارقة
خشية
##لهم
انطب
التلفزيوني
مدربه
الاتجاهات
##سرطان
والهيئة
التحدث
ردة
للدراسة
##افا
الاي
بالاع
بجنوب
العروبة
الاستعمار
تنف
لجمع
يلاحظ
سنا
##وفاء
عدمه
الاستغناء
الحضارية
المتوفرة
الحدائق
الهاشمي
الصوتية
يقلل
الودائع
##ائمين
##كتات
##هول
والإرشاد
تكفل
منحة
##شئين
والجامعات
عدو
تنتمي
##بوك
وبأن
فسيح
تحكيم
كاست
كاش
العج
لبدء
الطعن
مضمون
بالسوق
اعمار
يحول
واعادة
##صادقة
الزلزال
##iz
أكن
##حور
##ثرات
التتويج
يتجه
حية
دافع
مكانها
البرلماني
تدشين
الاصط
للبترول
توف
الموانئ
اية
مزايا
##هارة
الامراض
وظهر
##عنا
مستعدة
تصعيد
مواكبة
المدف
تعرضه
العقاب
ثنائية
كركوك
بيني
تشارلز
والأجهزة
##باص
الغي
البيه
اوضاع
البطن
ضرورية
والمعت
وتجاوز
ودورها
وإذ
##عج
أفعال
مانويل
لمراقبة
الأشعة
العامري
السوفيتي
مشاع
حاجات
مسبوقة
المسئولين
##بائي
##ستهم
وضعف
للإنسان
بأد
##ub
##ماة
الشعار
لحكومة
الراف
صورا
هوا
سكوت
لقرار
موضوعات
والمفتش
وشرح
الأساليب
امكان
سحر
##se
المذكرة
2019
##لائهم
##باحثين
بالقطاع
وجز
فرنسية
الغياب
آس
ومناقشة
يرسل
حذف
ورم
العسل
قبض
الصباحية
اليدوية
الروس
مستقبلية
بكون
الصفوف
يخسر
الصب
إداري
للتواصل
##فجار
الضيف
##شرف
وأهمية
المناق
مختلفا
##قيبة
المشي
بست
للتد
نل
شعيب
الكذب
والهد
الطائي
##وبى
1425
التخرج
واستغلال
لإد
البعيدة
شبيه
السندات
والتأكد
استفتاء
بمنع
##امله
##جازا
خلص
والتطور
آت
##قدس
مراك
عبارات
##ماعيلية
التعذيب
بالكويت
مسجل
وطننا
والقرى
الآيات
الراعي
أوكرانيا
دلوق
لادارة
##ودو
بلجيكا
##وطنة
التمرد
وصور
بالحب
والازدهار
الاشغال
قضا
لكني
بقصر
والقوى
##عتهم
جماه
الفتن
##حيل
تراجعا
ونشاط
وبينت
ماديا
##ضرا
جدي
formula
رابعة
أكتب
تطبيقات
1950
##جمهورية
##ونهم
الشاي
الرغ
والتعليمية
##رحيب
قاسية
الفرس
الكلب
للإدارة
تغيب
وأنهم
##خذه
منفر
##ثية
وحصلت
تستغرق
السديري
##طرن
يأتى
دروس
تكتل
##قله
وتوسيع
النقدي
##افعين
##شتري
وصيانة
1966
الدهون
المزمع
المشتركين
##وابق
الارهابية
التجميل
نافذة
##فعالية
النبوية
ذكريات
الشريك
للفن
وسرعة
##شطتها
اشوف
##قيقتين
أنشأ
1200
توسع
ليوم
ترس
مافي
##ذرت
للرعاية
عفيف
##2ه
للمجموعة
مظل
موظفا
ولجنة
الارجنتيني
قيادي
الشقق
تتسم
للدوري
وقلت
للدستور
الكروية
المستخدمين
##جانب
بلاك
##رقت
ونفس
بفندق
يرافقه
ايقاف
تطبيقه
##ظا
عصرا
##قفال
##رتون
##يرموك
107
##ويح
آلم
خوان
والحكم
##كيب
خصيصا
وقته
خا
الأوساط
العز
الإثنين
قولها
سهلا
للاطلاع
##اذبية
القوائم
الجليل
زهرة
##بيون
ميزة
حزمة
##طوبة
سعة
##شفاء
ائتلاف
الوزيرة
مقرها
تكفي
وسلام
وشك
وجمه
##ائيل
المتشدد
##شحين
وقسم
وسمع
فيروس
للخطر
مختلط
الدائري
مفرح
الواسع
الكاثوليكية
##رقص
تنظمها
عقارية
الحمادي
##our
والمرأة
مماثل
مرتبة
شعره
أهلي
##فيفا
التقريب
الموز
برنامجه
حكيم
القديس
ومؤسسة
أرباحا
التويجري
للعلاقات
الجرحى
عاجل
الهيك
الائتمانية
سيئ
للتج
بالصحة
مجرى
والأرض
ويمت
##ستية
##تهاكات
خسارته
شيكاغو
##ونك
##65
التطوعي
الأحمدي
أوروبية
والجهاز
ويشمل
لتغيير
الأفق
##صق
مراسل
المعاني
برقية
خور
المعوقات
السيول
##عدا
وتضيف
ممتاز
صبر
توني
##ce
##فقته
سعيا
نقيب
متهما
والمدينة
تبرز
هدد
الغر
التلاميذ
تتع
مثلها
وعين
450
وقدرات
الشامسي
متابع
العقيدة
العمرة
وقلة
الصفة
ستقدم
الباردة
ورصد
الثقيل
بطلا
##حاتة
ضيفا
والأنشطة
ستبدأ
خطرة
انتظر
جوني
البلوشي
لاعادة
رجاء
حقيبة
المتبادلة
ومتطلبات
حضوره
صغيرا
أسمع
كارت
الوافدة
والول
العرف
المسند
تطويرها
بالمجلس
الاساس
الشق
والأردن
التجاوزات
المؤسس
طرحه
واللبن
اقتراب
تعارض
فأنت
ثور
والمساهمة
ببيع
##ضرم
##هتمين
ورواه
فعندما
مجهود
لذوي
أمتار
أسد
الأزياء
أنزل
هلا
الوجبات
الميلادي
المغت
توضع
انتباه
لقوات
مركب
والمرافق
البريطانيين
ثقافي
##طيب
ازدياد
متواصلة
المستحيل
سهيل
الإرادة
استاذ
الحميدي
فياض
جارية
##قاوم
قانونا
الطائفي
تصيب
##فط
نيوزيل
تلفزيونية
تذاكر
الاجانب
يبين
##سائر
وتشكل
حضرموت
كرب
##ضون
تجميد
فإنهم
ثمان
اعتقاد
بإد
الابتعاد
##سينما
فالد
استشاري
##حدر
البنى
تنشيط
الجاد
تحيط
المظاهرات
ووافق
##ذور
بوز
الإصلاحات
1954
يلحق
وود
المنامة
الدورى
للعمال
تألفت
الاستيطان
فاعلة
##جى
##دها
العصبي
نر
جزائري
حظيت
الطبقات
والنهي
##فاعلات
والقيام
التعليمات
عناوين
ذهن
##امس
سلك
المنظومة
جائز
##عوم
الامل
ماضي
##وارق
مقار
يفسر
الوضوء
كولومبيا
أمثلة
اعرب
##يزن
أتم
اقر
المدم
احمدي
تقديره
ينام
##ine
أذكر
الغنية
اعترض
المحتملة
وكافة
التخصصي
الميزان
##aj
لإيجاد
لخدمات
##طونيو
الحداد
ظافر
##بوظبي
كوكبة
تصدق
العديدة
مباراتين
جورجيا
بحيرة
يمكنهم
الطبعة
عبدالفتاح
##جاجة
##سيكي
حقائق
ثلاثية
عبود
أولها
التحق
##67
غانا
تصريف
عذاب
وأوروبا
وثلاثين
احتفل
تنفيذا
وتعود
نشعر
قرط
يفصل
##اير
للعبة
بالشركة
فورد
مساجد
الشفاء
##قبه
المعارضين
والأستاذ
ضروري
##مها
الأمريكى
صوب
كذب
يليه
الاخوة
وقدره
تتكرر
أبنائها
ولكنني
ويلعب
أضعاف
حظوظ
متسائلا
تمد
التدابير
صفوفه
مواصفات
##ضرر
ترحيب
واستمع
نزلت
بكره
اختراع
الأجور
وتنا
الايجابي
الوالدين
##رحب
ماكين
##أته
##مره
التوعوية
##ويب
متاحة
الدعاية
##قطات
مواطنا
##طبع
##برين
لمزيد
صدقة
مناسبا
##انته
عاتق
للشر
##وقعت
الهادئ
الكتائب
ياح
اندلعت
##مكانية
ريتويت
لأعضاء
وأبلغ
شيرا
الأبعاد
لقوله
##ie
الأوب
فتنة
رأسمال
ثل
الحظر
وحكومة
مصدرا
##روكيماويات
##واص
للتش
والسعي
وقول
لتجنب
بلبنان
يسار
##رسول
##حيا
سيأتي
الزملاء
برئيس
للرئاسة
يتعلم
02
##طلبه
الضرورة
حرج
الكردستاني
وقائد
يشجع
والسؤال
تسقط
التطبيقات
##اراتها
مفوض
جيران
مجهولة
علميا
لتشجيع
التظاهرات
الشهرية
وخص
الهائل
صفات
##لتقي
إظهار
الجراحة
ملح
سندات
بالأن
هويته
الكنائس
فمع
الجوع
حسنة
ويوسف
هارون
##ثيث
منيرة
بالاس
السبا
جعجع
والأع
مغلقة
الانتصارات
الهلالي
جيف
المستو
##يازات
والمؤتمر
اضطرابات
هون
الأعم
##زيين
يحسب
الأنبياء
وإجراء
##قطار
لايزال
المصدرة
رضوان
الجولات
أدب
##انج
السمك
##لمون
الحو
##ؤلؤ
متنا
وشملت
##وحد
والبحوث
قتله
وبش
مساكن
هاجر
يردد
الأسري
تتأثر
##رداد
تأثيرا
##51
لفريقه
حلوة
وجيزة
سلف
اهالي
##ؤولين
للجدل
إنجاح
##روها
وتقييم
كامب
اسرائيلية
الباقي
الكرامة
الطرفان
المشاهدين
##اندو
##لابة
يتذكر
1428
والنشر
سبقت
تخيل
الاعتقاد
للبنين
##كولات
الممثلين
الراتب
المتكاملة
مقربة
وحجم
عوائد
البارزة
الأطعمة
يعلمون
قلوبهم
الأيدي
تفاقم
بشأنها
فماذا
بسام
بالاحت
صعد
فوات
البائع
الندوات
بسط
وتسليم
الطاهر
صحف
تلتزم
ذاكر
العبادة
فلسطينيين
##غلبية
اسلام
عشاء
بيري
ابني
##بكات
السائل
سوبر
دخوله
تبنى
إجمالية
نملك
##ريجي
السهلي
##شفافية
الجمركية
الاردنية
تشيلسي
المتنقلة
ومث
أسرار
السلسلة
كرام
السور
المعادلة
الصفات
##جازه
حذرت
الطارئة
غار
الأمثلة
إتمام
مشب
##رافقة
بالمل
تجسد
تشغل
واليمن
والأمان
للتعبير
الشيباني
أخطر
حقهم
والترم
العمرانية
الكاميرا
لموقع
بلدنا
##براج
قتادة
حلي
يلقي
ولس
الضيافة
التسامح
كيري
للمرضى
مذ
العارضة
احتلت
اسمع
يشعرون
البحثية
احتمالات
يدافع
##وآ
هدوء
فلقد
غالي
تسيير
الوساطة
والمدارس
ساق
تصريحه
##حتين
عدوان
سلمية
وأطلق
ورحب
##كيدا
##فعية
الفعالة
للمنظمة
co
##ائقي
وعود
غزو
##ندسة
النقي
ووض
##ستن
ومنت
السامي
وتنت
خاطئة
##عارف
لإعداد
حنبل
الإضراب
حقول
الوسيلة
بنيامين
مختصر
1427
بالأمر
##صلح
بنتائج
##نهام
المتواجد
بمساحة
لإنقاذ
بيلي
وإي
الاهلية
محاسبة
الوفيات
اسما
اسر
قبرص
عشاق
عقدها
المقط
##شاور
مغل
عنان
والسياسي
لأفضل
الخاطئة
أمناء
##وصى
برت
الإنكلي
##لر
##84
للعملاء
البنا
واسم
يخاف
ميك
الهروب
وضوح
##لاوة
والواقع
الجراحية
معاك
##طأ
يوفق
توثيق
أصابع
ولديه
بالتخ
بينت
همام
استحداث
فتم
لحق
المحظ
ومكافحة
##ريين
المقترحات
الورد
السلبيات
تعيينه
عبدالمنعم
الفوري
تنظيف
##سرقة
##بدة
##تيان
البكالوريوس
إقبالا
تراه
نام
العقول
##فقا
لزوج
مليوني
والتعرف
اخوان
##صرت
مميزا
بيقول
وانتشار
##نيست
ووالد
اتش
والإصلاح
##بأ
مناقش
مسبوق
أعيد
بضع
أنقرة
علمه
معز
المدي
معادلة
مركبات
بطبيعة
##eg
لطلاب
بإغلاق
واجبات
والمستقبل
هندي
حكمة
ومرت
استرليني
وإخ
وأدى
أرامكو
عيادة
أظن
واتفق
لارت
##جالس
التسعة
مقبرة
والعل
وذوي
##وسيه
وأتمنى
أتت
##53
بتحويل
وكوريا
أبيب
اضطراب
وفاع
توجهات
##رائع
رجاله
##وترات
##ئيل
عمه
ومهما
هبة
بعلبك
باري
تتعدى
للتر
نزال
التنقل
##راة
ph
ايدي
يخلق
##سيير
وتعاون
البصر
فلوس
أورد
الاصوات
مدف
##تيق
نظره
##قتال
القرعة
جاهد
الأضحى
الصنع
لاول
##صفح
##طرنج
اليهم
وفلسطين
الرعب
المحرر
وصلنا
التعازي
شحاتة
وإنا
ملاحظ
##ess
##ok
والمعدات
وحق
الاصول
المصريون
تنوع
للتطوير
##83
وتعرف
الأيتام
والتقاليد
انفجرت
نطالب
يكمل
بنيت
الفيص
متأخر
تصد
##جرس
##عايش
هاتفي
أوس
كدا
مؤيد
ستين
بالإس
للمؤسسات
البحرينية
لغاية
##قسام
ترأس
عاجلة
والكر
الانفتاح
بقصد
الثمانينات
الطموح
والمخت
سعى
##هلت
غريبا
##واقفه
إلحا
هاتفيا
##eh
والطب
الجثة
إبريل
والأمر
والتزام
وانخفض
ورج
اليت
معيلات
لموسم
قيود
معدات
والدة
تحفيز
والوحدة
لاج
قادرين
##وريت
لانتخابات
##ادور
حققتها
المشر
معلومة
الأئمة
متق
##باين
بالخارج
##rog
تسرب
##غتيال
لور
حصار
للاد
##خلل
ومنتخب
تمثلت
بالدوري
الممتدة
المسمى
##زيق
وسير
يخشى
كلاعب
بعضنا
نهى
##مليار
##ريز
مصنف
ضرر
1959
بيج
الناز
ادخل
##فلام
والارتقاء
سبي
المنطلق
وكلا
الانتحار
الجماهيري
بلدا
مفعول
اهتمامه
توسعة
ورجل
تلمي
##شب
كتبها
##تيكو
##زوجة
##81
المطارات
إتش
والتشري
بكثرة
th
رحمته
حراس
بأقل
##سرائيلى
الأعلام
##داق
مفخخة
الاسط
ومختلف
جونسون
لحمدلله
ويظهر
قضاة
ارب
##سلط
وحققت
غطاء
ماني
التصعيد
04
نهائية
الكحول
ونسب
نشاطا
المحب
العادل
الإعلاميين
الإفطار
التراخيص
##وخة
قادم
التجهيزات
والمنت
انعدام
ممتازة
الخصوصية
لاري
حلها
وولي
تنتقل
زائر
الحنا
حكومات
فيد
أحدكم
والجزائر
الخمر
ثروة
وعلق
يومها
طلع
inst
للوق
bb
##برغ
عانى
##روحات
الزوجين
آمنوا
للصحفيين
استبعد
##مأنينة
البروفيسور
رؤيته
الظاهري
فأكثر
الوصف
الأضواء
والسا
تخزين
الكور
ميشيل
أخلاق
اتضح
ahmed
##عيمة
##زج
تعق
تارة
أوامر
##سلي
##ليعة
الأبد
يشاء
الاحمدي
##نفذة
الصفراء
##وتش
المناعة
لمخ
يحترم
##طعن
غيب
قريش
ولكني
برلمان
المعتص
امي
##خلي
متعدد
بقسم
##شكال
الإجازة
روج
نفسيا
اعتصام
يرغبون
العلامات
للمحكمة
عبور
03
خصوصية
##oud
ورك
تكساس
لبس
وأهل
ويزيد
##خف
مستحيل
اسامة
لسه
الانجليزية
يجي
مفصل
##ويلم
الدرجات
كاري
الشيعية
متوقع
الفرسان
محتويات
الخلية
شرم
تظاهرة
##ta
البه
يتد
موقفها
للإصابة
ودر
السام
والقدرة
باه
للو
التنبيه
اختصار
فلسفة
ترميم
##عيج
حاضر
##قلون
وبالأ
منال
##جبني
التغطية
كلفة
بوي
وسياسي
يتأثر
النادرة
قو
بالوكالة
غول
##كبوت
مقص
الانتح
التغلب
الأيسر
بانخفاض
والثقافي
##يحاء
بيعها
07
والرو
لتشمل
##غية
##سبين
الرفض
الأمهات
ورأ
يضطر
الفائزة
الأوائل
وتوفر
ينف
الموقعة
مطم
المصطلح
الشمراني
نسبتها
لظروف
بترك
مجت
والفنان
المقيم
شاشات
بإصدار
المؤدية
وانتهى
للانضمام
قفز
ولايات
يستدعي
الإعلانات
اشتهر
الفيصلي
المنتخبين
اكتب
خيال
##حصر
منشأة
الكرسي
الملائكة
جدران
وتطويرها
اشكال
كابول
نشاهد
ad
أسترالي
الحائط
##ونزية
والترب
بتعديل
مكتوب
##ممة
وبركاته
وإبراهيم
يحمي
المختص
##ياك
مسجلة
وتحليل
النح
النفوذ
الرص
العضلات
كوفي
التفجير
نضع
للجن
يرحمه
هاما
##اتهن
الارباح
اللذان
مزرعة
الميدالية
##وتهم
##ريدي
##خدرة
الجند
يحافظ
##يتامين
مكي
والعا
تشا
وتميز
شاك
##روعي
سيبدأ
750
والقي
116
وإيجاد
تدر
للحرب
220
##دونيسيا
إدراج
الاولية
ذر
الانساني
عدي
البروتين
والند
النقابات
وقوف
والعافية
صاف
بمكتب
أحمر
##جداد
لقضاء
التقت
الشئون
المتطلبات
الريفي
##لتا
تغي
وبدا
##ood
فردية
لقيت
واصيب
الروائي
وخمسين
##كتشاف
راجعون
تعل
##قمار
تجدر
رفقة
الشريحة
عائلات
اليرموك
مرورية
وعمليات
بالبطولة
الشاحنات
فف
المتوافرة
ادت
قياسا
المعادن
رصدت
الأفغانية
الأصفر
##الدين
حروب
المحللين
بديلة
##يوط
مطالبين
##واجدة
صحيحه
نزار
الميادين
يروي
##اشا
والتنفيذ
الركود
العداء
الفلسطينيون
للتف
لديك
الشطي
بأسماء
كاظم
واجتماع
دامت
##نيها
تواجهها
إبراز
##52
##جاني
تعط
شابا
الغبار
المحام
ايجابي
##فيها
##ينين
والمسي
##ربما
الممكنة
لمشاريع
##ساند
وكسر
فلوري
قوام
وخطط
الوقائع
حصص
وكأس
جناته
يتنا
طلق
عراق
عائدات
##ربيجان
التشريع
##شمل
##واهد
يسب
المغلقة
الضوابط
تلو
وتبقى
تقارب
أجراها
اختارت
التسعينات
ht
جنوبي
1949
براءة
لفئة
المطران
الأشكال
##وادمي
لمل
ازاء
إيف
الحصن
مولى
والأمنية
والكثير
المستحقة
واثق
1957
بإلغاء
وتث
##فيك
محاضر
أثرت
ويجوز
القبيلة
##ضحيات
إحساس
##التين
آباد
الجنائي
تخريج
قطعت
تفر
اميركية
رخص
المجني
##أم
فرصا
ويدخل
الشاذ
رائعا
sar
تراخيص
أغلق
طلبه
##نابة
يعتزم
البارز
الأندلس
المناخية
الجنايات
##بتين
اولمرت
والغرب
##نيك
القبلية
##خبار
عميقة
عادلة
نشرتها
لمباراة
##ly
##عادته
وسعيد
ادعى
القصاص
الاحوال
الجاني
وتونس
إدوارد
وادارة
##pt
المعروضة
جبريل
بالكثير
السواحل
دواء
الافتتاحية
##ستمر
ولاسيما
##وقه
الهضم
الشاه
واجهة
##كتة
القرشي
##تز
الأرث
وبعضها
مخرجات
تود
##طالما
##علانية
براد
أرسلت
##امته
مقدار
الحسنة
وصد
يدير
والجمعيات
زاهر
فز
المستهدفة
بالهيئة
ساره
##رصاص
##خطوطات
التجمعات
البلجيكي
يؤخذ
الفجوة
سات
منفذ
يكلف
العجوز
ويجعل
العمالية
دراسية
الانس
مقيم
الشكاوى
##لتهم
##عدي
المحمولة
الكميات
شيو
أتل
اقبال
لاستضافة
شعبنا
المنهاج
مليئة
مدربا
يوفنتوس
عسا
المحرم
ستريت
مليارا
ابتسام
ودولة
##يمر
فيتنام
جماع
هاي
أملا
ونأمل
يتوجب
اراد
النهائيات
التطبيقي
##صوله
المرجع
ينوي
الاجواء
اساسي
ومراقبة
العدوى
اود
مسكن
والتأهيل
صلاحية
المطبخ
##82
درهما
صديقه
وأمين
بتاع
الأضرار
وزع
بقضايا
##ويخ
الأصيلة
كافيا
الحرائق
واللجنة
دبلوماسية
##نفذ
##موذج
فرسان
نالت
والنفس
تعاطي
##ركون
ابواب
الانضباط
وحم
التلاعب
أثارت
معلوم
المتت
##كتبة
دينه
جاكسون
والعنف
أجيال
لغات
##خه
##يميائي
مفيش
الادارات
الشتوية
مسلحون
ونج
الاندماج
وألمانيا
وكلما
مرضية
كرامة
ضريبة
والفريق
بالفريق
##بداء
فردي
ستبقى
لشعب
اليأس
الصغرى
أصر
##حادية
الرميث
نشهد
##غرات
حسبي
ثامر
خضع
##ونال
للثورة
دولارات
الزن
الضرب
داخليا
الاحتجاج
دانيال
الصالحة
شير
الدرك
يفوز
كهربائية
هآ
##يبت
المسلح
##ونيسيا
والاستثم
101
وتدخل
مذك
##لاوي
##لفين
يتوافق
##عيه
##قاتها
##لقاب
شيخة
المحدود
الصراعات
تستقبل
بالماء
لتفعيل
##غتصاب
الأوز
لمساعد
##agr
إلكترونية
وفن
##جنحة
ديار
أجنبي
##همه
غرد
للإسلام
مفيد
استعدادات
دأ
تصرفات
الفصول
ويحتاج
الرباعية
المستوردة
فائقة
وغياب
وأقام
لاقامة
اا
##يدها
##قطعة
أذن
وكثير
الصبي
##ملات
خطابه
الصلب
الشعلة
النزاعات
الغابات
طلا
1426ه
متفاوت
احكام
للكثير
ومصالح
مطلقة
صورته
##باي
بصنع
البال
يمكنك
منافس
مورينيو
الأكثرية
كابيتال
منفصلة
إدريس
تقليدية
ديني
##فراج
للخارج
شرعا
##جابه
الصراف
الانع
عشق
ضربات
علاقته
##نمارك
ووكيل
ظبي
أوقف
بريده
##جبيل
عينيه
والإنسانية
العريضة
لجأ
لولاية
مرس
الفعال
الوكالات
العار
1947
سلوى
أعداء
حساسية
واجهت
عبدالج
الزلفي
لاا
سويف
##زويد
مهي
##قاح
التذاكر
عبيدة
تهديدا
##نوع
##يبان
للإس
تعترض
المراجع
والصحية
##قابة
##وحت
dr
وهؤلاء
دعاء
الشهور
النماذج
بتوقيع
بالبن
الجيران
بيار
الحاز
وشددت
ورسوله
الحارة
معقدة
الشاهد
يتصور
الوراثية
##موها
##صفور
##غلو
المقاولين
الأصغر
برغم
عقار
القطب
ارتداء
حجمها
بحت
لتقييم
العملاق
##شائية
ولايته
أقرت
النمط
للدورة
تلوث
ويرجع
الخفيفة
##رضة
التقدمي
مبنية
بوسطن
موعدا
المحتوى
التشكيلية
اتفاقا
اعلم
طمو
نزول
للالت
ضمانات
الأسباني
للسب
حملته
والطلب
ينته
المتميزين
##رتس
وتغيير
##يوود
اختطاف
ومناطق
تحوي
وضرب
فيا
##ملين
بيتا
زن
##وراة
##انسحاب
ونتمنى
الهرم
نراه
تزوجت
منخفض
##راضى
مؤمن
صارمة
اجازة
عسكر
الخزانة
##هآ
وبالإ
##وفان
يجسد
التمارين
والتسويق
البشرة
##شكلات
الإرهابيين
وقاد
المماثلة
بنسب
تعترف
وربط
بالمستشفى
لاستعادة
بأكمله
بشؤون
لحقت
المفاجأة
ويحاول
بمجموعة
توزع
التكاف
صوم
يعالج
وافاد
بالحصول
والمنتجات
##لايين
المرجعية
##رياضة
العمود
الجارى
لشهر
التهدئة
عرعر
##قاس
والأمير
السمنة
##بكي
يجر
ملكا
شخصين
##هش
تخلف
لضبط
and
ادعاء
الممتازة
الجوهري
نظمتها
الاعتراض
ملع
##نسي
والدين
1955
##عني
اعتزال
التصنيع
قوته
الهائلة
##واضع
عقاب
المكانة
##اريح
الألبوم
نشره
##خرط
معوض
والاض
ويرت
بالطريقة
وسهولة
##واقعة
طفلة
الحداثة
ابر
التمريض
الاو
المقاييس
واصبح
سيبقى
محله
ندرك
هزاع
الشهود
والسياسة
102
رسالته
يشتبه
##وفو
خلية
للمسلمين
وتشت
برح
وبطولة
##سيدس
المرتقبة
كنتم
المنشأة
##راكم
المتعا
جدير
المتبادل
كلاهما
وجدد
نسأل
أولي
نتائجه
الدعوات
137
سون
للذ
الكائنات
##طلاعات
روايته
للطفل
لتسجيل
يبعث
أساتذة
المركزى
التشكيلي
##فوقين
##ضيه
136
قبالة
وتطلعات
##ورهم
المعلمات
بمنح
المشاة
إحالة
سلبيا
اكس
الاذاعة
الرهن
##زمان
اعمل
عريضة
وعضوية
هونغ
العجل
خارجي
بلقاء
وانتقل
مصطفي
لأني
بحمد
الاغتيال
واتحاد
فاعلية
مظهر
لمحمد
لطرح
ينصح
اشراف
ومساعدة
استشهاد
ثلاثا
لكونها
بالحد
المقارنة
إستراتيجية
أسعارها
نوه
مشروعة
والقوات
جهوده
الجاب
تحسبا
كثب
المنفذة
117
أسب
جث
للكشف
ومنظمة
الاتجار
فلس
والاف
معطيات
الأحلام
نحب
الزائدة
تفص
تقوية
##غازي
الهيد
ضربت
انتم
##ونين
قمع
الهوى
##ياطين
خيرية
##ستيك
لتأسيس
##راسي
اخراج
حفلات
الأنظار
توصية
يتحدثون
أكرم
ونائبه
يقوله
الواضحة
عادات
##of
مرتفع
غيري
رقما
الأصح
راحت
بالتزامن
خطابا
الجهل
بنفسها
الغنائية
مدم
##يليا
09
المركزة
##صالحة
عينة
تنوي
##نيب
للبرنامج
إعجاب
الخفيف
عديد
للربع
103
برامجها
المفضل
لجماعة
يولد
يسعون
غرامة
ألك
الروابط
حيوان
##طعت
##انسي
أصحابه
التابعين
وسوء
بأبوظبي
المعلنة
يفس
##حلول
افتتحت
للنقل
الأرجح
الإرشاد
نقبل
الوقوع
الحبس
بخم
اريد
جنديا
##ادرت
والسعادة
المخططات
##وثائق
لسبب
تشجع
دراستها
شوق
آلت
نشاطه
##مثلي
بمرور
يور
مكه
الهجري
وأظهرت
النصب
تركه
البغدادي
##طبي
الكاتبة
الكاف
فلأن
##تخبات
البحار
حضورا
تذكارية
مابين
ووصلت
تطل
##وخي
مرتفعا
يغطي
وتقام
الإرهابي
##بلاغ
وجمعية
كائن
الثقات
تحض
##يوين
اماكن
##لهي
##ابرة
عنصرا
الانجليزي
روتانا
مقررا
لمناسبة
شكلها
##ونسكو
أمامها
وأر
الصعوبة
وإطلاق
لتفادي
تتسبب
##عمه
تجربته
مخلص
مفلح
تأسس
السعدون
الرمال
خسرت
يدري
##امرأة
السرد
أشجار
ترشي
غلام
حاص
yf
الجناة
للتوصل
الأوكر
والمعاهد
مهامه
إحراز
ركاب
مسلمة
الشايع
تمريرة
أشعة
اعتذر
الخلي
الاوراق
نجمة
النزول
##اكي
##عوب
زملاء
تنمو
أجانب
هيئات
1953
عاطف
##كلين
وضح
يحتاجون
وقضايا
##ضطر
اعط
وجدنا
الزامل
##alah
المزروعي
بركة
النهي
الشعري
الكفيلة
راضي
عرفة
سطيف
عيال
هواتف
زو
بالأمن
ظرف
الخلافة
الشقة
توصيل
وأفراد
المحلة
##اديمير
البحيرة
الفروسية
بالولايات
##كوت
المكي
ماب
##زوم
##فاية
المخط
ثمرة
وحشد
##بؤ
##ظير
##لافا
فصيلة
إبان
ويبدأ
عناية
شاع
المانع
اندية
غيرك
الفارسي
التقاط
الابتكار
غوان
لكثير
بالموافقة
المزمنة
للفنان
حقوقه
الحضري
السويسرية
طبيعيا
انقاذ
منظور
فعالياته
الخيول
التهذيب
شيوعا
مبني
شوية
للمنافسة
عروضا
يتلق
الناتو
متقدما
##طلوب
الواو
ساند
التذكارية
الحاسوب
ويضع
المنسق
والحرص
توفيت
القتالية
والمعادن
##اسك
دارت
والجمهور
المكونة
فضيحة
يتج
وتسجيل
واللغة
والترمذي
بحوث
لطيفة
داخلها
الكلاب
##ولندا
تشويه
العرق
وكلاء
للسيطرة
والتوجيه
بحقه
المصاحبة
انتقاد
##ضييق
الأستاذة
ومتى
وحما
خلفان
برز
ديموقراطية
وزي
وثمان
ويجري
حروف
##زها
المستندات
غني
##كرون
اسرة
تصفية
##غض
صديقة
ومرجعية
تميزت
يعتبرون
##جلت
هجرة
دال
##برازيل
وانخفاض
فيفا
الحلقات
كأنها
ngc
والقوة
يبرز
بملعب
##سخة
##راحه
وسين
الإسلاميين
أباد
تقريرها
النسبية
رامي
بآخر
الجانبية
104
##غالية
##مداد
المرزوقي
المؤثرة
ضاحية
بالمستوى
المقالة
يعقل
أدي
الإحساس
لاتزال
##يسن
اراضي
ولات
فيلما
الواردات
مدرس
المفروضة
واكثر
معلنا
يومنا
فاين
بالبر
##عدين
##لته
عرش
وجدوا
بجدية
مربعا
كليب
مشاركات
مداف
باولو
سيعود
مسارات
بالنظام
موم
الحاضرين
الاستشارات
لأهل
والري
لمرحلة
الهاتفية
الأقباط
الفيزياء
المراجعة
وتلقى
لمنصب
الشرا
الخدمية
ويشكل
الجواد
عمير
مصاف
##بلي
حاولوا
##هدار
يعارض
تظاهر
وثم
الحيوانية
حمراء
الترتيبات
للخط
غنية
المنشود
مواطنه
##جمعات
خالف
نعتبر
##قاقير
الوصاية
وخدم
##زهات
معيار
موظفين
ذك
##راصنة
جمعه
انتهاك
##انهم
موجه
##عانة
السلطتين
عملنا
المترتبة
جلد
الدهر
تهديدات
عروة
المنخفضة
التزوير
بنين
أدلى
اعتم
التهنئة
كرئيس
تطورت
ادخال
تليها
##بتة
آخره
متوقعة
لاند
النبلاء
المتزايدة
الملوك
##ساح
##وكو
الترفيه
شهاد
##وانة
يفرق
المركب
واعتماد
##صره
##وسكار
قدوم
الانتاجية
صريح
الاكتفاء
فهمي
ثبوت
ستعمل
الصلاحيات
108
عذر
كثيرين
أسل
##يتون
##وجها
لمهرجان
الشجرة
وعلاج
بارتكاب
##افه
طائر
شاحنة
المواسم
##ودعات
والأكثر
مختلطين
رمي
التظاهرة
النفي
المنصوص
بأب
للرأي
##بداد
##وانية
للمحترفين
##سقاط
و15
رهن
والإجراءات
الجاهلية
والأصدقاء
نجاحها
حبس
##قرب
والخوف
تفادي
فقه
يظن
متفرج
العبث
بالتس
الأرواح
##صاعد
##ائيين
##ينيك
مجهولين
وتواصل
يرتكب
تنافسية
##غواي
منق
تعالج
اقترب
البوسنة
ذكور
انكلترا
ميونخ
الكابتن
حك
يصور
##رتا
وصلوا
أردوغان
مجالا
##قفين
##بيلية
يفتقد
بالحياة
المفعول
الثورية
مشيط
240
اقدم
##امنا
لوائح
اصوات
المستثمرون
وركز
الإعدام
وللت
##أثر
##وذك
الاطلسي
انتر
شهدته
والكتاب
الضائع
ورود
الريفية
يجرى
الاحزاب
##يعابية
##حرش
الين
الإسناد
والمركز
شخصي
##فضة
موسيقية
البديلة
عرقين
نذكر
والته
العريقة
##سبورغ
إياها
الهداف
##هاون
##صلي
المعنوية
##وقيف
##ويلية
الكاري
الصكوك
أسوة
##حصاءات
بالرئيس
##سابات
تحضر
وتحديث
فنز
واقتصادية
المظل
وتبدأ
##ek
الأولاد
ورث
المعلوماتية
صدى
والصرف
الموسى
##كولن
الدرس
التكنولوجية
##حاسبة
اليامي
أولوية
باقر
ليز
##mar
عناء
محتملة
بحماية
فأخذ
بشرطة
الأخوة
##ثيوبيا
المملوكة
لمسابقة
تحمله
نابل
إنتاجها
فذلك
الضخم
yfrog
رفضها
1946
شكلا
##كوني
المنصورة
سامح
ديموق
خارجها
الأنس
والعدل
علمنا
والرابع
##ضايق
إصرار
وسيد
##كومات
instagr
تصويت
ونتائج
جماعي
تشتمل
##ers
تزام
نتطلع
ممنوع
السحر
النحاس
##رجي
تراب
##ارو
##عاه
التقديم
أبنائهم
تنموية
ايم
يخطط
هائل
المعوقين
بالحضور
وحمد
العشوائية
والثروة
الريان
العود
##باشرة
ديت
السيادية
مثير
مالا
خوسيه
##واصلات
وعودة
الهوائية
نسائية
البيهقي
##معون
نظاما
##وغل
يتكرر
##باره
نجاحه
##ألك
يناسب
وقود
بالتزام
الستار
ويصل
والثالثة
الطابق
أنهت
المتضررين
on
اصابات
التوطين
والقيم
أوا
إيصال
ديمقراطية
المكاسب
حبه
لأغراض
كمبيوتر
لنت
الغريبة
الزهور
يوقع
والسلوك
الفعالية
مظاهرات
الضعيف
باطل
##احن
الموجه
اختتم
ينظمها
أسم
قمر
بهدوء
أخبرني
للصحافة
كرات
تصبحون
والمساعدة
بسحب
رمزي
الجبلية
تذكرة
الاستحواذ
تأجير
وتجمع
##عش
##غداد
الصر
حزبه
مناهج
##كيه
##شعب
استطيع
##فتر
##وافل
##غد
القيوين
وبالطبع
عابد
المتمثل
##صادق
الياء
الفوتوغ
##وزة
تستفيد
اللاحقة
الواجهة
##مرتبة
تويت
وتظهر
يستند
زلزال
تعرضوا
##دادات
حسنى
فالنسيا
وشباب
لصف
##لائنا
##عضوية
وصلاح
والقضايا
حقوقها
الأمد
##رحمن
##ساطير
الأوامر
والخم
واتخذ
الشح
وصالح
##روش
ايار
تستعمل
المقاتلين
العبارات
الداعمة
المجرمين
لاعبة
اليدين
للاسف
يرافق
##ختتم
واستقلال
مباني
أولمرت
متفاوتة
تعمي
شيراك
القصائد
فوضى
وصدر
##راطيين
##باز
تنويع
الكيمياء
الدواسر
شكاوى
الناقد
وبيان
##انك
الدوادمي
وشاهد
الضيقة
ضياع
كالد
امريكا
ونعم
فاذا
بالجائزة
التمديد
تجاوزات
الضحك
والمز
والتربية
الرابط
حربا
الفاخرة
وكاد
وممارسة
1430
ووحدة
لأمن
##1ه
طي
مؤشرا
ملوك
نظمته
##رث
تتواصل
روايات
ممر
المصير
وذكره
ومواقف
تناقش
الاشتراكية
تظاهرات
بالقانون
##64
الصادقة
##حوص
نجاحات
يعيشها
افتتاحه
لاجراء
السكني
لبنك
بعبدا
التسليم
بلاغ
قنابل
ذاتية
بالعالم
واستخدم
فقالوا
والأهم
ولكي
##ليقات
الزجاج
تقديرات
أعدت
عو
مرشحين
ولولا
تقاطع
طلاق
##جيال
##ايغ
الحلال
الكلاسيكية
المعقول
المساس
سائلا
الإصدار
الصالة
ألمانية
جمل
والامت
المثليين
##احم
اسيا
##حظى
يتمت
وحرية
روسي
##رمه
والمراد
##يريك
مراكش
روضة
سوزان
##قيع
##عاوي
قتيل
صلات
بضرب
الراقية
نفسى
ماس
انام
##رسون
التدقيق
مجدي
ترسل
الحنيف
فلاديمير
##لزام
الحساسية
لمكتب
المفتي
الكردية
المتطرف
الحف
يكتشف
سيعمل
##يغة
بأربعة
فيسب
الزر
الأذ
مولد
تاون
امتدادا
لتعديل
العالقة
##ئهم
بؤ
لمج
يراد
كدة
اكون
بإرسال
فانت
القنابل
##نائهم
##اردن
##وامع
التقسيم
الفضية
تشوف
اسقاط
بصعوبة
هرب
خن
محاول
وروح
صدوق
والمستشار
الكري
احراز
المستقل
معتمدة
حبة
استحقاق
للحق
تدعيم
##احت
التخفيف
##ادرية
ربيعة
استعاد
##ئتي
ينتظرون
المجمعات
المائدة
والبح
ساك
طنا
هاري
قادما
يشكلون
فرط
سؤالا
استغفر
والبرا
الفحوصات
والقروية
جبيل
واشاد
لترك
كوال
الميكاني
رافع
نقطتين
تهي
##طلين
التحقق
##لافي
وعائل
اتفقت
المستهدف
بالمناسبة
بالتعليم
حاضرة
المفضلة
غروب
##عدم
تموت
##وو
راية
وعما
##ذبذب
دينا
فيمن
بسلام
##طدم
باللاعب
البيط
بالنيابة
للمعلومات
الديك
تباع
وتسبب
محبة
بصد
والفت
التعيين
الانطلاق
طار
خلط
توقعت
دشتي
مستغ
الجنين
كمر
##جوب
المباحثات
أبل
##ردام
صلي
وخلص
الصربي
لاطلاق
##وكمة
##كسجين
تستطع
بدايات
الأعظم
تكريما
الواقعية
الطبط
##ئتها
المارة
وثمن
واللا
الرأسمالية
صوره
سرح
شذ
فوري
فالع
##ندت
التعداد
الثورات
##رشادية
اشترى
##جرام
سجون
هيلاري
دماغ
بادر
للبنوك
منسوب
##دوز
الاما
تخلو
الجوازات
يتلقى
وانضم
موازنة
أراضيها
تجا
زمني
طعن
يالله
يدعون
السخ
القائل
بالجهود
المتفق
##نائيا
كوين
وأرسل
##يليشيات
ثياب
بموجبه
الازرق
##جاع
العنصرية
الاخطاء
القنفذة
التوحد
وشراء
المسجلين
والحق
مسبقة
##اصي
ميادين
ضا
جهودهم
افادت
الاستيلاء
##اراته
##صله
ينسى
##باشر
بأم
والنصر
مؤثرة
تطال
ثمار
والأول
باليوم
##ينج
ويصبح
والمكان
لرجل
حلمي
للاخت
##يمكن
خطا
التما
ومط
للصناعات
وبعضهم
استراتيجي
جسور
لتمكين
الأدباء
##جزأ
المزاد
واللوائح
الضريبة
درج
ولح
اخط
وفهد
عنق
عاشت
للرد
والخبرات
توزيعها
كيلومترات
التحضيرية
أحبك
الدق
##قبها
مباحثات
2006م
منتجاتها
الشهرة
المنصة
تستند
المؤسسي
سيولة
البدون
127
تدا
لايك
تحمي
إمكانات
افكار
##ناهم
والسودان
أقدام
بالتد
داء
رمزا
مغنية
طائلة
وسعد
ترويج
التداولات
ماتت
المستويين
فاقت
طع
وبلا
اعتمادا
الريال
ضاع
توتنهام
بقطع
تدير
المبدع
##صنع
النحل
الحمض
يعل
##ويلي
بطرح
كره
##طمح
بالإنجليزية
مزيج
##راحي
##طلاقة
رأيك
صبري
انصار
يمس
للاكت
الالتها
المتعة
إيجابيا
##حس
ستستمر
رفعه
تآ
صغر
بعكس
دفعه
وأمير
للمخرج
تقطع
إلزام
بالضرب
شقراء
ويغ
للصحة
سبورت
طرفا
وترى
تلفزيوني
ركزت
تمرير
التقليل
خدماته
بلدي
منفصل
وأين
##كتوراه
الانكليزية
لوم
حقبة
##زعج
##جارات
مسؤوليتها
حزين
الاستشاري
##رحت
ولدينا
تنسى
الكرات
وللأسف
لتبادل
حكمت
تمكنوا
انفلونزا
بدأنا
الملاك
المنيا
اشاد
##أهل
##يوبي
ماجستير
بامتياز
خزان
تخطي
الهولندية
##ph
بيشة
##قوس
الداعية
والأدب
##ساتين
أدوية
سويد
الابتدائي
##وكل
السجل
ومواد
ببرنامج
وهران
امتحانات
منحه
الاسئلة
التوجهات
عسى
مادي
تساؤلات
لمصل
اسكت
احتجاجات
والتميز
انتفاضة
يبحثون
تبذلها
اجتياز
بقلم
الموهوبين
اوراق
النقض
مصداقية
واللاعبين
والحل
أكدوا
الملائمة
الرأى
مثالية
مفق
بتمويل
التصرفات
وطالبات
مقولة
أصدره
ودا
والمؤتمرات
المتواصلة
ماكس
الصديقين
وطار
##سميات
انعكس
ومواجهة
أطلقها
الصانع
بخيت
والهلال
تأثيرات
إقليمية
خانة
##ادونا
ومشاكل
أمكن
العقبة
يشتري
الدخان
##صابين
ثرو
عملائها
ابعد
بأمن
##ؤم
##جازي
جامعي
وتحول
وجها
اجتماعيا
تصر
الإشع
المخاط
يشتمل
الدارقطني
ستد
##بالغ
سيدني
شمالي
عصابة
الافكار
المختار
الصدق
##تيالات
ايا
شوال
##يض
الأحرار
##حيي
وآليات
دموع
السبعينات
##سلين
الأخلاقية
حفظهم
لإنجاز
باشرت
انتخابه
معنويات
الدن
النبطية
للنهوض
تبرع
المود
بالذ
هين
استعداده
الخطرة
احدهم
الفضيل
نظمها
يختص
والمشرف
الفلبين
فضائية
يعلق
متعلقة
جماهيره
زى
##ياتية
العلل
أوصى
ونال
ساعدت
الصبيح
متقدم
126
المعتاد
فكأن
صادقة
الحقل
يجعلنا
تويوتا
شيف
ياباني
##قالي
يتسع
المرشحة
يوقف
إخلاء
و9
زملا
سدد
حنين
دمر
xd
قيامه
##شهر
##يرلندي
المجهول
مقدما
شارل
والحر
للفر
يتمنى
هوب
##وريين
الكعبة
##اقته
حسنا
الموجودين
##ستيكية
##جبات
وداع
##مادى
واما
وأبناء
مقترحات
كاتبة
##آني
دواوير
القمع
بالأمس
الاسرائيليين
تصح
الموضة
وأقول
إنذار
##غلين
أصله
والوك
الوقائية
النسيج
لوحظ
لنهائيات
ضيقة
اليونيفيل
الطاقات
##قيقه
تحديا
جميعهم
هادئة
الاسكان
الحفلات
وآخرون
##دنا
بأفضل
لوجه
تربوية
البكتيريا
بعناية
ستيف
بتكريم
البرادعى
##عاطي
كج
يلب
المثيرة
##لافات
معاهد
أعمل
يلقى
sal
##سنط
سق
الأعداد
الآتية
##صريين
تيسير
والدتها
أنواعها
طوني
بالقرار
الانظمة
مسودة
الأهرام
##تمان
توجهت
مناسبات
يام
أوغ
احتواء
النجاحات
كريس
بعينه
أحلى
للكهرباء
ثراه
الاعتذار
تعمد
أقبل
الطبطبائي
##زعاج
الموص
والأب
الحرارية
برأس
الثروات
##تانامو
بامكان
صدمة
العاصفة
إكمال
##ريخ
الصديقة
خلصت
##ابك
ومجتمع
##ورته
المعرفي
ومعنى
##آس
النازحين
##ساق
الخريف
112
الحقبة
اللياقة
الحزبية
##زور
الخبي
اسئلة
نزاع
بواسع
الهج
مقياس
لبث
عوف
##يدو
الهجومية
يبي
الحجاز
##الاة
خصم
والهدف
ومستوى
يتدخل
##ستيان
الحادة
مائ
بافتتاح
غاض
محتمل
الأتراك
المكونات
الكيل
تدريباته
وأكبر
مغني
عان
##غوب
مستوي
قطعا
##تب
احتياجاتهم
متعة
وفور
لأنك
الصدمة
البصرية
وتوظيف
سدير
##ارتنا
برفض
مسيرتها
قرارها
اذن
لقرية
الشيك
الارقام
الطبراني
وجهاز
ابتكار
المقالات
##دول
##شوفة
قضائي
الافراج
بزع
أملاك
تخطط
فاق
الحكاية
##قتك
اللاس
##تمة
ويث
المهاجمين
يميل
1951
يجدون
الحساسة
سيشارك
وتمكين
منعت
ويقدر
يجيد
كالأ
بالحكم
الأسبوعية
تقم
لمستقبل
سويا
نظافة
الهن
الفرز
ديننا
##تتح
##ضبة
الصم
والوا
مقبلة
##tr
تخصصات
##قضي
الأربعين
اشتراك
اشترط
وباقي
باختصار
##بعاده
صحفيا
داوود
##ثوم
تتفق
التفجيرات
بالمرض
بإحدى
##ربيعة
التنظيمي
##ورطين
الانفصال
اال
مطالبهم
المتعاقد
ارهابية
##وسية
إداريا
المذيع
تبن
حريصة
الجثث
الفرض
لمطالب
وأص
الأقرب
العادلة
أهدافه
فعلي
وباكستان
التسمية
والصيانة
لتوزيع
135
وساعد
الأولويات
es
الفرار
الإسلامى
الخصخصة
مستمرا
سيحصل
الحراري
مهنية
وتسلم
##عدلات
أمامنا
النفقات
المبدعين
##شياء
المثير
اثنتين
وتعديل
##وضأ
عمالة
نابلس
نمر
الناجح
##نانير
واخيرا
تفاؤ
##ahm
فردا
لنيل
انشطة
خفيف
حلبة
إقامته
معاملات
الثوب
##خيصة
يحيط
قنديل
توطين
##هون
ستعقد
بالمش
انتظام
ذبح
الأبرياء
##gy
المخضرم
حواجز
أنفس
تنامي
وفع
مجر
يخلو
##حيحيل
لامت
بطلة
حلال
ولع
مستف
تعبيرا
والصناعية
وتأكيد
الباه
والعلمية
مسر
مفاتيح
##ياش
##قبلي
بالتق
العازمى
##طرب
أصبحوا
والفق
استياء
أكان
الخار
الاسماء
حالت
الزائد
##جلسة
##فسار
##ms
الظفرة
##جميع
برأي
والإقليمية
##همت
##ساعدات
يوضع
تمرد
##كث
العذاب
بأنني
هنية
والتحديات
محال
الرؤساء
خاطر
الإذا
حصلوا
بريت
##ey
سرير
عشوائية
سامسون
حاضرا
المصنعة
تسبق
##ستطيع
الاقتراب
لفرض
وبث
جهل
والاتصال
المسموح
سيستمر
##صحى
##سلية
جثمان
سماحة
يصرف
ودخول
العبرية
##هلاوي
العروس
##شاق
للبل
موهبة
بوصفه
##ركه
الاستثنائية
ونجاح
الحوض
توفرها
الاعتقال
ويستخدم
ابنتها
الإبداعية
روان
المديرين
وأقر
##ركت
الفترات
##ard
بدعوى
للطب
بقد
معيض
المتنا
وسيل
لتولي
رفضوا
والمستثمرين
##آد
بدأوا
أكسيد
متهم
زائدة
مهر
حضارة
العمران
رز
شئت
الجزئية
لمدير
اكتساب
يكفل
المحتجين
##بعاثات
sp
##ملتقى
وموقع
أنشئت
للسفر
الرقمي
##ارسال
##حلل
##اليون
نكن
##خو
وفرت
بكال
واقعا
تبث
والفساد
##كثار
قياسيا
المتقاعدين
يرتدي
وحيدا
لتخفيف
الإتحاد
أيديهم
لتحويل
للأزمة
بيض
هب
الاقصى
والإنتاج
##oh
or
عينات
##ؤوا
وقص
لوج
امتد
المقاولات
والاطلاع
يود
وتشارك
الساحلي
الكعبي
2010م
رعاه
بظ
معكم
تنام
نفقات
ويملك
الاستثناء
الظل
آند
##يشان
اشارت
كلب
احساس
مفاجئة
نقي
يكونون
مرسيدس
بأنفسهم
مكافآت
أسطول
وانتهاء
المبعوث
لجعل
المعمارية
يحتاجها
جوف
وهدف
مضادة
##هنات
المطعم
اللوم
المكرمه
يواجهها
ميدالية
والنشاط
المجتمعون
الرفع
الدواجن
للارتقاء
الوع
لارتفاع
مسئول
لوق
المعلن
وعملية
اسمي
المرضية
##نوا
التعديات
المتطرفة
فأت
##رايا
##ميمة
التحفظ
للشاعر
بالقص
الطل
##يدن
اصول
داخله
وإنه
دف
والمعارضة
##بيل
بالتم
وسلوك
##رضين
للمستقبل
إبلاغ
اختلفت
مساعي
هيثم
##هاض
ينكر
الإمبراطور
وتض
وسائر
خطبة
وتعلم
لال
##راطات
##ومن
جسده
1701
نصت
بذلت
أصد
عتيق
فيلي
الأجزاء
تتك
جغرافيا
الافراد
##ذيعة
أدر
وبنك
تنطبق
جوجل
##قده
الصلبة
كنز
شمالا
القات
المتطوعين
بالعم
إجمال
ويتكون
##دبة
أرجو
الانهيار
ريو
ابرزها
لوا
لكشف
متواصل
مبلغا
وقاموا
لقمة
صديقي
وزعت
فأما
يفعله
تشيلي
بقل
##غف
ولاحظ
والعسكرية
ترق
المتعثرة
آنا
اري
##اتيكان
2005م
المكالمات
جوازات
ادنى
وحش
لخلق
شجع
التقد
مسد
العاهل
بكت
المهملة
العنكبوت
تجاريا
الانتقالي
زراعية
النقال
للتخلص
بالبحث
مركزية
يحتفظ
الجاسم
استعمل
وزم
ثقيلة
يفر
تقتل
محدث
ووضعت
bl
##جج
ودفن
##زوير
وصولها
غيابه
والأنظمة
بمزيد
التعاوني
##غرقت
الاثر
فإنني
بالنجاح
علنا
بهاء
اقوى
مستوطنة
114
حمام
بجمع
المعجم
المشهورة
ma
##قوت
نصار
##ورون
تخلص
لمحاولة
الفاصل
تلقائيا
الأوان
الهز
المتصلة
طوارئ
اعتداءات
بعدين
انسح
وتصميم
عزز
النقابية
العدة
يستغرق
خب
أتوقع
صرت
التناقض
الأمسية
بموقع
المدنى
2500
##اتية
بقدرة
تعيشها
ورأت
##كوادر
الإخبارية
فيتامين
يدها
##بيهقي
ونشرت
السمكية
اميل
يعاقب
رفيعة
وناقش
التوبة
تضامن
مذكرات
وفاق
ويساعد
وصدق
##خيم
والتعبير
##74
عمن
فقرات
ببل
للجهاز
بلح
##موس
والاخ
يعرفه
الاخرين
##صادف
التحية
الاحياء
الوسيط
وطنيا
لسوريا
والإداري
نفق
ديلي
الموق
##مائي
الغائب
المطبوعات
العميقة
1930
نفقة
##وردين
بموجبها
العبور
شنت
##لندية
ويعتمد
تتسع
نووي
يطالبون
النون
قالا
أجله
بالمه
النداء
ندى
زلت
المسائية
متفر
منهجية
##فاهية
إسلامي
محذرا
صحته
تأشيرة
##كاديميين
التظاهر
برأسه
والإح
##الفه
##راقة
##عتنا
##ليفه
##جوابات
للاجئين
الخلفي
قدراتهم
الكنيست
فرعية
الاماكن
الصيادين
المنافذ
البكر
ننظر
أنكر
خلقه
البكاء
مهمتها
اتهمت
إضراب
سمة
واصابة
##حيه
العائ
مكثف
برلمانية
داعية
##جته
الحلوة
نحاول
يتعارض
يتراجع
حتم
أجبر
والمهتمين
الفاش
الخاسر
##اليم
230
ملموسة
إلحاقية
بوسط
وأمريكا
##زابيث
حربية
بزمن
انهما
وبف
بحري
وأثر
##اكهة
قتال
##72
##راكمة
مكانتها
الثلاثية
يستخدمون
الميك
جانبي
للرجل
1920
التردد
ندعو
يطمح
1939
ومنتج
كأحد
ووجدت
اطلقت
##ريكة
وتوقف
المستحق
والمعنى
زحلة
##غبات
زا
الازدحام
الشعارات
وتضمنت
واخرى
والحب
بالدخول
##62
##يطانية
وتعهد
ضحك
الظهير
ببن
محيي
مقدمتهم
1936
الكونجرس
العاملون
منزلها
دج
تأثيرها
شبعا
تفرق
الاجمالي
لته
فحين
نادرا
نشرة
الطلابي
بكثافة
تحترم
روحي
ونفذ
الظالم
الأنف
الحافلة
التقديرات
غرق
##وعت
اعتمادها
المستشارين
فيمكن
وإنتاج
اعتبره
يخفى
كأول
أسيوط
شخصيته
لجائزة
وتشهد
الجولان
الأوروبيين
بمدرسة
##ركبات
وبقيت
##شئة
موعدها
ويلز
us
##اكسي
راه
نواجه
وفيات
الهلالية
متبا
الشكوك
الذراع
##رائي
بقليل
والأخرى
داعي
تناقض
الحدودي
رافضا
سعت
تحتفظ
##آنية
وتقاليد
##كتورة
بسيارة
زود
جميلا
بتعليم
##زله
##غور
وأدوات
أكره
الخالق
تامر
بأمراض
والسلطة
##غادرة
بالاشتراك
وجع
جولته
مترو
السداد
الحيدر
قرون
نقف
وناشد
man
##بعها
الفول
عقدة
أناس
1944
##قلاب
##هرت
بالمسؤولية
باز
##ue
للأفراد
الدجاج
##حدي
##كوى
##ذكاء
رئاسية
يتمتعون
يدين
قالها
العمق
الأميري
بموضوع
هوليوود
الشائعة
ريح
الوراء
كوري
##ادون
هرم
المتأخرة
##تدى
سيمون
##ool
##يتة
##uc
الامكانات
##فعه
جاهزية
##ندة
البسط
تجاوب
##ثاث
ومالي
موريت
المحتاجين
يفتتح
الغازية
استراتيجيات
معص
للتغيير
109
الأسترالي
ورأس
الكيماوية
نيوزيلندا
وكلها
المبتعث
بالشر
تتج
البنود
الدخيل
الفضلي
ووطن
سنتر
بنشاط
فقيه
والفني
stat
تستدعي
المعنوي
برأ
فرو
##اسعة
##oun
بيه
الانتقام
الذكاء
تتطلع
لسد
فيسبوك
الخوري
ينال
سيشهد
##ستم
##نتان
رومانيا
فوجئت
لقيام
##73
##أييد
##قاتل
بصنعاء
##شش
تفكيك
بالنفس
لثلاثة
وينب
صربيا
بمطار
برود
وعمرو
##آح
##حاسيس
##هرس
العمد
لإنجاح
الصحراوية
ومازال
أغلقت
اقصى
وقيام
##رافا
وسوق
##احا
المناقصات
للتخطيط
هروب
يتصرف
العنصري
لطلبة
بنظ
تنشأ
1400
احتاج
اكره
زوال
التكوين
ميخ
وورش
القلم
لدورة
##اراتهم
الجانبان
يقين
تدابير
المغناط
إدارته
يحفظه
ومبادئ
##63
ثواب
##عمير
##كلام
وفعاليات
وخمسة
الإغاثة
abd
أعلاه
والستين
تسليط
ليغلق
مراج
وبص
اليونسكو
نسيت
لعبد
##رفان
أمنيا
والسيطرة
##سلو
واول
الخضار
جلس
ترفيهية
بأكملها
مرماه
أجري
الملاحة
الفاضل
ومواقع
فلابد
وطنهم
##دهور
وأربعين
أرقى
العطية
الزوائد
جوزف
الماروني
كيو
أنظار
التعايش
بقر
الكادر
وكثيرا
حلق
وهمية
##راهم
بفرض
موب
سلفا
1940
360
##نقطة
##بيتها
مثلي
دراج
غرام
وتمويل
ضدها
حضارية
تشديد
زمام
فتيات
المضافة
الأجرة
##همها
لوسائل
الشرح
والبلديات
ويحقق
رحلته
المتحدثة
إنتر
بوص
بأحدث
وطبيعة
والمهندس
##كفورت
هزم
شابة
يكثر
خلود
لنحو
أشت
بمهام
يعطى
تاجر
يمشي
أقارب
وتتميز
بالشارقة
ماهي
##شتاين
مجاز
##هائن
##اعى
بشري
ملابسات
المسعود
##بتون
مخاطبة
##سبر
المكث
خضراء
بالعلم
مقالة
و2010
##ساعة
سجلات
للآخرين
ملحة
الجوفية
متناول
نبض
##تلر
##يموقراطية
والجنوب
للاعبي
مساعدا
شريطة
الختامية
فلوريدا
##79
وبالذات
##بلدان
فاعت
##غلت
والفل
انسانية
2011م
ايلي
##قلاع
حارة
##وسني
المتضررة
##ساهمين
لغرض
##71
الفقري
اطراف
113
صوتي
يراها
##باغ
بفترة
un
للناشئين
اسلامية
صادرة
هيفاء
الحاوي
بالطرق
يضيع
والنمو
والتأكيد
##حض
مصمم
والمعن
والمحبة
البعثات
##سوف
وكلية
التخلف
ميركل
وضعتها
##سير
##شددة
فراج
##لايا
مصرى
بالصورة
ملاحقة
شريكا
اتجاهات
ودار
تجسيد
القرون
سلمت
##غش
##اءت
فرعون
بيئية
جاهزا
يقترب
صعدة
الوتر
##جيبة
كلثوم
يتسنى
الاوقاف
##روء
للاستثمارات
الرباعي
تصلح
سيلعب
##ناسبات
##جزين
مجتمعة
للصندوق
منافذ
الصلاحية
##انز
وبالتالى
وخير
هدفي
بابل
مسلمين
تجر
حمض
الاستعم
يستبعد
انتقاله
ليالي
بوصفها
يضحك
الأمراء
##درسون
التامة
محتر
للمقا
الجدران
اى
ودوره
التأمينات
والقانونية
##وادي
العريض
أبنا
والبنك
وردة
##شكالية
مهنا
موسيقي
يوح
المهر
ستاد
الحصر
الحجز
المعماري
##أنا
و19
صابر
طفيفة
وثالث
توعوية
بعضه
انتحاري
بفريق
##ناص
الدنمارك
يعلى
ونز
أمية
بالحديث
تستضيفها
إجماع
الممنوحة
وليبيا
المهلة
اكل
يهودية
هدايا
##تموند
1943
##اتة
لود
عالما
##ئام
ضرو
فتت
تصريحاته
دخلوا
##دار
للجائزة
##ani
احتجاج
مارادونا
متهمين
النضال
الأسس
لاحظت
##ادهم
الغداء
##يلولة
احلام
##شغل
أرادت
##68
واستثمار
حكومتنا
والوطنية
الضبط
انطوان
عريق
##دمج
التساؤلات
رفعها
تلي
والنظ
##كتوريا
فبال
المنتجين
إعلامي
استمرارية
مشيرين
ادارات
إشارات
##وشة
معنية
يسري
دياب
لفترات
المدا
بمق
والشركة
المبرم
##سترول
للمستهلك
لمؤتمر
المحاضر
بتت
##ضاي
ومض
مشاركتهم
ومحد
##كرز
لافتات
قه
##رضاء
الضعيفة
##نده
منطقتي
مفادها
فلت
القاسية
للغاز
تحريم
##مهات
##ازرة
جلوي
النجف
لقبه
الغموض
صدا
الحبيبة
بعقوبة
قائدا
بتأسيس
ولأنه
المصنفة
برزت
طلحة
اخرين
معهما
الصايغ
الاجابة
السكك
يتقاض
بالتج
ويعيش
العريق
والسلوان
المعالج
ومدرسة
تجدد
قبة
الجاليات
مقاتلي
وتوفيت
أموالهم
السقوط
الفريدة
تأثرت
جريج
ردد
خشبة
المخلفات
هيد
متأثرا
##لازل
الإسرائيلى
##اطا
درست
الآمال
الثماني
الخليجيين
رعد
الحري
##ربح
وتحتاج
1941
معقولة
الأمية
هنأ
الزيد
بحديث
وسكون
##ونسو
المحلى
وجائزة
##وتة
انتشارا
##طير
والمدن
مسلح
فنزويلا
للرقابة
128
2012م
210
تنظيمه
وعبدالعزيز
وادى
الشائعات
##رشادات
الفلا
وألف
##عاطف
الابداع
##سور
هتافات
مزورة
تميل
وأفكار
والبنوك
السلك
النمر
##بلات
الحاسمة
الصالات
للغة
الكفر
المناقش
وثاني
وأنتم
أفق
##خطى
والبالغة
دشن
أهالى
اللغوية
فأصبح
القصد
الكاثوليك
ووس
##بعثة
المخلوع
يساوي
وطريق
ضل
والكتابة
الإمكانيات
للاستخدام
##سكا
تفصل
صافية
##يراث
صدري
شريكة
عتبة
بخدمة
والداخلية
ترو
##69
وقواعد
بمحاولة
حدائق
شاهدت
يتزوج
اكتر
##دات
أصدرته
##ؤوب
تسكن
مستوياتها
##أمة
ونحوه
اذار
جلسته
im
جها
ارضه
الاسترالي
غلب
محبي
أبين
وشرك
المرتقب
ابدى
##بقاء
إنتاجه
متميزا
الغوص
منحها
مستغرب
وتذ
وتدمير
أولية
سفره
واعلنت
##شور
اجعل
تضيف
بمقد
المشج
الضيق
##o0
القف
بروتين
##ليلي
التطويرية
##متلكات
الاكتشاف
##مق
التمث
##رزق
الاحيان
عرقلة
القارية
معروفا
لأى
شكله
وجاه
للنمو
كرس
قاعات
وأصدر
##ورتها
سطام
وأقيم
##وفات
الراوي
الخشب
باشر
القلاف
تتواجد
فكرية
رومان
##فاقي
مصرع
اليقين
موجها
الشوك
دستوري
وتحقق
##ليمان
المعلق
الخف
بإعلان
الاكتئاب
قافلة
##7m
الخطير
##وكيا
والتلفزيون
بمبادرة
انتشر
ثلاثي
يرعى
الضاحية
احتفظ
تاني
المقعد
وايران
اللهجة
سعداء
نواة
تصادم
##هق
السباقات
##خرجة
عواصم
##ر1
نود
والظ
وتصدر
المثالية
والإسلامي
تكريس
المستوطنين
العث
##ابتهم
للاحتفال
صلاته
##شهاد
مقره
انعقد
##61
##آتي
تحسب
المطيرى
##قدات
عبدربه
لأحكام
تأكيدا
المريخ
بشارة
والابتعاد
دبلوم
احلى
ذرو
وخفض
إشراك
سيلفا
ريس
المرتفع
التقليد
##وبيس
التأجيل
ملتزم
محفظة
فتقول
فأجاب
لمواكبة
احتفلت
1938
يرج
##هدئة
لوح
##نعت
استدعى
##يادين
الوط
ويأمل
المشروبات
بالمشروع
جنين
أجرت
يكبر
##قلم
النطق
##جزيرة
وضعية
للار
وخبر
اعلامية
كاميرا
ونساء
##حصيل
الجادة
جذور
##كتبه
وذه
الطين
المروري
المحم
لنجاح
وصندوق
سلمى
العابدين
الصفحات
القاري
اخبار
وعلوم
##هنئ
القادرة
بالجن
الرمل
والدور
مرجع
مسك
سمعنا
الإفريقية
مرحبا
عانت
لسكان
##وهرات
اشياء
رمزية
بموافقة
ذكرنا
شهدها
ودبي
السعدي
لاتفاق
عيوب
تحيات
لتعويض
وكندا
رشد
للفت
##حدثة
نفذها
ومخت
تستغل
السفارات
للقيادة
اشتقت
بورت
تكرر
طارئ
المفاجئ
سيطرت
##ذبحة
الحمدان
والتسجيل
الأبرز
الخد
ولف
فيست
تسوي
##رواتيا
تتدخل
الغابة
والاسلامية
مفاجئ
118
عملاقة
للمعارض
تلب
نتي
##وصي
والحن
المقربين
##وتن
تدني
بشمال
احتفالية
2008م
إسناده
متزايد
المدافعين
استفادة
ويتميز
نوايا
##غنى
فقيل
تغيرات
بمشيئة
الاستيعابية
##لياف
تشكيلها
يقابل
وبعده
يستر
دخولها
الرمي
لإمارة
##وثي
##زلنا
والاتفاق
الاعتدال
ديمق
الانتقالات
##أكد
التحديث
التعويضات
مخز
بأسرع
الألباني
الرقص
بالخدمات
استقبلت
ناحيته
التخصيص
##حال
##جمهور
ارامكو
غن
##قاءات
والقرارات
يحيي
التزامات
ارتيا
واستكمال
##ورصة
دفاعا
بالدعم
فائض
وجدة
اوف
##داي
المالكة
فقرة
##قاته
نظرت
وشعبا
إحصاءات
ضياء
الربيعة
إتاحة
الاقليم
##قترحات
العيادات
الداف
السلمان
والأوقاف
قوتها
الأوليم
مركزي
والسن
وعناصر
بالتدخل
يطل
بالدين
احتجاز
##آه
أعم
سكرتير
اليمامة
سيرته
المدعى
التقي
الاكاديمية
##ائرية
أعضائها
##مز
##راضا
اسس
تمو
المناقشات
##بيتهم
ناجح
إنفاق
معالجتها
##ضمون
أزمات
معاد
المجلات
لقياس
تصير
يذ
الشعبين
زكاة
##av
الكراهية
برام
تكبد
عاليه
##تيكية
والمط
القدامى
تبيع
الاحتيا
وطأة
بالفشل
جرب
مختبر
الحافلات
##ضافي
للبحوث
صالات
لاننا
##te
المجاهدين
فرز
الفندقية
فانها
طفرة
تحافظ
بالنفع
علاجه
الاخبار
بولس
الرؤى
والشخصيات
تايلاند
بقبول
تساوي
##وطيد
نبحث
متعلق
صنعت
أري
بنو
متظاهر
تلتها
##وئي
الإخوة
ولديها
رأيي
يصاب
تولت
وحلف
للتقدم
عليهن
وأثنى
الجاهزة
ننت
زد
القنصلية
جمادى
انباء
##اردين
بعينها
##خبر
أنابيب
##we
واختلف
اتساع
مستوياته
##سيس
1425ه
##كنيسة
مقرر
حدودها
آه
##شعار
العلة
طائفية
المقل
ومساندة
مرتك
الصرح
ثبات
##وزي
يتصدر
محايل
اساسية
بموقف
مبينة
والندوات
إبعاد
فكره
الحشرات
معناها
الموجة
منظر
##فيون
العصرية
والرح
عدت
محتاج
تقاعد
متو
والجهد
##آق
تدعي
نؤكد
ولاء
العزل
##تهرت
حساسة
الاقتراحات
وراءه
قاطع
وناصر
يتسم
##آإ
الستينات
##جاد
والدينية
شنو
للفلسطينيين
رعايته
عالمنا
تروي
ديز
وأنظمة
##ثمرت
الصغر
بزعامة
الموقوفين
أيرلندا
اللوج
وبها
##ددين
نيران
البرادعي
بتم
##رفه
جنسيات
وثقافة
و30
يتوفر
الاجتماعى
اهتمامها
قدام
إعلاميا
للتعريف
عينا
ومرة
والديموقراطية
والمعارض
حماة
##ملوا
الإسراع
تحفة
تساء
وشروط
الأراضى
تتنا
أجندة
وباست
امراض
صبح
الباح
##فيلد
رفاق
والشعر
##مئن
تعلمت
ذراع
##حتنا
##وزا
نقرأ
للهلال
رئيسها
ليتمكن
سبعين
270
##جود
المشوار
طريقا
مخب
##ئلا
اتخذتها
ساحات
وعادل
المحاصيل
##رابه
التحديد
تدوير
مردود
إسعاف
للضغط
حرصه
##pp
أننى
صمم
أغلى
كينغ
يقدمون
##حمت
لحملة
شرقا
يغلب
تتصل
فجعل
##ونز
الإسماعيلية
مأساة
الإفريقي
##طنها
انتماء
النقالة
المضاربة
##وظائف
1559
حافة
##خبة
##كست
أسنان
الدنمار
الروحية
##فيس
أجلها
روك
ايهود
المتخ
##وزه
يمارسون
قاع
والأفراد
بكالوريوس
يرأس
متزوج
ملائمة
خيمة
نلاحظ
ومنظمات
دورتموند
مهامها
تغريد
المغل
الغا
وانع
وبعيدا
وصر
الإساءة
نظرنا
المقاهي
الساحات
انتقالية
غرس
##ثني
ومضى
بشخص
السكوت
القابلة
قيادته
وزادت
للجماعة
الشرائح
عمي
gd
بلاتر
تعذر
توفى
مبعوث
بالسلام
وآثار
ماما
إيد
المتفوقين
اختفاء
ايصال
بصمة
ومعت
ودعمه
وتستخدم
مقاطع
القاء
##راطى
اشرف
عثرت
بعشرة
خديجة
زبائن
ردت
الحرجة
##يزان
ايس
والاجتماع
تيمية
عملياتها
الموريت
بشروط
##علامات
للموظفين
ممكنا
برصاص
بالاحساء
صحراء
فالإ
كييف
لجن
النوايا
حرمة
سماه
موجات
##شام
والرد
الفاتيكان
الدرع
الخيام
بأنواع
والعناية
المقاول
وتقل
بجا
##ائده
##الجات
##اهي
تنفذها
الحوافز
##هره
وافت
الابحاث
##احبه
أهلا
فغ
الاقبال
متلازمة
أسبوعيا
الليالي
والمعروف
الخصائص
فأس
الدلالة
التطرق
##آك
التبغ
والطلاب
وتركز
الذكريات
باقة
عمومية
الممتلكات
لبرامج
##جواء
الباري
اوبك
##ابلات
الربحية
والمك
الشغل
##اموس
مسافر
واين
مؤامرة
بارزا
فيرج
وعق
لكثرة
امارة
الأشقاء
يزعم
والمحت
بالعلاقات
##ويز
للاوراق
يطال
الراقي
التصحيح
انط
منتجع
بالقرآن
بخمسة
##سطة
والمسرح
أضافت
واستقراره
والأفكار
أعطت
وآل
التشجيع
التكتل
##يعه
علاوي
يتعرضون
والابتكار
تأي
الرئة
##كاو
نبدأ
مطاعم
تتل
قبلان
ركنية
والصناعات
##آمر
للدموع
نشطاء
الاسر
إجابة
الوحد
استحوذ
مسعد
بكفاءة
دعوته
والمنشآت
وأرد
رياح
برنت
التشاور
باحترام
لمق
ويطالب
ولى
##فتين
وكثرة
والفرق
##ana
أحمدي
لتشغيل
احرز
ريالات
غيرت
1942
أقوم
حكمها
النبيلة
المولود
##ئيلة
القطن
سببه
أندرو
إط
والسفر
أبوابها
فيكتور
وقوانين
لموظفي
وراح
والتوزيع
ميكاني
##اشدة
تتركز
جدل
وبالتحديد
للمادة
إحنا
الهمزة
الغلاف
أعربت
بالطائف
يلق
استهل
الموسوي
بالرصاص
والنقد
البروت
الأعصاب
الذهنية
القويع
ستع
بالقتل
طائ
فوجد
##يانات
والأهلي
##مائه
الترجي
##لاءم
و25
والاحترام
محتوى
توتر
الصامت
للأبحاث
والعين
##ياكل
هيت
السادة
تمث
أمامهم
##ومون
القطارات
##ريفي
هيبة
مبان
ونقص
مؤلم
يستخدمها
ليعود
بالاتفاق
محملة
##وبان
المحس
مصادرة
بحدود
يشهدها
##سنطينة
الحجارة
##dy
سعدان
ابعاد
يتمكنوا
هآرتس
تضرب
وأرجع
حولنا
التحسن
لرؤية
##كارات
لكسب
وواحد
عاملة
فرانكفورت
الفخر
يتك
أفكر
اهد
رضى
الرموز
إيمانا
تمنى
##فك
ليح
سعدون
والحضور
بسوق
يتجزأ
ناقشت
ثقات
وتعيين
260
للجهود
الشامي
أنماط
الإفصاح
مؤسسي
فتن
بالمدرسة
والنفسية
دبا
التهمة
الاجتهاد
لاحد
شيخنا
واقترح
والاستقلال
للاتفاق
البرازيلية
سادت
يفض
وقلب
الأثناء
قاس
بالاه
مطابقة
روني
الباقية
الامطار
غولد
كغير
الفحيحيل
##اتهام
جدلا
##وذكسية
تروح
تفتقر
المحمود
ايش
الحاصلة
مرجعية
مخططات
الشويخ
وثقافية
##تة
بأمانة
الحلفاء
المقابلات
المعقدة
مصابا
##رقل
للمه
للإناث
مكس
والتحقيق
بكتاب
بدائل
##نائنا
القبلة
يتبين
رابح
##والى
الأديب
الحضرية
القارات
الاجنبي
القسام
سيجري
والمشاكل
المشب
q8
وتمكنت
المطلوبين
##انياهو
شعري
تليق
المدرجات
تعبئة
طارئة
مقطع
##لطة
المقطع
لأم
موتورز
مكروه
##ربى
بطي
##ماسي
الزعابي
التقاليد
يؤيد
كاميرات
بالحي
يسافر
والحركة
ستظل
اندونيسيا
كلباء
بالحجارة
تحذير
هكت
العطل
ولاد
الحبي
شبيبة
لبلاده
هبط
والهر
يأمر
بتعزيز
أسهل
سلوف
الحصص
##لهما
وبداية
لمستشفى
وذاك
فريضة
وإصدار
##كيان
الصقور
يرسم
محف
تكتمل
للشروق
خليف
انفصال
وشكرا
وحظ
بداخلها
مصور
##وطني
الزعماء
والاب
أبراج
والمنتخب
مسؤوليات
الساخنة
موظفيها
##ضوعية
##نتهم
ورياض
استنف
كيلوغ
##لهوب
##خصيب
عملوا
الحياتية
التايم
وشبه
وتنتهي
يريده
والبرت
##بيتي
للكاتب
الانتهاكات
وتخرج
ورفضت
الجماهيرية
الاسمنت
كالتالي
دورهم
موته
الكاميرون
sy
وتعب
أستا
محمية
لاستمرار
المخزون
##ساوى
سجلها
##خراجه
مغادر
بشارع
نير
معقول
التسويقية
الاستعمال
ويندوز
بصحبة
السعودة
تحويلها
##قادات
يعرفها
مضاعفات
بالمال
مدينتي
الرميثي
خرق
##ماوي
وبيت
الوهم
المثالي
##شراك
##غول
##kh
العالميين
يجبر
الشراري
##اخستان
فإني
للوضع
قدراته
ارتكبت
للتمويل
هتلر
يدركون
لحسن
فعلية
كيب
و12
والمحافظات
براك
الخاض
فالش
##طاقات
2007م
دمع
انترنا
1934
تقريره
تأت
1427ه
الزين
ومرافق
ووليد
##رضى
ليك
راكب
والفا
ومرا
بروتوكول
اصدق
الدرامية
وإعلان
أروع
اعتزاز
##جله
وفرق
وجهود
سلعة
كرامي
كينيا
المأساة
وتكر
الحنف
تشييد
بدايتها
للمل
مصعب
وجودهم
وممثلي
وعمان
مشرفة
يتز
للعق
حمى
##سار
خطب
##طجية
المبالغة
بكميات
الرخصة
هزيم
ملموس
والعمرة
أثينا
شان
##ادسية
المعتصمين
قاص
رشح
هطول
لتأكيد
الاضطراب
لانهم
سمات
وأساليب
خريج
##كسير
إدارتها
بممارسة
وتجنب
مستثمر
##خلاء
المتواجدة
وستت
انعكاسات
sam
بدوري
بالإنابة
مسبق
تصدى
التنموي
امرا
##بطي
الأعداء
إناث
ميلا
moham
سيواجه
وأداء
##ريلان
اكتفى
ترشيد
بقضية
لتست
تفجيرات
نعود
الوافد
تنشط
يحمله
مدعومة
وعملت
لمشاهدة
أحت
##ادير
##حوادث
إحداهما
شفا
غلو
##نياء
الباز
ادري
يوصف
خف
يتقبل
##بنها
بالمعنى
وأثبت
الناطقة
انقسام
الخزينة
سياحي
وسياسية
عقله
##بثقة
المضيف
تركية
سواه
الحوسني
مشاريعها
##ورنت
ضدهم
قانونيا
الفلوجة
تعقيدا
##واته
بالعيد
إضافي
##كرام
لكى
ملعقة
وتعريف
بسرطان
أوي
صدره
كيميائية
منزلا
والخبرة
وتقبل
والبا
لحج
المكثفة
##وريس
لافي
الجاسر
123
تهدئة
بره
##لكه
الطول
##يدالية
ومكاتب
والسلع
##أكيد
والور
وايت
عبدالواحد
ليرت
مجهزة
##سابيع
البولندي
مجاورة
شط
وآسيا
320
فآت
مواز
##علة
وقيمة
للسياسة
المريضة
للعلم
الاقتصادات
والمتمثلة
132
##وعها
##وتنا
فيروز
##ليما
والبنات
الإثارة
الاشياء
احتفالا
وتذكر
غالية
الاجراء
بالبيت
ومحافظ
اجر
وتجديد
صناعات
قارة
ناخ
ويطلق
مراق
واستطرد
بيتي
سامية
##وياء
##يزو
مشتركا
##نث
بالكلية
والاعتداء
##ماسية
المصور
والقتل
المواعيد
افتقد
ضحيتها
وجبات
المصحف
138
##شييد
##تال
انتساب
ويلتقي
تشريع
وراءها
أبدت
والاعتماد
ايجابيا
الماشية
اغنية
نبينا
المسافر
جهنم
عقلية
الراد
##وجات
شاملا
وتولى
سيظل
لوبي
ارها
بثقة
روابط
القفز
وتقدر
بالعد
ليبلغ
الحاجات
مستهل
كهذه
قلم
##وبها
امتصاص
الفوزان
##زياء
اقتراحات
عينها
##طمئن
مصلح
وعلاقات
حينه
##ook
نقدا
الأسترالية
مصرفية
مقرن
انضمت
وتزويد
كوز
سيحدث
دورتها
الوسطية
2009م
السلوكيات
والشفافية
التحولات
حالا
ماا
قدرا
يونغ
شبابنا
النيجيري
السوء
أرت
وحدد
دايم
نضال
المخلصين
##ell
للوحدة
وسنة
تأكل
عائض
عواض
الاندون
الركبة
فعليه
شائعة
280
الأسف
الصمود
ومازالت
الحفظ
موص
رؤى
طبعة
فكري
الكش
تتطور
باق
التقديرية
بالاتصال
فسر
بالمجتمع
ومتن
##مدد
كريكت
كويس
مثم
##سابقين
خرجوا
##صيلا
مثلت
موريتانيا
##نصر
الفحم
تجب
بلدهم
##وول
##لالها
بروز
##درد
الورقية
خلاصة
مناسك
صحيا
تكامل
النصاب
لاشك
معني
وحيدة
الدرد
تتخ
اثبتت
والآداب
أوقفت
بإج
العدواني
بتصميم
بمفر
لعضوية
##جدا
##سيكية
بمفهوم
والاصلاح
سينمائي
المهيري
للملك
نصح
مهرجانات
التزامها
وبفضل
الخريطة
العينين
مولودية
للمستشفى
والرقابة
والأخير
لشبكة
##قيفية
شرعت
جانبية
وظروف
الشاط
اتخاذها
تأسيسه
بيوتهم
محركات
مجزرة
موضوعا
الموضوعة
##يروني
##ليله
فرقا
تضخم
بمستقبل
##زيئات
وفوق
##مائر
أخطأ
النشيد
الوصية
مدروسة
سمعته
##ef
العزم
بالإجماع
و199
الجدوى
الصدقة
وبمشاركة
أمو
أبت
يحلم
والفوز
والضغط
ويكفي
الشجاعة
التجسس
##واعه
باذن
تستوعب
يتل
وبذل
والدخول
أجرته
اخطاء
تير
للتط
وعنه
الرسمى
حاملا
علاقاتها
يرضي
اواخر
تجتمع
وأدت
عميل
إمكانيات
اعتقاده
مبتكرة
خاطئ
المؤامرة
حدثا
ضعيفا
1919
لأهمية
يحكي
ورؤ
فرانسيسكو
الأخت
##دتهم
وبالتعاون
معبد
الضمانات
الليبرالية
##هدة
##دمي
والترفيه
غابت
يتف
منتشرة
ومديري
ميدانيا
عمدة
كحد
باقى
واعتبار
تركها
للاجتماع
عساكر
وإزالة
يشوف
لتسليم
الكترونية
رع
كوبر
ويؤدي
يبقي
وتحدثت
##وطي
فوت
ازدادت
##زلاق
بالاد
مستقر
المسكن
للتراث
إطلاقا
أردنا
اسعد
شهرية
الغازات
للمدارس
الحشيش
ذروة
##مرير
تقترب
زوجتي
سبقه
احتيا
والموظفين
غلق
القبة
فهى
##رقات
أدائها
الدفاعي
يستوعب
175
نون
أعيش
##الع
التحويل
##معاء
##زقة
غادرت
والمواصلات
أمينا
ينسب
طالبوا
جامعية
اهت
الآلات
وجعلها
وأغلق
تتب
والعملية
الفريد
للدعوة
تعطى
البرونزية
عزت
فاي
للمعرض
يغني
القطعة
تباطؤ
وظهرت
##طانية
وقدر
الدافع
بالتحقيق
والاستعداد
##زيهة
وأفريقيا
الراعية
##ريته
البرق
مبررات
الفضيلة
ذكري
أبسط
والجهود
المنبر
مرعي
للدين
حبوب
الشافعية
ملاح
ومحت
التصاميم
أتحدث
اعماله
أينما
وقيادة
1929
مبديا
مفه
بكرا
هود
##وراء
البك
##كرمة
ورسم
والرف
ساخنة
كيد
التحصيل
بوادر
سوءا
اسرع
ونقول
المنزلي
تتح
وشخص
يحبون
لأخذ
بالدولار
##ev
قارب
المتش
والمعايير
الشاطر
تنم
اثبات
الأهالى
ايرادات
زور
العمانية
للفصل
مسرحي
والتغيير
المعبر
وثمة
تواصلت
ينمو
ووجهت
اهمها
خيبر
تفاع
وشي
موانئ
##ئوي
قواتها
وطالبوا
والباحثين
صريحة
عجب
الحبل
وحافظ
بيتنا
وأخرج
الزرقاء
حضورها
عاصفة
##قتله
الهرب
وإصلاح
كوسيلة
احر
##اهرا
المضمون
قلبية
مؤهلة
##100
عدسة
وشاركت
##لاقيات
وبدلا
والمهني
للطالبات
الباعة
تتوافق
لبريطانيا
ضاب
الريادة
ومقرها
إبرام
الحماس
##هال
تحتية
لمحاربة
وكلاهما
الايرادات
الشوق
حفلة
للتسوق
للاكتتاب
شكري
الوعود
سعيدا
##وافد
تضافر
لخفض
العرس
قرعة
محللون
##ماطم
يرك
##ty
خطيب
بقيام
الهيكلة
##سبير
عوضا
الاسترالية
الصوفية
حضروا
الماجد
جيه
فالق
##رصفة
ومستشفى
خامسا
ظهره
العناوين
لحكم
المباراتين
بالإدارة
وترسيخ
ماير
أهميتها
سعره
للأم
التسعينيات
وللا
بالتر
سوني
والعضو
الاحتفالية
و14
ذياب
والنز
بالبط
للتنس
صدم
الفتاوى
للمقاومة
التنس
لوالد
وآخرين
باللعب
مصاريف
نتانياهو
نابولي
والاستثمارية
الألفاظ
التقيد
الادوية
لجذب
كوميدي
لكتاب
فأمر
لقسم
كادت
الفقرات
ودك
السرير
##تري
##عمرة
ونست
أفعل
طولها
لتأهيل
المخدرة
##انينا
الجنائ
وتوجد
صا
##طيور
تراوحت
أنقذ
للوكالة
##ائله
بالتحديد
ينافس
أمد
يعجب
الرفيع
ماريو
اصابته
كروز
##اكيا
##غلي
أثير
##جندة
الطفرة
يتغمد
جليا
القريات
الأجسام
الأقوى
لضم
اكيد
جواهر
##عيها
لشغل
أجرتها
الأصيل
مرونة
والوسط
الاجمالية
كوني
ويتحدث
وعدت
عبدالملك
تسهيلات
1937
حليب
الإنتخ
##eed
ولإ
##هاها
الكردي
خلت
بأح
القلبية
للموقع
الآبار
أصب
ومستشار
##ندى
الهيث
الألقاب
المآ
هاتفية
للمدرب
هدفنا
أعباء
بتخصيص
لمشاركة
التشيكي
حاملة
لإزالة
للمواصفات
الكفار
##ساه
جاره
للجزائر
الضعفاء
بالانتخابات
##خائر
وظلت
الزا
اسفر
مفيدا
جويلية
وسدد
التقط
مصالحها
الذروة
تنزل
المتتالية
الملاح
انور
معار
##كتها
أغراض
عبئا
نأخذ
##طفولة
##فيو
مكتوبة
بالوقوف
##يترز
يوحي
وأمل
##وهان
وسفير
الشعي
للبدء
تجيب
وهدد
التلفاز
##طلت
للنشر
الصخور
يؤمنون
معدودة
ستخ
##تهاك
القاضية
البئر
اتل
145
المهنا
دافعا
اوقات
ولست
الضارة
المجانية
تكثر
##da
وأقل
مخزون
البتروكيماويات
شرطي
وشخصيات
المرئي
إسناد
##اذب
بدايته
ومدة
الذمة
اجد
تنعكس
خطابات
راش
##زازي
وصححه
العيب
الحقول
تقتضي
122
كلمه
الملازم
القمامة
##اتك
بنغازي
##انيون
##ويري
قادرون
لتوسيع
##اريوهات
برؤية
سنتا
الدمج
##كراه
محقق
فتكون
معلما
السكة
الموتى
معقل
استلم
المعتادة
التحضيرات
ونواب
للأب
الرئيسى
التايل
ووحد
شريفة
لصد
النعمة
وزار
##عوبات
تكاف
المذنب
أسأل
ويحتوي
شفاء
المختبرات
المنشودة
والبيهقي
للعمليات
قذائف
زام
الخادمة
##ذهبية
ومعن
##حتك
حمله
عظيما
السنتين
ثقل
لأحمد
جنايات
شرو
يكف
متوجها
##كيز
المحاولة
مجتمعات
السويدية
انتهاكات
الآمن
محققا
الشروع
تقدموا
يمثله
البدني
أصح
وحماس
مختصة
اردوغان
كتيبة
فأين
بمعرفة
تحفيظ
ياع
الاستمتاع
وعبدالرحمن
خاف
فضيل
والمالي
اقرأ
ختم
ومغ
وإضافة
اشعر
الإشارات
وأطفال
مشاعل
يثق
الموف
يجز
اجمع
مزاج
##سكريين
مناقشات
ويوضح
واستغرب
والرياضية
للبط
بكركي
الاحتمالات
ودعمها
المرتبط
##ti
والدار
##سوارات
فرناندو
ستر
المزاج
كارول
القاط
الثوابت
وإعلام
الفتاح
بالإمكان
##ألوف
الشواطئ
ودائما
ألت
##صه
كهذا
دراجة
للمواد
والثقة
الاسود
لطالما
ومعايير
الأسبوعي
سواحل
ac
عطف
وضد
اسأل
زالوا
تشر
مواضع
وبعدين
##وهاج
1933
المارونية
جبير
الاهالي
المتطرفين
وإلغاء
لصندوق
وأظهر
والتوجه
##نعان
اجتمعت
ضواحي
والوضع
##طعنا
سمر
##يمقراطية
والاكت
يتألف
##طورة
لحوم
معرضا
اللؤلؤ
##خبرة
ببلدية
لشرح
##لكا
بمسؤول
الإغريق
السوفيت
التشا
المكتوبة
الكرو
المتفجرات
نوح
يؤدى
تواجده
##ity
1918
اسفرت
التقارب
موسمين
سلبيات
أرضا
##لتها
ينهي
إيراني
عواطف
con
##pl
تندرج
المساهمات
والمشروع
والمصالح
##سمم
##لافيا
والصلاة
##هائي
##سمات
##ائزين
خلدون
للصناعة
1932
ارقام
بالخبر
رفحاء
وخصص
التوس
الستين
##فيدين
إسباني
أمطار
المصابة
العطلة
بقرية
الملحة
أسست
الغطاء
أضيف
##ثلث
مخالفا
بته
##كدس
لنكولن
المدمرة
الضوئية
تخلي
خيطان
المستقبلي
هجمة
بالأعمال
حسابه
التمهيدية
119
الغزالي
رجالا
والظروف
المزرعة
راديو
الحراس
واخذ
##باخ
بأيدي
##مركز
ولق
##ليمي
الموضوعية
##ينيو
فيلمه
##ياغ
ونف
زلنا
ومكتب
يحتاجه
الاصلاحات
فمنذ
حفلا
لضرب
للذين
##شئ
##كسر
طباعة
##sam
النسيان
تنطوي
بشهر
ويقولون
##اديش
للحضور
##وردي
##بتنا
وطرد
##يمات
مرفوض
وينبغي
العزي
معجب
ترتكز
إرهاب
كويكبات
مفض
الفيدرالية
وجار
اجرى
الامتياز
انشغال
وحياة
ميجا
اطلاع
##غله
أكيد
متأخرا
##صارف
الرازي
سفراء
فلسطينيا
شبهة
اصاب
الرقي
مدرجة
يشاركون
قيامها
تختص
لإصلاح
إنتاجية
med
أمرنا
للزراعة
يراقب
الإضافية
ورغبة
قسط
والتمويل
الأورام
بوسع
##صبه
احدا
للمعارضة
شقيقة
##ونالد
التسع
##قصود
أتذكر
الإحصاءات
كلفت
التساؤل
وتغير
رسام
باللون
يجت
معبرا
وأماكن
ثقافيا
المشير
بأصوات
باتريك
والحاكم
والتقنيات
##واجية
##وافذ
##وارها
لدعوة
##جدة
والجميع
وخروج
يدوية
والإرهاب
لعزلة
الاسكندرية
وتعتمد
استغرق
للمق
الإطفاء
سيح
احتكار
##جزت
التموين
تعين
نصيحة
الميثاق
متوفرة
##وزيل
للتدخل
الصليبخات
ولهم
الهيمنة
اكمل
يوجب
##رائض
ينتشر
باختلاف
سوم
وفازت
حضاري
الفورية
##جيلا
سارت
أبوه
بلادها
الرجاء
مواطنيها
اون
دولا
الجنادرية
أدائه
##ضرة
ويشار
لفحص
والامن
المفس
الماز
اتفاقات
التعصب
أزم
خوا
##بعية
يفضلون
جنوبا
للأسهم
اتصلت
ومعها
يعترض
##ليفزيونية
يحرك
البيزن
أسهمت
والعلماء
وكسب
تجس
عظام
مراف
الممر
أسهمها
قصيد
صينية
ماض
باليد
الصعيدين
عواقب
زفاف
الكامنة
المعزول
قدمنا
##زاد
##جدية
تايوان
الراء
##كلت
الملحم
##منيوم
يملكها
عوده
صان
العطار
##سمان
وزارتي
وقدرة
تباعا
للمستخدم
كلاما
وبمو
لهجوم
وتجدر
##eek
الفضة
##روسين
##alahwa
##يلتون
وصيف
فوزية
نفذتها
ويوفر
موسوعة
لند
يعشق
أزياء
الشريفة
المنشورة
ترتب
و50
بديع
التزم
تلجأ
بولت
الميليشيات
للأمير
alm
2030
باسل
##بايل
تشكلت
##ابور
التنظيمات
استحسان
جلالة
##غيان
مدته
عمدا
كط
##صلب
لتجاوز
مراجع
والنواب
الحصان
##عده
بنز
المتورطين
معلمة
##دع
##ترين
جرين
تسديدة
التنفيذيين
##ماض
لإصدار
غلوم
الكويكب
ادراج
اليمنيين
خضم
يديم
نهايته
ابتسم
اللغوي
الحثيث
الافلام
موريس
بالعين
بالاج
خبرا
مباشرا
بالصد
وجهك
الشيوعية
والإشراف
1600
صيغ
رجلي
##عاطى
##سرين
المسؤوليات
العوائق
للعرب
##رعان
للفرد
الأنفاق
لحالة
جنة
والمهارات
مرفوعا
##يلت
فآتحة
مرم
2004م
ويحتمل
والرجل
السعيدة
الدبابات
يولي
نفكر
المطرب
نافيا
الذرة
الحاليين
3alahwa
ودرس
##كش
متكررة
باحثون
##امش
تلحق
يوصل
العلمانية
ثمنها
والخبر
##زلج
آلآ
##غاز
بالعراق
##عادتها
##فاوة
##يجابية
والتفاعل
عبدالغني
و11
والمحلية
الاعوام
بى
للهجوم
##ran
بالتوفيق
لافروف
الطرد
اهتمامات
إصدارات
##ضاوي
والمستشفيات
إدانة
تتألف
المشاورات
القافلة
ليث
لبي
واجت
بحركة
وكات
اجريت
بترتيب
لحديث
##طيه
##gh
انج
القصيبي
للفق
ايمن
للمرور
أذهان
يلبي
الجني
وفكر
عقيد
المذاهب
امانة
معلقة
المبتكرة
بارد
المتدربين
ناسا
1935
تطهير
الجزائية
سيبويه
معلق
والقط
##est
السقف
كثيف
لطفي
سقطوا
##ياطة
فراق
##روحيات
ميامي
أمرت
المعدية
ووضعها
لغيره
باستقبال
##q8
القتيل
يومه
##وءة
تنظيمها
##ناوي
اوك
النافذة
وبنات
وتحرير
ركعتين
الحاجز
يأتون
كاميرون
تفك
تخصيب
والعالمي
الراجح
المتج
المختبر
رقيب
فاح
بالمقابل
بسعة
والنتائج
علوي
البني
استفزاز
استغرقت
سعوديين
prt
تقصير
الفائقة
التخفيض
ليو
سياسى
مخلفات
ذكرته
خآت
##غون
يرضى
لوت
القعدة
المعز
gl
قطب
وحالة
البدري
غون
متجر
مجموعته
بهية
##ضخم
ملء
الغدة
##ضاه
املاك
تدار
قائل
##اءة
احتجاجية
تبكي
لاستغلال
سيرج
عزام
الحسم
##نتج
##اثون
خآتمة
لمصالح
بيريز
##ققة
##خرون
الاقتصاديين
الطباعة
ذوات
حافزا
السوفياتي
آمل
##ؤس
مرشحة
والجامعة
بتسجيله
بيو
يشرح
تند
##يتهما
ترجم
##ابطين
تجت
غبار
امثال
1424ه
الإيرانيين
البيشي
والشراء
اوي
تأدية
مرآة
##كدة
الحنين
متمس
##وفيا
وصولهم
مجرة
بأخذ
1432ه
مرشحي
جئت
وتقد
والمنافسة
عقيدة
خفي
##رحى
اعترفت
اظهرت
جموع
جعلته
بانتظام
السهر
وسقط
بلوم
##حاطة
##uw
##رمينيا
تحر
للإحصاء
صواب
ميخائيل
وقوى
سكة
أبنائنا
##سبي
فالك
عقلي
الفقير
القرصنة
الأبيات
المنشطات
وترب
##كارم
وتركيب
##يمباب
الموطأ
نبه
##خرجات
124
وبالإضافة
حصتها
بالدي
بسجن
##باش
أدا
وتصبح
مؤلمة
لئلا
وتلبية
المكافأة
##شاركات
الموضع
احدهما
شبح
وامام
فيدر
وأربعة
سلمي
الجدية
وزميل
بقدرات
قسمين
##oy
وموقف
متأكد
##سيقية
##راعا
ممثلو
أمسية
فسيكون
غش
##وكاسل
المحدث
بمراجعة
الخطبة
السورة
الإحت
وضعنا
حجمه
لنفسها
ذاتي
للنائب
القائمون
##ثمين
##طربة
وأهمها
الجسور
ضروريا
الرمز
##بداعي
والسكان
##طفة
##oon
##ولوا
ويتابع
عمادة
التسلل
لايع
التجريبية
منتظمة
للإعلان
ساع
##جبة
الكروى
تختار
بحقهم
الرطوبة
المعلمة
عبء
تصويره
هارت
وأسباب
الضباب
بالإسكندرية
بعام
##نو
الكافر
تهاني
التخزين
والهندسة
والحذر
بلفظه
بالبشر
بمرحلة
رافق
غزل
والسر
وأث
بأى
وزو
لألعاب
لانتخاب
الهرمون
يرمي
##zz
الازمات
رتويت
تضيع
مملوكة
##كتفي
قيادتنا
للمشاركين
الدستورى
##فيهي
التحركات
الاسرى
موقعة
غنيم
يتس
ووصفت
طبيعتها
السماوية
وصورة
والتعريف
إحصائيات
علة
##كلمة
وجورج
تخوف
مزودة
##ناب
ينادي
الواعدة
حالها
يزالون
المنذر
كابتن
نبت
فالي
واردات
صوتها
قتيبة
لاسباب
استقدام
والمطاعم
آم
سفيرا
شرحا
والتوسع
نتم
للتصويت
الفدرالي
##ial
بسيا
طالع
للوزير
حلوه
مفع
##يغو
فقل
##لد
لايف
الدارسين
لهدف
مستد
سرحان
تحدي
استطلاعات
جاذبية
العيار
##كاوي
صاغ
مائدة
الرماية
شلون
فهما
منو
لإحدى
يسود
##لكي
رغبتها
##ex
الاطفاء
معوقات
تنبيه
الحرير
أثرا
نعاني
الكسندر
##ضمنة
اقتحم
ابا
##ضاعفة
ملتزمة
مزاولة
133
والالت
وأصدرت
عمرك
ابنتي
الاختراع
موكب
والوزراء
ناخب
أفت
الشياطين
ولمن
لإثبات
مشاورات
##ائقة
واعداد
مغادرته
بأعلى
165
افلام
الكفاية
بالعربية
يكسب
مغربي
وأخبر
تين
فبد
##جمهر
##أكل
تجي
ارتبط
المفاصل
وجماعة
تناولها
الثلج
وأسلوب
حيل
أعماق
أجرة
عمود
لاحقة
البرمجيات
##هاا
للقر
الجيوش
ملحق
جسيمة
صداقة
الهفوف
وانشاء
مقالا
لمراجعة
البولي
القنبلة
جرعة
##الوا
الشبابي
الموالية
والمتن
لطب
منطقية
تيري
المتلقي
وجمهورية
##ائكة
وظهور
الوداع
الخادم
للاشت
مهاجمة
أفرادها
التاجر
ذرة
سؤ
والتربوية
بالاش
الكرب
تعذيب
ولآ
وافد
والغريب
##الكه
المكافآت
الشمل
وتوحيد
يرفضون
الأكراد
والنظر
لاستيعاب
##كتاتورية
انظمة
ثمنا
بالشأن
مصالحهم
والسيارات
متصلة
زينة
##ئران
عاف
النقود
كفيلة
الماك
أرادوا
##وصف
للجماهير
جيان
غادة
اختيارها
المهمات
المنظور
يتنافس
ينظرون
العصابة
الطيبين
اقامته
يلعبون
يهودي
المتداول
باتفاق
##قدين
دينهم
الارجنتين
إلكتروني
تعميق
##عاده
محو
المساعي
كلود
##bs
والتسامح
مغلق
حرمان
المعاهدة
خامن
بالقيام
بابن
مواقفه
##وطان
وجهي
ناتج
##دعاء
التحريض
كآ
وعاش
وحرم
بحسن
وإنهاء
وتمن
##واتها
الاستيراد
لسياسة
المخصصات
المعين
غوانتانامو
اتمام
وسبب
##اشي
##متين
وعندها
المقدرة
ومواصلة
لثلاث
والوفاء
لقناة
##اتباع
اعض
ذب
امله
##يفين
المراقبون
شيد
السفلي
القويعية
تسعين
كالح
تتراجع
إنشا
باستعمال
أشر
والقص
اقناع
النعمان
بزم
متروك
المظهر
المنعم
مدتها
الفيفي
حارب
يمسك
##غلة
الساق
اذاعة
الاستدلال
##ليغ
##حدود
الخوار
التصور
تدافع
الكال
يخبر
الاماراتية
العوائد
##وارت
دعاة
فرنجية
ليقوم
وعددا
وموضوع
بيانه
ضئيلة
لتط
ويواجه
مصممة
الصومالية
مؤتمرات
سويت
جنائية
لايت
كهربائي
تابعت
جولي
الجفاف
خاضها
مميزات
للقرار
مصيره
العنزى
##ورتي
الآلة
ودخلت
وأحب
بعضهما
##ناهج
أصدقائه
اعتماده
مبي
للمص
وحينما
كوست
يحوي
الرمادي
بالعكس
ارجاء
تتد
ادع
##ضبان
بواجب
آمنا
المواشي
أعمدة
##حرام
تلتقي
الائتماني
الواد
محمول
##غتون
كفاء
1923
اخذت
تتكلم
تخوض
تلام
الاستاد
##ستراليا
وتخفيف
بالاهتمام
للمريض
والصور
كاهل
والمواقع
##خاري
ودولية
ويشهد
البارزين
ثوان
جوع
سيصل
##فرات
ينفق
تفويض
الاصابات
للمعاقين
إقامتها
دمرت
اشك
العينة
فخرج
موضوعية
قولا
##كينة
يخفف
استقرت
##واش
الداخ
السيئ
الاهمية
ذوق
وفضل
والشاعر
خت
##يرس
مبدئيا
الجسدية
الفاسدة
غداة
وسبع
##سترا
المتابع
يمضي
والموارد
دوافع
أئمة
مرتضى
للابت
وحدهم
الإبراهيم
السفراء
بشتى
والحكمة
الرواد
الخالدية
الإسماعيلي
تنفيذية
اولئك
دما
لدن
جمعها
اضطرت
والمقيم
الحقائب
للصف
##كلغ
##عيينات
المظاهر
طوق
فصائل
المائي
سيصبح
بانفجار
الجعفري
##بحث
155
نؤمن
شبيب
مكرر
##ينتين
وترا
الإنذار
أثنى
1931
ميسرة
الرياضات
دفعها
أوجد
##كتلندي
ستوك
شفافية
والقلق
أعطي
يلتفت
وظيفته
الإصرار
##قبت
الإنماء
أصبحنا
رعى
حقنا
الاسعاف
الدمش
بوفاة
الحوثيين
الاسابيع
بحثت
الملقب
والامارات
وفج
يرأسها
الرئيسيين
الحنفية
يضيق
لقول
لمنح
عصره
ابها
جنسيا
يبكي
المقاولون
للتسجيل
لبيان
##ذبات
والبنية
عداد
إيجابا
الكلوي
##انق
##جس
الأمامية
لسانه
الريس
وعددهم
المفاوض
ومعدات
البقمي
الشهرين
ومساحتها
فاننا
وينتهي
النجاة
ببطء
تؤيد
أمضى
التنبؤ
وفشل
أصابت
بيعه
والصف
بشهادة
لإيران
دلوقتي
ليشمل
الدعا
380
ورجاله
دافيد
شوطا
##تاح
##سيقي
مشاجرة
سيدنا
ستجد
صفا
كنعان
والصيد
وآلية
وجودة
تبنت
إنكار
والإعلان
شرطا
المحترفة
لأد
طرفي
للرا
السيسي
علبة
العبر
الورش
تعليمه
يانغ
##لفل
عضلات
##aal
والحرب
##يعوت
سيجعل
عائلية
أسف
الظرف
الفيروسات
ومخرج
تحرم
لانشاء
الموروث
تؤخذ
ساعه
##نفس
وإعطاء
الماليزية
واحتياجات
##يثان
حجي
إهمال
يمكنني
الفتى
السطحية
وقادة
سيناقش
فارت
متساوية
المثلى
##راهة
علقت
متنها
at
نعد
ملل
##كود
بمص
ومشت
نفعل
والفقر
المناعي
الإمكان
الفردوس
والديمقراطية
بعدا
المسنين
للطالب
الورم
صبيا
الدائر
معلنة
تبقي
النموذجية
الصلوات
##غيلي
والسماح
والمعلمات
يواجهون
تولد
مضاف
مصحو
وطلاب
والأسواق
فاتورة
وخلف
والمواقف
لنشاط
ويعرض
يوحنا
121
بالوق
##حاط
تغذية
قياد
واسرائيل
تحرر
وشعبها
##وصيل
شروق
لرويترز
والتعديل
حملها
قهر
##طرأ
##di
المأكولات
الحصانة
فكرت
##طرت
##وائها
قواته
ويدفع
##يفون
للتصدي
روسية
الأسمنت
وعليها
##وسه
تتضح
لانتاج
مدع
تشريعات
##لاجة
أسبانيا
الكتيبة
قبلت
تشاهد
المراهقين
الروائية
##لفيا
بالسلاح
المتحرك
ستجري
وحر
مخدرات
محققة
##يغ
التهريب
##انئ
بجز
الملام
ومعا
لتسوية
الالتزامات
##علمة
##اضل
والعقل
##وابع
أدار
فالب
واستبدال
خوجة
وأكدوا
والعمر
مخصصات
حاجته
عراقيين
يقم
اعمالها
##ist
وتسمى
لرد
يشهده
##ss
##بله
تعرضها
##رويت
يحصلون
وتدور
الديار
ينضم
والتفكير
ويسمى
والتأمين
عربة
مصاد
والمهنية
مسلما
التوجيهات
وصرف
##ولوجيات
حصولها
متصدر
الأعراف
حكايات
تحري
المستعملة
يلزمه
سلوكيات
والحقوق
تكره
بمقت
##اسع
ثانوي
الاختلافات
وبير
##وروغواي
شيخه
والجدير
اعتباره
التنقيب
ينتقد
فكما
تضاعف
خلع
والرأي
النخل
مساحته
##منون
مضاد
##ويسرا
وباسم
مبررا
والارشاد
##ضج
التاج
الحديدة
النشرة
وتأسيس
##بلور
##راعنة
1928
عياد
الثقفي
للفرق
المتواجدين
نحوه
إبقاء
انسحب
مفاجآت
أوق
كريستيانو
##ضوا
##عدوا
المدخ
حجب
الملاحظة
لأخ
تلقيه
##رابعة
المسيب
استئصال
صلبة
هوكي
إلحاق
##وناكو
كونج
والكلام
للأد
الأصعدة
باعتماد
وخاض
للأح
عسل
الصافية
وكتبت
##ذارات
##بئ
التوك
برتبة
تبارك
نادية
المغادرة
بصدق
الغزل
غينيا
تسريع
ومائة
حبك
الأذن
225
شذرات
والخطط
بحوزته
الانصار
الملل
بعلم
##يلاند
##برج
##فتهم
تخلى
وجزء
الأعياد
##سيكو
افر
تزامنا
الحامل
وعادت
مقتنع
العجمى
طاعة
##ge
##up
يديعوت
رشا
توافد
##مائها
والفكرية
ميداليات
المتابعين
مدنيا
تلاعب
##ادلفيا
حديثي
بالتش
رحيله
مسيحي
زائ
الاقامة
الأفغاني
شجاع
##صرين
اشترك
##هاجمة
تعبيره
##ill
معتقل
يستحقون
عازف
موك
اشتراط
فوزها
ودوليا
الحازمي
ومراجعة
احتياطي
موضي
##صامات
النباتية
سيخوض
##ينك
طيور
بمنا
خطيرا
الثمانينيات
عرفنا
أوروبي
##موا
رسوله
ضبطت
la
الدعيج
أعادت
##ari
تزامن
ياج
القرم
سياستها
أنام
انفتاح
المصروفات
ولده
رياضيات
لمجتمع
تغني
يطول
عارضة
الحراسة
جاهدة
المعرفية
##راجعت
144
##شيحات
وسبعين
إحت
تها
ترقية
عاوز
متزايدة
أذربيجان
بنص
وعروض
أيه
والشوارع
الفواكه
##وابير
حيوانات
##رحل
الراية
رؤيتها
أروقة
سخر
550
ترم
##جتهم
تجمعات
آثارها
يحسم
البقر
التأثيرات
##متك
##شفة
وحكوم
الفقهية
المحكوم
متفائل
بتكليف
جور
فبعض
المصاحب
يحتفل
المنطقي
الآلام
##طيح
اصدرت
الدال
أحدها
##خدير
آمين
330
المرفوعة
##الص
بالفترة
والثانوية
##جتين
المقومات
وسيس
وحدثنا
قومي
##طهاد
##هاينة
الزه
ترحيل
ولأول
ولنا
##يابا
الصليبية
غارة
##بتها
المنشور
روحه
للمسؤولين
وفيصل
ورائ
ياه
سهام
دق
بالواقعة
أخذه
##ثيوبية
متخصصين
الأطر
أقف
مكانته
عيينة
النازية
1922
ومطالب
لمسيرة
الطاز
والمخرج
##كريس
الانتعاش
مسيحية
حثيث
لإعلان
##واتر
والكليات
حرجة
##ستردام
للعملية
غرا
بشبكة
ومعرض
كارتر
سكت
نوكيا
الرؤ
فسخ
النائية
لجهاز
وأمراض
واستعداد
##ماسة
للشعر
ويحصل
صيني
التطوع
اولويات
تخلق
الليم
الموهبة
مسؤوليته
##ath
الميداليات
متعمد
والواجبات
البابطين
عملة
السبعينيات
وبالأخص
تسود
طلبوا
gr
بتقدير
بوقت
خاتم
زخ
واللعب
والرغبة
راع
شددت
##صفر
ابنا
ملزمة
##شاه
والشي
وأشرف
نتمكن
الكونغو
بخدمات
المستأ
تخاف
والفرنسية
ووقعت
المتشددين
التأليف
الهنود
##لاله
حبيبتي
بورد
##يدى
لتكريم
وفود
دة
فدخل
اسوأ
سمك
منصات
وفرص
##ht
والدتي
العباسية
والصد
استرجاع
الرقيب
محمدا
عجزت
والفلسطينيين
##وزات
إحدي
اعتقاله
إيداع
##نكر
تدع
انجاح
ليكونوا
خامنئي
عدالة
وتقليل
مرجعا
##غادر
الينا
بفت
المتكرر
مستجدات
##bl
مرسيليا
##درائية
وستين
بسرقة
تحكي
ينعم
المنافسين
إيقاع
ارسنال
الفاتحة
##oor
طاقتها
بتصوير
الكرم
ونبه
والنتيجة
بعمق
مواف
معط
##ظومة
الجلدية
##لازم
وجماهير
نفطية
الفيضانات
وطارق
المظالم
##صقة
اللند
اثارة
الجبر
السلعة
بتدريب
##fa
نزيف
جدارة
طيبا
قصارى
أسطورة
ألفي
رأسا
تسميته
الديبلوماسية
واسمه
الحلو
حصن
أفض
ملحوظة
وسع
الغيب
إيطالي
##een
أنفا
النسبي
تقلل
##ستنا
الحلق
البادية
واعتمد
الدموع
وسحب
عزاء
الإدمان
الهندسي
الاتفاقات
##قالته
العنيفة
بأسره
عائقا
اساسا
قدراتها
السيل
والحلول
##ابعاد
صديقا
##ظه
##غوا
باطلاق
##امير
يصنف
##وذكس
للمسرح
العبدلي
فوكس
اساسيا
بالصح
وليلة
بدمشق
مقاربة
##غيت
العمير
عرس
سرت
وعددها
لعملائها
حجاب
الحرج
الانقاذ
ميلانو
##دان
تلقاها
وحددت
للمدرسة
إصلاحات
بالعام
لاذ
بالبيئة
المعاش
الحاويات
كقوله
والأداء
فيكتوريا
زيارتها
الرشوة
ثقيل
الصفاء
الملحو
فآ
بوسائل
صالحا
نقدر
استحق
لأهم
الأرمن
خارجة
##ملها
##يزل
المغاربة
إعلانات
بنس
الفيزيا
الكيميائي
حاسب
##مط
فيكم
بالحكومة
غلي
##ئحة
ترسم
لتوجيهات
الاصل
كلارك
بدرية
الوضوح
1917
وشرق
المير
وتحفيز
والتحليل
المفردات
وكلمة
يستعيد
باخ
حجازي
تغييرا
زملائي
باتحاد
تركزت
فبين
والديه
التأييد
عنوانا
الأكسجين
حيوي
خرا
ينطوي
##ost
mon
##فعل
المدونة
الموجودات
وايجاد
تدين
رأسي
##ومني
للاطفال
أصيبت
للصلاة
المغتربين
المدرسين
قطاعي
فنلندا
وتضع
147
وبينهم
لأسعار
الوقائي
العبء
##ارون
الاستغلال
الوطنيين
نقلهم
الأذان
134
زملائهم
ودرا
للبرلمان
يستوجب
تستثمر
رصاص
##زبك
مؤلفة
ولاشك
أبوت
##شتاق
غلاء
##eel
وتؤ
دونه
والجمال
للاستشارات
وابنه
النفع
واليون
راقية
تاف
المبنية
والرب
وأمان
##لافه
كأفضل
الأوعية
ترعى
يحتذى
الزحام
تجعله
المانحة
ودين
اشتمل
البدائل
ارتفاعها
يستلزم
والتصميم
ويخرج
تتردد
مسلسلات
الصافي
للهجرة
##جوهرات
كرواتيا
وحاز
الناجم
ورؤية
مشاة
زجاج
##هامات
أسوان
عصابات
##نافسات
للوزراء
##اديك
وجهد
الصفدي
اكسب
##يفات
يستجيب
الشاعرة
ومك
الراي
عقارات
وصفته
##كرير
مهارة
والمشاعر
الرجلين
جذرية
##ps
المنخفض
نصير
يقوده
##اليتين
يعوض
نفهم
بالغرفة
##طباع
##وردون
المرونة
للاهتمام
##اميكية
وغدا
لافتتاح
كود
واستعمال
آلات
الإهمال
دونما
تعلمون
ندا
والحريات
لبلاد
الباط
##هديدات
to
##ذكرى
العصابات
والحزب
أجور
الضالة
ندوات
غامضة
شلل
عياش
نرفض
المجتمعي
جديا
مؤثر
والجودة
واحة
ركوب
الزرع
الآمنة
بالبلاد
الأغراض
1924
##التي
ونجحت
أديب
ميم
وخرجت
الاسلوب
وعثر
بلغاريا
الحماد
1925
متحركة
نسمح
بالمثل
##اربه
لحما
اشتهرت
ردي
##ظفة
متقاعد
##سينغ
آبار
أطلع
ارى
##غولا
تحتضن
قصوى
والتطورات
شواطئ
##كدا
ارج
نسيج
ادم
وكلنا
بالليل
##واتية
واند
سبور
وثانيا
عائدا
سيساعد
ارتياحه
المحامى
ودائع
##اريات
لبلدية
التعميم
##سنين
##قدان
والأجنبية
يعاد
ملب
انتعاش
الاكثرية
اسكتلندا
عقاري
ساوث
الباطل
سلالة
نحقق
##ومها
لشباب
هواة
##يتر
ويطلب
ليؤكد
الاضرار
لاسرائيل
تتحكم
خلقت
المؤلفة
##جاة
أرفع
الكسب
لايمكن
مرموقة
ألقي
العريس
فوك
امامه
بالطاقة
الفائض
شال
الاجازة
ونمو
الاسبق
تصاميم
دمياط
1921
بالرد
##ودلهي
عبدا
الروحي
مرفأ
وسرعان
التوصية
يصار
بله
ورمز
ويحيى
البركة
وشؤون
وتقرر
صممت
ترمي
المناقشة
تسلمت
زواجه
انطونيو
صحافية
الشرائية
فالس
وتكوين
بالكأس
##مرضات
العلاء
ولان
نايم
امتياز
والعامة
أيده
المشجعين
المتراكمة
أقصد
معسكرات
##واض
الحام
اوت
##افيه
للأول
##عور
##لح
والقيادة
الزفاف
توصف
للموارد
تقاليد
إيفان
لمكان
النظيفة
إمدادات
كاث
يلم
الاستحقاقات
050
مستلزمات
بذات
##ذله
قميص
البلاغات
دومينيك
الكرواتي
بالدول
للتفاوض
موه
والعكس
قومية
منيره
إعت
ذكية
عبدالع
سعرها
العصب
قرروا
بساطة
يتماشى
لكبار
سيساهم
1800
عطيه
##جمل
شعبها
شون
يتواصل
1914
ومهارات
مجموعه
مشابه
العريش
##قدامه
ناديا
هرمون
التكليف
تتويج
مروري
يرجح
وبني
المعيار
ففى
بالناس
متري
مؤرخ
علاجها
الدف
معالج
المداخل
##يجو
الثنيان
##رتفع
لعبه
ورفعت
ورض
الضربة
سراج
مقدر
##ورام
والإسلام
والوقت
ولكم
الحاصلين
##lam
##ناد
أوله
للإخوان
الشحي
ويدعى
##ضفاء
التوترات
الشد
الصعاب
تواكب
بأربع
يجدوا
الشركتين
##صقات
ليقول
بالجمعية
لمص
الفارسية
والحا
التصديق
القيد
المنبثقة
سدا
الطائر
وجعله
الغربيين
العك
مصارف
زغ
الودي
##ابله
للدراجات
لقطات
##خوة
والتجهيزات
الغراء
##ضاعفات
##ويان
أدبية
##افير
وإنجاز
المرموقة
أخضر
مجهولون
يخصص
المنية
مأزق
##صبع
شبيهة
اروح
يقسم
نتعامل
النقيض
موافقته
ناطق
وانتخب
بإنتاج
##واجس
استثماري
##قابات
والسلم
وهنأ
يملكه
مقهى
مقبولا
والعيش
وتعم
موسما
للأسرة
قادت
##هدر
بيا
##وحي
بحملة
##ظائف
##عاها
والتشغيل
بالدفاع
##ختها
بأمور
وأسفرت
وبموجب
يمني
##قفة
مأدبة
لني
لليمن
القنصل
بالسياسة
مطارات
الصفا
ويبحث
يحاسب
المستشارة
حلولا
والصورة
السورى
للتوعية
بائع
##كورا
غلوبل
الرض
الجغرافيا
تلعبه
##هشة
المون
معتوق
فاص
mbc
المؤدي
##رورا
دييغو
فدان
معاه
ويأخذ
650
بالخروج
جنازة
الشرايين
مصرعهم
للقضية
البالغين
فصار
##شيونال
##ish
##ارث
الكواكب
الكولوم
إنساني
يعول
فالر
لمرضى
em
لسيا
نانسي
هايد
واعدة
رئيسه
بسيطا
##خوت
حمدى
الافغانية
القلي
ضيع
ال16
##وهين
ترتكب
##سرائيليين
احبك
رحبت
نصه
##ارسيا
وطبعا
المثنى
ائتم
تشتهر
##نوب
تدريبي
لرياضة
مظاهرة
##زهة
اجزاء
ديال
واقامة
ارتفاعه
##الوني
يباع
للمسابقة
ونوعية
حضرها
والأسرة
الكاميرات
نيابية
دايما
تتوي
البدلاء
ومسرح
يبرر
تحريات
##خالق
خيالية
arab
خليفه
##دن
##كاي
والتجارب
##ack
تليف
الرزق
مخفر
ومحاربة
العوفي
الرافض
للعنف
بيم
الأقلية
ونن
الوجد
ارادة
2013م
والوسائل
الدانم
وتهيئة
لتصوير
محي
واعتزاز
الاغذية
واللام
طبيا
غداء
القاع
وتزيد
العاد
الأنابيب
قناعات
تمثال
واللواء
والبرازيلي
##ثبيت
148
تعليقا
رأسية
تجربتها
المستف
الحليم
اليتيم
وكأنهم
سجد
أمينة
تذليل
الشار
بحائل
جزئي
والموت
مشك
##هبوط
نفع
انقضاء
زعزعة
مسيرات
##امب
الكاس
عياض
القرطبي
يهدي
البندقية
دبل
الفاصلة
ونوع
سميرة
المفكر
للوقاية
وتخصيص
المسته
واجتماعيا
قومه
خيري
هالة
استكشاف
المنظر
مفردات
##عري
للدرجة
تضحك
لنتائج
الأقمار
مريضا
##انتا
البلغ
وأخذت
العاملات
ويحتل
الارهابيين
وقدرته
معمل
المنتديات
بالوضع
ستشارك
إحباط
جميله
قضاها
##ستس
وجيه
##لاها
##ركاب
وقراها
النصائح
تايلور
يروح
##ساءلة
استخبارات
شركته
استشارية
رواتبهم
وشعر
##فالة
تسوق
وظيفية
يتطرق
مستشفي
##كسسوارات
الليبرالي
اتبع
أخاف
لانهاء
وتنسيق
استثماراتها
إيا
تجلس
شقق
لوزراء
الإحصائية
الشعبى
برسالة
لايجاد
بحال
والأحداث
الأقارب
ارجع
مصرعه
مراح
بدوي
المعتقل
لتصحيح
فيراري
الدير
المنحة
ستواصل
وآله
العينات
متواضعة
وارج
والمرت
تعاليم
يوج
عناصرها
ليونيل
بياض
بلادي
فإنما
للحين
##ختر
##ماعه
اذكر
كيلي
شهيدا
سببها
حليف
الاسيوية
##قاله
##صراف
الاسنان
المبني
كالي
والقطاعات
##تناع
تهانينا
سهما
##ذرة
والبيانات
والمجلات
جوهرية
##ناقات
والبعد
وأنشطة
##مكانات
حادا
المكسيكي
مولود
بمحا
المسال
خلفها
واستعادة
الطبري
حفص
وتكريم
الايرانيين
البرب
##رتك
تتبعها
بتوجيهات
تأويل
المؤرخين
وتحولت
معاقبة
نشكر
الاختي
بينا
فادحة
الملائم
وتحويلها
بشعب
ويدعو
وبلد
فرانسوا
##رجوع
يشرب
العيوب
وابل
##سلل
المحفظة
للواقع
الجواز
محارب
ارتكبها
تعج
نشطة
والكرامة
##ماله
الفك
##قيلي
المنفذ
انتزاع
وخار
ديوانه
عودتهم
وتصوير
بائ
بتأمين
##ئيين
الأقوال
واللجان
ويلسون
عباده
كادر
منعه
الاقتراض
بتصرف
لساعات
لمعالي
##حتاجين
وتتمثل
اقتناء
البدو
المفقودين
الاقتصادى
الايمان
##قبته
يستمع
بإضافة
الأعمار
الوكلاء
تعليقات
الإطاحة
##بداعات
المتزوج
الغاض
ينشط
دوامة
##طاس
##كليزية
صفي
والسير
1431ه
لوبيز
وتحاول
والتوعية
يحس
استفسارات
اتس
ينصب
أصيبوا
وإيطاليا
ضو
##ماثل
الحالتين
وأصل
أسمائهم
مخيمات
تخسر
##lah
إحسان
أطلقتها
اختفت
بخبر
الانخراط
الجمركي
كيت
##ذوق
التحذير
باجراء
السماوي
##تف
للقمة
مشجع
شكلي
مستشارا
أزيد
جانفي
وبدء
ريان
علية
أشهد
فند
الملاحظ
الأخري
كالعادة
هارف
نصا
المغامرة
الدؤوب
مشهورة
الإبقاء
والسم
كلغ
اشد
الرفيعة
تسهل
والاستمرار
سراحه
أعود
ثمينة
وافتتح
الخالي
المتعارف
ملاء
لتاريخ
موهب
وتسويق
##سيمات
كفالة
##وبكر
استفادت
دفاعية
ماضية
##حيلي
تقريب
ومعارض
خزيمة
الوعد
ادريس
الأرضي
بيف
##ولتها
الطهارة
المحتل
المراهقة
قلبها
إبت
الاهم
ومصطفى
الحوا
وزنه
##ضلة
والعمال
تمتاز
تقاسم
##ظيفة
تذكرت
الطير
ساو
هوف
المنافق
الفضائي
بالفرار
تغل
سطر
الذكي
تعيق
بلان
##يشو
رحيم
مثمنا
غدير
##رقوا
لشب
ومثله
لتقرير
##ندوة
##برير
وسار
##رقلة
لتمثيل
ومدرب
تكتشف
المفدى
فرحا
كربلاء
##حوم
والرق
قيادية
new
الكوفة
ليبرمان
العائلي
وقب
مالها
للإصلاح
الأسطول
##ld
آملا
أعتبر
ومنتجات
أسوار
حقائب
رجا
بوبيان
الحصين
منطل
واختار
برسم
الاصلي
بفض
ومعلومات
السنغال
هامبورغ
أمهات
وعرضت
##بهم
لاجتماع
مصريين
الشجر
الدرب
معينا
الفطرية
مستند
اختفى
وتصرف
قدوة
##حنين
تحدثنا
فاشلة
مطلوبة
##بارد
خططها
وواف
طرأ
شمعون
واعد
خيوط
الثلوج
والخير
وساق
معرفته
المصطلحات
صراعات
وتساعد
ملياري
الأقليات
تتبنى
أرق
منتظم
الحوت
إطفاء
الصينيين
##ساته
نشوب
##وراس
اظهر
قولي
1927
تانى
الجمالية
##han
وتوقعت
والأمين
يقترح
فرحات
دراستهم
##ai
تعالي
الغيط
أخلاقية
والجماعة
المديرة
مقاليد
##طمأن
عصرية
##زداد
##ساقط
الضريبية
اقسام
جرا
وقبول
والتفاهم
غم
##oz
##قلص
الخضوع
أقرأ
تعبت
##هادية
وأصدق
اليك
سددها
بالمياه
كورنيش
واذ
المنق
أتي
##يرته
والصواب
ويريد
نعمان
لمرض
وضمت
ضرائب
##تلاف
طفيف
صبحي
بنوع
القاضى
ثلثي
ويعطي
##واتير
تصنف
تسجيله
صاحبي
##mi
ميغا
وردد
ودراسات
الكؤوس
المفيد
العف
أنشطتها
جماهيري
##جرامي
ادراك
والخدم
المفرج
يحظر
رسالتها
أعضائه
تحطيم
الحجي
##وهن
ويترك
خافي
سينا
##دور
بيكر
الموسمية
وواشنطن
لعمال
##خوذ
تعم
تقلص
السجود
الإحصائيات
آخذ
يوازي
المعطاء
المدرس
للأهلي
129
##خيول
أميرة
مستعدون
والمساندة
يومئذ
الانعقاد
##زاني
##ندون
كمست
بيانها
وصحة
##اغون
سائح
وأولياء
تبعات
المزمن
نبأ
يكتسب
حريص
الرت
وممت
الامتناع
يقفون
لينا
الماس
##سله
استضافت
لاستئناف
جماهيرية
السيسى
##واصة
بحثية
المستدرك
يرب
والمهم
المصطفى
وتنم
طبيبا
أكس
غزوة
##لتة
القرآنية
الجنازة
السوائل
بقص
##ثلا
السموم
أرباحها
بمواجهة
افتح
اللاذ
نهايتها
مركزه
نصائح
و18
استراتيجيا
نين
نلعب
##ونوت
للحل
الفنز
نكاح
ديموقراطي
##نعا
قسما
سلال
المرق
استراحة
الغسل
وحيا
الأنثى
مطروح
ويستطيع
أدعو
للعرض
البهجة
الهضمي
السويلم
تناوله
كفة
##قلبات
خلو
تسلل
it
ريج
للمشت
وكبيرة
فرعا
شرسة
جريد
علاقتها
##خصصين
للقرآن
##طبخ
كورت
الفاكهة
فعلته
الالتفات
السرايا
للأمة
السفلى
والجمعية
مختبرات
النمساوية
صحيف
أخيرة
ورفاقه
والتنفيذية
المرئية
التشكيك
والمثقفين
الثبيتي
القبور
استعدادها
معنوية
##زاحة
توريد
##ورث
##قاعة
والبت
النفق
يتب
مواطنة
طريقهم
ارتفاعات
نجله
##لهة
والشكر
##زالتها
جاهدا
##وزعت
تدبير
نائبة
عشت
الجنون
بصلة
اشتملت
وبحلول
سيرا
صرحت
بخل
لرفض
الدية
بالاستثمار
المبتعثين
اللمسات
الستينيات
والشعوب
المخطوطات
ومياه
وفهم
وتجعل
لرصد
سيعرض
فورية
##نيئا
أصناف
التمرين
أمها
موازين
الفدرالية
##علك
دولته
عيوني
قلقه
البلاستيكية
العزلة
وعاص
##رجس
فكم
##ابى
الإعادة
واهم
##وائب
وخت
للمتهم
الألغام
صبيحة
عداء
##مند
ليرتفع
زعل
##لتان
البرتقالي
والفلسط
آسيوية
محم
المسبقة
مبارات
المركزين
الإعلامى
##تلئ
##شيت
والزي
سينمائية
حربي
##ضبط
##قدمه
##فوذ
146
انفرد
ويشرف
##طنان
تتمنى
وخبراء
الامان
للشخص
تلزم
##ناطة
فوض
أبلغت
مساهمات
لقبول
##ائض
وبع
سياحة
للإنتاج
فوقها
خيبة
رجالات
فاعلا
##اجات
وجبل
للمال
الزائرين
مقدارها
ضريح
بيتها
رجعت
استغرب
حولت
السجائر
ستنطلق
عادوا
أفس
الحزام
سانتوس
اقليمية
بلخ
قبوله
وإجراءات
الرويس
يغفر
##بدي
تخريب
والجماعات
##قصي
يبذلها
برهان
دفتر
المسافات
##زايدا
النيجر
##خام
المشاهير
فالا
اسمك
أسبوعا
بيز
##ياتنا
1926
##أسمال
بمبدأ
إيلي
تعيشه
صناعي
##يواني
والموسيقى
مذكرا
ريش
مكلف
أعمالا
البليدة
قسنطينة
ومالك
النائ
لسوء
للالتحاق
بواجبات
الديانات
وبك
بالموضوع
براء
وشمل
الراب
المقهى
الغنائي
الكهف
##راؤها
إنجازا
تنادي
البنكية
بورتو
عفان
نواحي
الفرقاء
وحرصه
وتتكون
ستيفان
المنيع
الأون
بهيئة
أضعف
العاطفية
عزة
وأغ
##موعتين
إرساء
كمين
##وبون
الغنم
معلقا
بالمرأة
العواصم
الاحتكاك
بالإمارة
رحاب
نادال
والادارية
واستبعد
المضاد
##ريدج
##ابيح
تعويضات
##ابرين
رينو
سني
قبلة
بحصول
عساف
مستقلا
بفكرة
والأخلاق
تطويره
والدواء
آبل
ربوع
والانتماء
فأي
المجازر
تتلقى
##ديلا
زح
شجاعة
السجين
##سلات
##one
تتعارض
حلفاء
وديا
لبلد
##اتير
تغط
يشترك
النمساوي
فربما
الأبراج
المنتمين
بانكوك
دراما
##أذن
بتقنية
فراس
صفراء
لمقر
انهار
بالحوار
أجنحة
يدرسون
رقعة
عكاظ
##ضحية
##بارى
استغلالها
تبرير
##سطو
سننه
واقتصاديا
غمار
متكاف
القاها
الإيجار
شبان
فيلادلفيا
وكفاءة
المكثف
إقالة
نآ
السكرتير
قذيفة
يتعرف
نيودلهي
المقبرة
رالي
عصير
النظير
كفيل
السلفي
اجاب
الإنشائية
المساءلة
ببرا
ويحدث
الظهران
تنصيب
يحارب
موناكو
الهدى
الباحثة
ترافق
واحده
وأفغانستان
وقرأ
زيدا
##شجار
وضعوا
تونسي
القهر
قلقا
الأعمش
br
العالى
يتساءل
أطلقوا
خضوع
##مرد
مهتم
الخلط
المغيرة
غنائية
فيتم
تعدادي
للطائرات
الفايز
عنابة
يتحكم
##يكيا
العاجلة
##خلاق
الاجت
بمفرد
الغن
لخطة
##ide
تجميل
يتطور
إندونيسيا
التمهيدي
ومصادر
الحلويات
مارتين
لفض
لمشكلة
للانتقال
مصف
لتكوين
النظريات
الهدنة
لتجديد
للبقاء
المغناطيسي
عنيف
##وعود
وزارته
##ناهية
##سفيلد
العزيزة
والفواكه
اقترحت
##ian
##عمها
العساف
##ain
##هدت
بهن
القرين
غسيل
المشركين
باسيل
مختلفين
الرصيف
يتيم
وموظفي
وإمكانية
للمساهمين
أفريقي
والروح
وصوت
الأغنام
عويد
للعيش
متج
العراقيون
وواجبات
##سوة
والزم
واستقر
##حنون
مملك
وستة
الفيدرالي
##نيس
تفصيل
الصحوة
بزواج
الطموحات
للنقاش
المسبق
ومتم
للبناء
أنظر
والمشت
جاءوا
الاحتقان
والأخيرة
التكييف
##شكيلة
الابناء
##صمد
زرعة
##ديولا
والسيد
##وعوي
أدركت
أرسنال
وزنها
والفي
##راوات
##وارى
اختير
بقاع
والتضامن
سيدفع
ونبذ
بكتابة
ابنائه
الصمد
سرك
يقيمون
##ذكرات
1423ه
مسؤولى
##ذبة
استرداد
حلوان
شائع
البراءة
الفلاحين
الانحراف
الخاطئ
المعالي
رافعا
متابعات
##شيف
بالسيارة
وألم
تنز
للأشخاص
هانئ
والتب
الأسير
##ort
نورا
##sp
##ثري
##وزبك
أثرها
والتحكم
الحمي
أمرها
##اربات
منعا
دراهم
الأقصر
الباكر
وتسب
ex
شغب
السعودى
دراية
و16
الفورمولا
مبتدأ
##qu
الأخطار
الابطال
بترول
ألبرت
والإعلامية
يسيء
156
لضغوط
##تقل
##ديز
المتهمة
1900
توحي
امتنع
لعبها
##وننا
لعلم
وتطبيقات
نخيل
العطوي
##كرس
تخشى
تنفع
ثعل
الوضعية
مزاد
##طاني
وأنواع
جعلنا
المعض
يصلون
الإخراج
الفلسطينى
ضابطا
العرقية
##اريز
##اكاة
ربة
ومساهم
يتبعها
معرفي
للاعلام
الهجومي
والفنادق
والترا
أبوع
##حدار
المعادية
##باتات
كدولة
عصب
تشابه
انتصارا
للاستهلاك
والولاء
يطرأ
للسينما
##ديها
اعقاب
وامتد
يبتعد
##واقعية
ينفي
لاعبوه
##ائحين
##بيلي
تتهم
ملخص
ويرفع
لاكتشاف
للإمام
للزوار
وداخل
المفاجئة
##فئة
ماكد
المستورد
خاصية
التكيف
كقول
واصبحت
مصالحة
كرر
والتأثير
لاكثر
##لائع
إعدام
##فتوح
طلي
عهود
وبدوره
جريحا
##رخاء
##يارات
الاستراتيجيات
الطبخ
بالوطن
تتشكل
الوحي
قهوة
##ذائف
الرهان
##حرين
أنشأت
بمفرده
أفهم
##ريث
وبعث
##قايا
##سكو
امكانات
ينشأ
ham
اركان
حبل
تأشيرات
المجاني
الجابري
##كروا
لمسؤول
حظا
المتحدثين
شكرهم
لمستوى
راكبا
وتكنولوجيا
المعاد
السلطنة
تلقوا
الموساد
##موحة
لحسم
حفظهما
حكا
التكنولوجي
تجده
##نتي
جبارة
حاشية
سامر
##had
وقرار
تحطم
الزيادات
الولي
منقطع
وبصورة
منطقي
زوايا
##ناا
القراصنة
أوج
ويتناول
سيطرته
الفاء
تقصد
المؤيدين
العاطفي
بالهد
شكوك
##كينا
وتعني
الإجرامية
##كتسب
والمقاومة
ينظمه
البنفس
اجمالية
##يمبابوي
للحي
مغامرة
حضرة
##ريالا
خرب
تأثيره
وثائقي
نفر
##إلى
##ليز
ومي
أسقط
الروضان
يفتقر
الفراق
الروا
التطوعية
محدودا
اثرها
ضررا
المحاماة
##وائض
نيوكاسل
هواء
يهاجم
وأكثرها
وبخصوص
دعمهم
والوزير
##معن
بالنتيجة
يخطئ
الوالي
بابت
بميدان
مرتبطا
وبعدما
للزواج
مضمار
الرافعي
الجبار
##قتان
السعوديات
غرناطة
##راقا
بمصالح
للأسواق
سيلتقي
تداولها
نطلب
عنوانه
العريضي
التأويل
شبرا
قناع
##ثيان
الشبيبة
مادام
##وثات
داعش
ولغاية
##صالية
##وفسكي
حساس
بالصف
يعامل
الميكانيكية
رباح
وكرة
أؤكد
##رواح
انفر
الاركان
التأخر
##جاهات
حملتها
بقرارات
لالت
تأتى
قرص
الديمقراطى
##ez
يندرج
الكشفية
متوازنة
محلا
لأمر
بصفتها
معايا
شجر
الدقهلية
نطق
استفهام
مطلوبا
دوغ
تواجدها
تاركا
صكوك
مستبعد
ببغداد
فشي
المعلوم
الخوض
والألعاب
عقبات
التعافي
##فيديف
##ويلح
بمواصلة
مصدرها
##لائم
ستاندرد
افتراض
يكتمل
المقبول
تشاد
##جزئة
##لاي
الثياب
للإشراف
ماتش
ابداع
التليف
الصيدلة
أرجع
تنخفض
الارسنال
##ary
يخلص
الاعمار
بذلها
وطف
##تح
الجينات
ندري
تسليمه
حجما
وسيم
يعي
المبدئية
وأستاذ
الغاني
المؤسف
القولون
حتفهم
##عبئة
أرك
أولمبياد
نظامية
الأرثوذكسية
المتعاقبة
ناشد
السواء
وتراجعت
محدش
تفشي
ولفظ
الرهائن
والخبراء
العذراء
##رفون
##نتو
المطربة
الابتسامة
عاجلا
الصاعدة
يسدد
الوجوب
##لاين
تحتفل
الغيث
##شاءات
مكالمة
لجوء
ترتيبات
ذكرا
مزي
المقاصد
السبق
شاهدا
تبعث
##هيرة
##بيته
131
صحافيا
للعهد
إخفاء
وأجرى
جيرمان
والتشريعات
غرم
##فنا
بلورة
ندخل
الشرفاء
ومعهد
تراقب
وثمانين
##ذون
واط
قبضة
مقداره
##ظافر
بغرفة
مسكين
بتونس
المشورة
أشكر
رأوا
جسمه
تمثله
تغادر
الميزانيات
العنقري
##اضى
وتملك
##iss
والمشكلة
والتصدي
إلكترونيا
رويال
مشارف
لمنا
استطعت
##كتين
1433ه
اتهامه
الأمامي
اساليب
لمعظم
انى
##سرة
خارجيا
التوسعة
للسكن
ومدن
اقتصاديات
وجوههم
الترحيب
##نيث
حصان
الاتفاقي
##لتون
##اتهامات
##جوا
البقية
لقضية
الاغلبية
الحيض
##باسي
ابان
عزيزة
##ثاء
فأكد
ميرزا
العيادة
الداعم
البروتستان
دري
والباقي
والطفل
وأعربت
حالي
الحقيبة
والاقليمية
##راثي
الوسائط
الكشافة
التمتع
الألياف
يحذر
##وصية
صورتها
مضافة
معادية
فإنك
التدهور
المقابر
يحملها
مطالبات
وإع
مجيد
##وصاف
وحذرت
والمدرب
مدربين
##هودة
عبدالخالق
تنقسم
باسمها
تراوح
وأبان
وعطاء
المحمية
خصمه
المنشأ
صديقتي
تصني
##فاتر
ومصادرة
الانصاري
وصنع
يبني
بروس
تمضي
والشمال
عاطل
الفهيد
نتذكر
بكار
ثابتا
بلم
والعمليات
تلاميذ
سيعت
مغط
##ادتين
نظمه
انهى
فضائل
اللصوص
للمنتجات
مستغربا
تلقاه
الاختلاط
185
جداول
قارئ
تعاطف
##يتن
والمثبت
مصفاة
التضحية
كبيرين
والتطرف
كرت
اياد
لقوة
تفاصيلها
باعادة
الحنابلة
الرقة
لموضوع
يتأخر
تشن
ازدهار
الاستعمارية
عطر
يسرق
دوران
##وابل
والسياسات
هوم
الجلي
الخيانة
شعرا
يراجع
المران
##مرارية
الرواة
راسخة
هونج
والنهوض
جرم
منتخبا
للنشاط
دمار
290
##كتلة
وتحتوي
المتسبب
للقوانين
ماش
##وستن
إماراتي
##لقين
لجأت
نجحوا
157
فهاد
وفروع
ابتد
لشبونة
للمحاكمة
بروم
سوقا
انعكاس
مهددة
إثرها
سكاكا
اطلعت
##كهة
يصرخ
والثقافات
##ويني
البائ
مهاراتهم
المتبقي
عبدالحليم
للطن
فتحى
الحضانة
ومحافظات
يروج
تجمد
كالف
##طبة
##فيذه
الصعد
بدار
عآ
الشوف
وحصد
النشطة
ينطق
##ويضات
سيجد
أساسها
النهارده
جونيور
سيول
حقن
النصراوي
المأزق
تصدرها
وايد
الاسماعيلي
وابراهيم
الخلوي
##ملك
يسع
شداد
النخب
تفاوت
وأيرلندا
##ديبية
والصحيح
##بروا
الحقيق
وهبي
##اثان
الفخري
مستندات
بعلاقات
البطرير
إبداء
##طاعة
السيو
وأهله
للتاريخ
غوغل
شحنة
البيروقراطية
للعدالة
مكلفة
الاعاقة
الديانة
الأنسجة
المناهضة
تفتقد
تملأ
الشف
قسوة
والأمراض
والسكر
النشطاء
إطلاقها
##طفا
والساد
الكورنيش
واليه
والزوار
الشن
الرع
ندرة
المعب
والبدء
مناهضة
سياراتهم
للخدمة
شعاع
الزنا
سالما
ومار
بالقلق
المسيلة
يبث
الدواوين
ay
كجم
واضطر
لمعرض
##ستار
المحققة
2003م
ناتجة
##ابداع
التعددية
وإبراز
الصالحين
لخص
متوافرة
ايفان
العوام
##قلوب
##يند
المعابر
تقابل
والبرازيل
أشعار
تحملها
خبز
والمسابقات
خطتها
تسليمها
ماز
درسا
اضرار
الدرامي
##pr
الاستسلام
العريان
رياضيا
الإصلاحية
ثر
استه
للفيلم
بلسان
أجراه
ساكن
##غالات
تفسيره
ذريعة
##هلى
##سما
الفهرس
وعام
يمتاز
ناجحا
##ابز
وباتت
المتاحف
حيازة
##وانى
أكاديمي
قابلية
والأبحاث
بالمناطق
يقولك
مشتريات
المؤلفين
العائدات
الإقرار
أحضر
الاعلانات
مصابة
للنجاح
المجاور
إفطار
إنشائها
بدورهم
##لاش
إساءة
شادي
اعطى
وكار
سوهاج
يلبس
الازدهار
اللوجستية
تنفيذي
بجهاز
قتلا
المؤسسين
نيس
والمبادئ
بإزالة
ناقص
العشوائي
متسل
الألبان
المفاجآت
أواصر
1912
المسئول
لانجاز
تمشي
والادارة
هارفارد
شقي
العارف
بتراجع
##زاولة
وتسعين
التشيك
طمأن
الأقاليم
بالأسلحة
لسحب
حركته
##ويها
التأسيسي
مجاني
الرقبة
قدامة
العارض
الوهمية
عجوز
هيمنة
الناقة
##طفات
الكبري
الجوز
المرتدة
المفكرين
راتبه
النثر
مسارها
والبريط
تبرعات
تواضع
الإصدارات
والمطالبة
##وبال
غذاء
يشكو
المضمار
اللاسلكية
البدي
بدائرة
المجوهرات
ترددت
محلها
بالمزيد
بالاعتداء
فقدوا
تشريعية
يفوت
##كانا
المشرفين
احتراف
##ذكار
التكافل
نذر
محاسب
##اندا
المستقلين
حالتها
والوقاية
اعتزل
التأشيرات
الاحساس
##ولز
الكي
متب
##وفاة
أدق
الإنكليزي
##ضرات
بيكهام
ارتباطا
##اثية
ويسر
والغربية
اعتبرها
بداخله
اتجهت
وبأس
مناور
بصيغة
النصيحة
للسلطات
##نص
للدي
##معا
امتل
أخص
المحركات
لمواطني
انسي
نوعين
النسوية
سه
التها
والكفاءة
الترابط
انذار
مؤلفه
الناشطين
الإعت
للفروسية
آسفي
معيلون
الهواة
منفردا
##ادتكم
نفوسهم
والخل
رابط
الباء
اليق
بمراقبة
مستواها
المدرج
بتفعيل
اصعب
متباينة
##بيط
الملونة
والخليجية
ايل
لعله
##ky
دراسي
أحاول
عبروا
ليتني
فاجأ
وتجار
##معي
برغبة
##يشن
اختيارهم
ريفي
التويتر
يدخلون
البنين
فليت
التخصصية
سائقي
المجتهد
الفراعنة
التعليقات
إكسب
الشري
تحتمل
##غطي
رأسمالها
معدنية
والصحافة
الفوتوغرافي
زائد
يفرح
##بهاني
أسفه
باهظة
الاستجوابات
وقتنا
تمكنه
khal
خزينة
كازاخستان
الشريان
الاحتجاجية
والمقاييس
مناقشتها
والرجال
##برد
البيعة
139
البعير
اصطدام
الكالسيوم
5ر
##غفار
موقوف
الشرطي
اصدقاء
سارع
الملقاة
##ياغو
و13
مواطنون
وفجأة
يخر
والمأ
الربو
داو
فسأل
لشيء
نشأة
المستحقات
جرام
##ox
إيهاب
السحاب
تنقص
ليفني
سائل
وليا
للتنفيذ
فورت
##بعات
ارتياح
##غز
ملائ
هجومية
النهائى
egy
مفاعل
امك
تكمل
ليلعب
الإقراض
الهدية
والني
للتداول
الليكود
ألحق
متحدثا
تقييد
سلع
احتياجاتها
شطب
340
المفتاح
##شاركته
موسع
نما
##br
##ومال
والعروض
مافيه
بمقاطعة
أغلبها
شاذ
يكذب
يوش
وصعد
جالس
فضية
بالمؤسسة
والتجاري
مستقبله
##اميك
##كرتا
بحفظ
الاسراع
العباسي
##بوس
والمض
##نانه
حوارا
ومساعده
sc
وأهلها
فرغ
النهاردة
المناقصة
طرو
المتنبي
شنغ
أملك
تعجب
مرتاح
بجاية
الفرا
وضوحا
بقعة
ويرفض
الصدري
إرهابي
عقدته
##اذه
وفقدان
ابل
محكوم
تحصين
##ضيء
##حاز
أجساد
166
والفرص
##nn
##انيك
الأسوأ
تنظيمية
أقدر
ضاعت
وزوجها
والأحزاب
##جتك
##وترة
العصفور
##جلسات
مينا
يزل
منكر
بالتعامل
متدنية
غرض
والمدرسة
القسائم
الغدد
##غهام
الدمشقي
الضربات
والشاف
الترشيحات
##ونو
بريمن
المرفق
##بابات
بينة
##قترب
العميري
متطور
الامارة
ضفاف
أشوف
نيته
عندى
الأسطورة
كوسوفو
هجم
لتناول
بانشاء
لمقام
الهيدروجين
اخرج
بصناعة
أتا
المتاجر
ستون
خامس
البلجيكية
اباد
##زنا
ثمانين
والأجانب
واللاعبون
##ائهما
سيشكل
المرد
##يداد
الغيار
##فلان
ربكم
##اطبة
وأميركا
##اتو
التحرر
تسجيلها
cl
الألفية
##ورم
بولا
تمارين
عائشه
##ant
لبلوغ
استجاب
والتبري
##اريه
لأطفال
كمس
خفية
واو
لأفراد
معتدلة
المحروقات
أسما
احتراما
##لكت
وحاولت
##مكانيات
##فاعة
الخشبية
##ضايقات
الدني
الرسام
آسيوي
مستخد
وصارت
عززت
عابرة
##انديز
أعيان
##ba
فتوى
قفزة
فتحة
صحتها
لقطع
ومال
الادب
##وزارات
##واتهم
شيماء
الأمرين
المفيدة
خيانة
##قمشة
##رنست
تجنيد
الثغرات
المبيدات
ضغوطا
الذهن
البيولوجية
داره
وشكلت
بمعهد
##زعات
##بديل
دلوقتى
لجل
ترصد
ابتعد
فجرا
ساس
المجهود
بمهمة
العمومي
يظ
##جما
والمكت
##طيعة
الأعشاب
والاردن
##راجه
تصديق
للحملة
وثيق
معتمدا
1430ه
##جيلي
الدوائية
لنمو
المطروح
وينظر
الساعه
الناشر
والما
تطبيقا
بثلاثية
الحوارات
##بشر
##كاكين
pl
غارات
##آج
عيادات
السعيدي
لتحفيظ
تفريغ
مشايخ
السائح
المنحل
الخطابي
التفريط
بسقوط
المشتريات
يشتغل
البين
##باريس
ودعوة
للدعم
نراها
##بوا
##يعي
لاعبه
التزامه
الميس
تشتري
##خفضا
جرد
فقبل
154
وليامز
للبلد
ويقام
الناديين
مواجهته
الالتهاب
أنفلونزا
الزينة
الحمى
تجاوزها
آلان
شتوت
لصفوف
##سوط
العالمى
للتكنولوجيا
##لاحي
##كوبة
تفاؤله
وذهبت
العامر
إنجازه
شمالية
والبلد
عليان
زحمة
الموبايل
يفعلون
يمتلكون
للعمالة
org
والمباني
انتشارها
تأكيده
الكاميروني
المميزين
##سنت
بديوان
تداخل
عسكريين
والتشريع
يابانية
واصحاب
باستغلال
صامت
وسئل
تصاريح
لاستقطاب
للآخر
الكوميديا
الشلهوب
الإياب
ومحطات
السمعة
الواجبات
شعبيا
لعودة
##حايل
والدراسة
152
واكتفى
مدحت
ديترويت
##قطر
والجرحى
ثروات
أنشط
158
الزوجات
يتقدمهم
كمع
##ff
وكبير
بإسقاط
370
منفردة
ابتسامة
منطقتنا
للادارة
دآ
الاوكر
وحاليا
ليسجل
بدأها
اذهب
الملكى
##ذرع
للمعهد
المتواضع
العنابي
والأهداف
168
##فيلي
فشيئا
كبريات
مقدرة
بيبي
أحجام
والسياحية
لأبحاث
ذاه
أمرهم
الجمهوريين
##ماليك
الأخلاقي
الهاشمية
هاه
لطيف
ممتلكات
هوائية
والدا
ليلي
بالمعلومات
يحتم
##يحاني
##ثقيف
قراراته
بصر
##انعة
وتلا
##وقاز
بمكتبه
الأنث
الأسفل
كالديرون
وسعادة
والاشت
وضباط
كبرت
الأذى
المسكين
وعرضها
فجوة
بمدى
قرطبة
الاحكام
ومدارس
منشورات
أرملة
المختارة
الدينار
القبيل
توضي
نيم
بلو
احتمالية
الادنى
كاذبة
##عدادي
جنيهات
إستر
الحساوي
أسمى
##شاري
باش
الضوئي
أضع
والكتب
وارس
انجلترا
مجتمعاتنا
أفكاره
لوطن
141
##جازان
لفكرة
تملكها
فريقين
جوهان
##وليت
عملاق
بنغل
دنانير
اثني
##يتامينات
تكبر
بريق
التاء
هيوستن
##متهم
وجهان
انتخابي
بالإسلام
للسيارة
وقرارات
لبيت
وشهر
اجتماعهم
تصدرت
كانتا
آلله
الصفار
سيدخل
ونزل
##يجار
الكتروني
اسب
يوغ
البرك
الأثاث
الليزر
المناخي
والمؤسسة
صمود
الدعاة
حريصا
النواة
العبيدي
تراعي
المحققين
للاطمئنان
بتخفيض
جبار
وإرسال
مشروعه
الريادي
التحاليل
الاسماك
وترتيب
والخص
my
الراق
شرقية
اسود
السعوديون
بشأنه
##حاف
تقودها
مطاردة
استيقظ
سيئا
##اربي
مستثمرين
أسير
تسفر
##وفيات
العاطلين
مهاجمه
##اضة
وبحمد
والتبريكات
لباس
بالسرطان
##فضيل
نترك
الإدارى
نؤ
مشغل
غربا
جانبهم
نورث
رآه
بالعب
بأخرى
بإلقاء
وطموحات
كرمت
يقنع
للشئون
بادي
جيمي
وتبدو
والمنتج
الخمسينات
وكيلا
بدرا
الانسجام
##حش
للمسا
وبدر
ظهوره
##موث
ذيل
التبريد
البلاستيك
تعليقه
منيع
بألوان
##end
وتوعية
كمؤ
دانة
الغنيم
بخمس
للتأكيد
النخلة
اقبالا
والاجراءات
الناقلة
سكاي
ودرجة
وطبقا
حائط
##ولتين
بلق
انقرة
##ونيس
معارف
##ساها
أنتجت
خيم
تحتاجه
153
مناقصة
حافل
غناء
وإج
##زارعين
تخطى
التعيينات
بخس
نظرهم
بالسرعة
والمشروبات
اصطدمت
بغياب
يقوموا
##كملت
بنفسي
باردة
للأوقية
قدرتهم
##وائه
لبط
الغلاء
غيرنا
كوا
والاستثمارات
دخولهم
##تيها
بأنك
العقيل
كثيفة
تفاوض
جت
الملم
استولى
منافسيه
بإمكانه
وعالميا
##حاك
أموالا
##وظيفة
بالإعدام
تبديل
وقرى
فضلت
يصاحب
والهرسك
الرملية
##تهال
الطاعة
للتخفيف
##ذآ
السطور
والفتيات
لحادث
صفاء
##بالمائة
يتش
اداري
والدر
المنعقد
يشك
لعائلة
ومهم
واستعراض
وللأ
جغرافية
التعبئة
بالوحدة
متسا
##ضاهي
عاديا
##cc
البخارى
رحت
الحاسم
تدم
وشارع
بطرد
منتجة
##غمة
لأهداف
فإما
بضائع
الدبلوم
والقب
والكاتب
##وليس
التلمي
##حيص
سكني
وشعبه
إيرانية
لتوليد
##هورا
##بود
السجلات
واعتقلت
الصرعاوي
1915
بضبط
بدري
اتفقوا
شيك
ادارية
الابراهيم
لسباق
لتبلغ
المتهمون
التمويلية
فالمر
##تيهما
لتك
حمار
##هيلي
والحال
لطبيعة
التوراة
الشوا
انتاجها
الإبلاغ
المكافحة
والكشف
وتبني
حافظت
وجرت
##بعين
داون
أبان
##بابا
عروس
تزخر
مصنوعة
حوارات
وزيارة
الأقدام
القراءات
تتنافس
بلدانهم
##ليته
بنصف
##جاجي
وآخرها
##فيت
##كوادور
السامة
##كاذيب
بادارة
بالعملية
إجبار
لأسرة
معاش
بنفي
للسماح
الاشتباك
الوجهة
##صادم
المناورات
شابه
الهجمة
ديانا
محكم
بشكوى
مقاوم
ألقاب
ومند
وافادت
رأيها
تركيبة
فواتير
انقطع
حرصها
طقوس
وروي
والحزن
طلبها
##لافة
##تيوب
ميث
حصولهم
كبديل
keek
الصن
لتقليل
رقي
##المبور
احالة
التفص
والأدوات
الالي
القرص
نيب
310
المشبوهة
كلاب
وقضى
بالجيش
كخ
##وتشي
بليون
163
المقررات
الخلاص
بالمباراة
دعائم
سنان
الحبيشي
الإضاءة
لإخ
وقيادات
استضافتها
##سبرغ
والقلب
بلاعب
مجملها
##يناه
الباشا
للمنا
امرأته
شفي
##ذاع
والملابس
الطبيعى
والفرنسي
##ليتها
وانجاز
هانى
يعجز
آنآ
أمرين
بفرنسا
وقراءة
الانتر
الاحتكار
توقيعه
رفضا
الذوق
منخفضا
دونالد
ارحم
##ؤي
ملفي
إيس
لقتل
مصبح
بالحرس
بجرم
لانقاذ
يرحل
##اردينال
فسن
##فيرة
##خوا
##قتصر
بقيم
أخو
##ريرك
##ust
والمسؤولية
شاي
اجنبية
والال
مختص
الصداع
والامير
وممثلين
المتسابقين
تراها
##000
##انشستر
اقتربت
ابلاغ
أوبرا
الخيرة
الإماراتيين
طواف
المصل
يحظ
إحصائية
تجول
الأما
مزاعم
##ate
المراسم
عويض
بجن
ويصف
##راجعات
ببرامج
tr
الحصري
موظفة
الثمينة
ريمون
وعزز
##بب
المأمول
الأثير
بالمغرب
والدستور
##غتربين
الأمناء
مصيبة
عجيب
ثمارها
##شوستس
كاشفا
وإقرار
بفيروس
##عك
المكس
فيقال
الصحى
##راثيم
برمته
واجبا
جهده
خدمته
الصهاينة
وفعل
لذي
دموية
دقيقتين
##عق
بالكرة
المدعومة
جزائرية
وبالا
##ذمر
المصادقة
مباراتي
176
لإج
ماركو
بوصول
المنفى
بالقضاء
راجح
تنفق
ستصبح
تكف
وتأثيرها
بالقضية
وزارية
الاقسام
للجمعيات
اقتحمت
اختصاصات
مبالغة
نظيفين
##ناقضة
قادها
الزبيدي
أهميته
167
جمالية
يتسلم
بداعي
##awy
كانو
المحترم
اندي
غرامات
وتراث
وجو
تفرد
الفرات
وحوالي
بألف
زكى
##روشة
للتوسع
إشعار
شركتي
القاتلة
تحتها
أورو
الديزل
##قيما
خيارا
للبلدية
انتبه
واتمنى
تهميش
والقول
الأودية
الإث
الذنوب
##حاوي
مغلقا
أوسط
مسببات
##osh
مصباح
اختتام
باقتراح
نوا
أرضها
بالاقتصاد
سرايا
تكاتف
لإقرار
الغيرة
لحياة
دعونا
أثره
وانس
فأصبحت
ضوئية
##أيت
##خره
للأحداث
والهجوم
تماشيا
net
وامرأة
والسفير
حوطة
المتألق
عبدالجليل
هدي
أنطوان
تفقدية
يبادر
معدة
النقابي
##لاسفة
العقاقير
دني
الجاذبية
والمطلوب
مجنون
ومؤتمر
بنمو
المخز
استطاعوا
أمت
##واره
##طيق
بتحسين
وسرقة
وصفة
الخرائط
عبدالصمد
وطول
الاثنان
طروادة
تسلمه
الرومانسية
والكم
مقررة
بدين
استمراره
##الهم
الاستيعاب
الليبيين
استنكار
اوائل
يرو
اتوقع
ايها
صدقت
حاسم
الاط
##فسخ
سترا
ووادي
للخطوط
##قدمين
نهض
شعرها
تشترك
بالقدر
وممن
آرائهم
##شوا
امم
تحسنا
صفوت
اقتصادات
وتصحيح
وسلطان
وكرر
##وديوم
جذري
والاستماع
الاصفر
الغارات
##اينة
أعني
الحديدي
إثيوبيا
##كافآت
##بيبي
وانهم
ويعني
جزئية
بالسيا
الشيخوخة
للبعض
واحتل
ضعفا
والبيئية
أستاذا
الاستقدام
والممارسات
وحقيقة
##ind
كص
ملكي
قاتلة
وغادر
سانتا
ماركوس
فقتل
استج
ميلر
الخفجي
المفقود
يلفت
وتفاعل
عدوى
الافتراضي
##ئنة
لتقدم
##ريده
صوتك
والترفيهية
##ous
وشبكة
البروست
##يست
اللقاح
بوينغ
بادرت
بتهم
الأولمبياد
السليمان
سيزيد
بالإفراج
بالمرحلة
برض
النادر
تحق
تسارع
أغنيات
الحربى
##رأ
القش
بجامع
تيزي
مكل
الاكل
يتق
المسارات
وضغط
مقاتل
نباتي
##ياق
مزود
بخفض
الشطرنج
والتل
الاميري
المعتمدين
عريقات
وعربية
شالي
كيه
هبطت
لاه
ووكالات
##ذجي
وأعاد
طرأت
وحدثني
تدرج
تتزايد
بتقول
كونهم
##مسا
وأط
البلوغ
goo
##قوال
وصعوبة
تدريبه
التحويلات
السواد
رغبتهم
خاتمي
ff
ذكاء
والحاجة
ممثلون
##صبة
لاغ
هولاند
نجاة
العشق
المعلا
جدعان
##سلسلات
و17
الحصيلة
بتشغيل
ويساهم
كاكا
معسكره
ترشيحه
##uwa
المئوية
المحللون
nad
وتوثيق
صباحكم
حبسا
وأسعار
برمتها
أولاده
الحيطة
##amal
واجراء
يعم
المغنية
كيفن
التعدي
مسنده
خبي
دجلة
##راكب
للاستمرار
بالفتح
وستقوم
تحركت
أوسكار
تان
الاطمئنان
##سيف
وسالم
الأعباء
وتساهم
مستهلك
جيوب
حاسما
الحسبان
تتذكر
لنفسي
مقاييس
معنويا
تباين
##pic
لمساندة
وألقت
الفصيلة
السعري
سامسونج
لزي
بأرض
فأرسل
ويعزز
العمالي
ومصلحة
##عاقات
الشرطية
بالسماح
ملكه
فهمت
مولر
بجهد
شورى
وتجري
لموقف
مصريا
النفيسة
المحتجزين
الأميركيون
نخرج
والارت
التزمت
العتيق
نيكولاس
الجذور
الحك
المعجمة
المطلة
جسدها
##طحب
##عاملون
##سيحيين
لشن
حيرة
والإقامة
للنبي
إهانة
موطن
سلاحا
مضر
وباء
لتشكل
عمرة
##ينيون
لقضايا
حفرة
الموظفون
إثراء
بعي
##بدعين
قصائده
عاجزة
ثوابت
أفريقية
ورئيسة
حذيفة
##bv
التذكير
يستثمر
الفيوم
مكرم
بلع
لزوم
##ضيات
##وليه
للحرس
وبفارق
معيش
رأيهم
للمسجد
fac
يمل
باللاعبين
الكراسي
غصن
فارغة
للقوة
طريف
ونق
لعملاء
فتى
بشاير
بالبقاء
انقل
ويذهب
أبيات
ممتعة
سماح
تسون
التسليف
صرخ
بذور
سبيلا
cd
وتزايد
معمول
وأحدث
المتصل
علني
المصورة
والمناسبات
بشن
مروحية
نجمه
إفراز
بعبارة
متض
##وسون
أنتج
لمؤسسات
ويناقش
وتبعد
والترويج
للاقت
##ئس
القوا
المصمم
ناض
##شخص
التكم
تجذب
الأصناف
المقرن
هائلا
##mw
الحلي
أمراء
انزل
أياما
وشهادة
نهارا
الراديو
عري
ستؤدي
المنف
الانش
المصداقية
##كنز
تراثية
الرضاعة
برمجة
الحرفية
##اقب
لإقناع
رأيته
##برعين
لجمهورية
مسم
الاستيطانية
159
منزلة
الديحاني
صوتية
تكلفته
عاق
بالسلطة
##جيم
وزملا
الجمعان
والمحاضرات
فظ
يند
السرة
164
نجوى
ضربا
بضمان
انفسنا
يهرب
الاستبداد
رفضهم
إعجابه
420
بالانسحاب
ستعود
وبمجرد
##قور
وحملت
للجامعات
وحتي
الكوميدي
وواجه
تتعاون
مقصود
##راليا
التفرقة
بإسم
والأهلية
سألته
شهده
وبلدية
الأعيان
##يجاب
أسرتها
وانطلاقا
أفع
بتط
المفصل
بأنواعها
أجهز
دلائل
نلتقي
ماه
الطاهرة
##وتس
شتاء
كمت
##طلان
الرقابي
جمهوره
والتقني
خضير
ذمار
الثواب
تدارك
بالاخت
وأغلب
##بداية
تحبه
لأمير
##وليسترول
الإيجارات
بتغطية
كوبنها
خافيير
هوت
وهاجم
معتدل
##اتش
بالمرتبة
تعهدت
شتا
الإغلاق
وأحرز
والعام
جنوبية
فاقد
وتغلب
لكسر
162
الحربش
أراه
##نن
لتزويد
الصحافية
تحويله
مجدى
لرابطة
وبرز
ياء
يلغي
اللائق
التجاوب
وتخفيض
البنتاغون
الرغبي
التاب
النبوة
استيفاء
بتجربة
والملك
المحصلة
خبرته
أوم
##فتة
الشمرى
غريغ
المطالبات
##رفها
لصالحه
ايراني
ويخت
دالاس
العنب
بالفائدة
انطباعا
تساءل
الفخذ
دينيا
المزروع
والشروط
انكم
التشييع
وسليمان
لفرق
الرصد
تخري
ناري
منيف
لتعريف
برازيلي
##ike
##وبك
التأمل
يعودوا
##500
##ففة
للذهاب
الفراش
إنى
أكده
دمو
##ضافر
سعوديا
ادوات
إليزابيث
مضرب
إصاب
الهموم
طاش
للخيول
القنا
##اريال
منحهم
افترض
زارت
والتخلص
المني
أخذنا
لمشاكل
أنكم
ومصدر
##وتك
بأشكال
الأخيرين
مرضي
العليان
صدفة
الدلم
لليهود
المغا
الزهد
لأجهزة
الفتوح
عظمة
##ug
بالياب
الجاز
##جميلية
والتحري
التزاما
للمج
يقطن
##هرية
تفعله
مؤلفات
للألعاب
كاي
##بهما
هاجس
توريس
الإلهية
لبا
المسماة
المنسوبة
الرصيد
متشدد
ناع
الإمدادات
##كونات
توأمة
##فريقى
##si
المتعدد
وعبرت
المعتمرين
الكفيل
مقرب
فيرغ
وعرفت
لأكبر
##فلاند
تخفي
ارباحا
العطور
الحوي
##يمس
وسقوط
نقابات
##img
##لاقاة
والخامس
يرث
##are
##تهنئة
نتخ
##تيادية
حافز
قوامها
دراجات
##زود
المنار
المسر
وتوج
والقض
حديدية
أدخلت
دلت
الحرمان
الاغتيالات
أوضاعهم
بجر
يواكب
بالاط
##كسار
قصاص
العلوية
الحمار
لفهم
الصارمة
حتمية
النوا
كوشن
بالمدارس
أوصل
مارون
تفاؤل
##تافات
##سبت
القدماء
##ast
المبرر
بقلب
##عبيه
ومتنوعة
السوفيتية
المعدلات
ركعة
##قاذه
تنوعت
لكلية
بإنهاء
الجنيه
وتمر
الرخص
عقدين
القبلي
بخسارة
##فوظة
اوقف
##لالي
ويجمع
بحبس
الصحيحين
##وصة
برأسمال
##نبلي
##نينا
وبالتأكيد
بثمن
ابراز
الايدي
##تمرين
لاستخدامها
لحو
ليخ
إليهما
العلمى
الإحباط
##ive
للاتصال
أجمعين
الاضواء
الضريبي
##ئصال
خطى
برحيل
حيفا
##كنها
1910
جعلني
و100
تأخرت
مريحة
سيعلن
عربات
لاحتواء
عمدت
الحياه
##غراف
العويس
##ارسون
روبرتو
آخ
الجلالة
##باو
المستلزمات
المترو
الزام
مراقبون
الخلفاء
خليط
وتارة
والشرقية
يسوع
فقدم
بالرب
بلوك
الاجيال
بيدي
بصري
